{
  "version": "1.0",
  "truncation": null,
  "padding": null,
  "added_tokens": [
    {
      "id": 0,
      "content": "[PAD]",
      "single_word": false,
      "lstrip": false,
      "rstrip": false,
      "normalized": false,
      "special": true
    },
    {
      "id": 1,
      "content": "[UNK]",
      "single_word": false,
      "lstrip": false,
      "rstrip": false,
      "normalized": false,
      "special": true
    },
    {
      "id": 2,
      "content": "<start_title>",
      "single_word": false,
      "lstrip": false,
      "rstrip": false,
      "normalized": false,
      "special": true
    },
    {
      "id": 3,
      "content": "<end_title>",
      "single_word": false,
      "lstrip": false,
      "rstrip": false,
      "normalized": false,
      "special": true
    },
    {
      "id": 4,
      "content": "<start_ingredients>",
      "single_word": false,
      "lstrip": false,
      "rstrip": false,
      "normalized": false,
      "special": true
    },
    {
      "id": 5,
      "content": "<end_ingredients>",
      "single_word": false,
      "lstrip": false,
      "rstrip": false,
      "normalized": false,
      "special": true
    },
    {
      "id": 6,
      "content": "<start_directions>",
      "single_word": false,
      "lstrip": false,
      "rstrip": false,
      "normalized": false,
      "special": true
    },
    {
      "id": 7,
      "content": "<end>",
      "single_word": false,
      "lstrip": false,
      "rstrip": false,
      "normalized": false,
      "special": true
    }
  ],
  "normalizer": {
    "type": "Sequence",
    "normalizers": [
      {
        "type": "NFD"
      },
      {
        "type": "Lowercase"
      },
      {
        "type": "StripAccents"
      }
    ]
  },
  "pre_tokenizer": {
    "type": "Sequence",
    "pretokenizers": [
      {
        "type": "WhitespaceSplit"
      },
      {
        "type": "Punctuation",
        "behavior": "Isolated"
      }
    ]
  },
  "post_processor": null,
  "decoder": null,
  "model": {
    "type": "WordPiece",
    "unk_token": "[UNK]",
    "continuing_subword_prefix": "##",
    "max_input_chars_per_word": 100,
    "vocab": {
      "[PAD]": 0,
      "[UNK]": 1,
      "<start_title>": 2,
      "<end_title>": 3,
      "<start_ingredients>": 4,
      "<end_ingredients>": 5,
      "<start_directions>": 6,
      "<end>": 7,
      "!": 8,
      "\"": 9,
      "#": 10,
      "$": 11,
      "%": 12,
      "&": 13,
      "'": 14,
      "(": 15,
      ")": 16,
      "*": 17,
      "+": 18,
      ",": 19,
      "-": 20,
      ".": 21,
      "/": 22,
      "0": 23,
      "1": 24,
      "2": 25,
      "3": 26,
      "4": 27,
      "5": 28,
      "6": 29,
      "7": 30,
      "8": 31,
      "9": 32,
      ":": 33,
      ";": 34,
      "<": 35,
      "=": 36,
      ">": 37,
      "?": 38,
      "_": 39,
      "a": 40,
      "b": 41,
      "c": 42,
      "d": 43,
      "e": 44,
      "f": 45,
      "g": 46,
      "h": 47,
      "i": 48,
      "j": 49,
      "k": 50,
      "l": 51,
      "m": 52,
      "n": 53,
      "o": 54,
      "p": 55,
      "q": 56,
      "r": 57,
      "s": 58,
      "t": 59,
      "u": 60,
      "v": 61,
      "w": 62,
      "x": 63,
      "y": 64,
      "z": 65,
      "~": 66,
      "°": 67,
      "##l": 68,
      "##i": 69,
      "##v": 70,
      "##e": 71,
      "##r": 72,
      "##s": 73,
      "##a": 74,
      "##m": 75,
      "##t": 76,
      "##n": 77,
      "##d": 78,
      "##b": 79,
      "##o": 80,
      "##c": 81,
      "##k": 82,
      "##y": 83,
      "##h": 84,
      "##g": 85,
      "##z": 86,
      "##u": 87,
      "##p": 88,
      "##7": 89,
      "##8": 90,
      "##x": 91,
      "##1": 92,
      "##q": 93,
      "##2": 94,
      "##5": 95,
      "##3": 96,
      "##0": 97,
      "##6": 98,
      "##w": 99,
      "##4": 100,
      "##f": 101,
      "##j": 102,
      "##9": 103,
      "##°": 104,
      "##nd": 105,
      "##in": 106,
      "##ed": 107,
      "##er": 108,
      "##es": 109,
      "##he": 110,
      "##ar": 111,
      "##on": 112,
      "the": 113,
      "##ea": 114,
      "in": 115,
      "and": 116,
      "##il": 117,
      "##en": 118,
      "##it": 119,
      "to": 120,
      "##ut": 121,
      "st": 122,
      "##le": 123,
      "##at": 124,
      "##ing": 125,
      "##re": 126,
      "##ic": 127,
      "##ou": 128,
      "co": 129,
      "##al": 130,
      "##po": 131,
      "##an": 132,
      "cu": 133,
      "##poon": 134,
      "##art": 135,
      "cup": 136,
      "##edi": 137,
      "start": 138,
      "end": 139,
      "##or": 140,
      "##ent": 141,
      "ch": 142,
      "##ow": 143,
      "##st": 144,
      "##pp": 145,
      "##el": 146,
      "##ac": 147,
      "##ion": 148,
      "##gr": 149,
      "##eas": 150,
      "##ith": 151,
      "##ents": 152,
      "ingr": 153,
      "ingredi": 154,
      "with": 155,
      "ingredients": 156,
      "##ot": 157,
      "##et": 158,
      "on": 159,
      "##ab": 160,
      "un": 161,
      "##les": 162,
      "of": 163,
      "min": 164,
      "tit": 165,
      "title": 166,
      "##ak": 167,
      "##til": 168,
      "##ve": 169,
      "##dd": 170,
      "until": 171,
      "or": 172,
      "for": 173,
      "##our": 174,
      "##eat": 175,
      "br": 176,
      "##ce": 177,
      "di": 178,
      "teas": 179,
      "teaspoon": 180,
      "##ables": 181,
      "coo": 182,
      "fr": 183,
      "add": 184,
      "##ly": 185,
      "##ver": 186,
      "##em": 187,
      "minut": 188,
      "##gh": 189,
      "tables": 190,
      "tablespoon": 191,
      "sal": 192,
      "pe": 193,
      "##ir": 194,
      "minutes": 195,
      "cr": 196,
      "mi": 197,
      "##to": 198,
      "##sh": 199,
      "##ge": 200,
      "##ter": 201,
      "mix": 202,
      "##ions": 203,
      "th": 204,
      "gr": 205,
      "##ch": 206,
      "##lic": 207,
      "salt": 208,
      "cook": 209,
      "##ol": 210,
      "sa": 211,
      "##um": 212,
      "##ct": 213,
      "##ick": 214,
      "cho": 215,
      "su": 216,
      "##gar": 217,
      "##ri": 218,
      "sp": 219,
      "##pper": 220,
      "##ill": 221,
      "pepper": 222,
      "##id": 223,
      "heat": 224,
      "##ast": 225,
      "##om": 226,
      "into": 227,
      "but": 228,
      "##ine": 229,
      "fl": 230,
      "##rect": 231,
      "direct": 232,
      "wh": 233,
      "##uce": 234,
      "directions": 235,
      "pl": 236,
      "bak": 237,
      "oil": 238,
      "##ra": 239,
      "tablespoons": 240,
      "##un": 241,
      "##ure": 242,
      "cups": 243,
      "over": 244,
      "##is": 245,
      "butter": 246,
      "sugar": 247,
      "stir": 248,
      "##igh": 249,
      "##as": 250,
      "##pped": 251,
      "##ces": 252,
      "al": 253,
      "rem": 254,
      "##ack": 255,
      "##out": 256,
      "sauce": 257,
      "##ur": 258,
      "##ice": 259,
      "##gg": 260,
      "##ound": 261,
      "chopped": 262,
      "##all": 263,
      "ab": 264,
      "gar": 265,
      "##am": 266,
      "lar": 267,
      "bow": 268,
      "##ater": 269,
      "bowl": 270,
      "sh": 271,
      "che": 272,
      "be": 273,
      "##ese": 274,
      "pan": 275,
      "##im": 276,
      "large": 277,
      "water": 278,
      "##ato": 279,
      "about": 280,
      "egg": 281,
      "##eam": 282,
      "##ven": 283,
      "cheese": 284,
      "ju": 285,
      "com": 286,
      "it": 287,
      "##icken": 288,
      "sm": 289,
      "medi": 290,
      "medium": 291,
      "oun": 292,
      "##ate": 293,
      "##ro": 294,
      "##own": 295,
      "##ace": 296,
      "so": 297,
      "##ead": 298,
      "slic": 299,
      "flour": 300,
      "##ough": 301,
      "##ture": 302,
      "cream": 303,
      "##esh": 304,
      "ser": 305,
      "mixture": 306,
      "fresh": 307,
      "##ight": 308,
      "##ay": 309,
      "##ell": 310,
      "garlic": 311,
      "chicken": 312,
      "is": 313,
      "##eg": 314,
      "##oth": 315,
      "##ely": 316,
      "as": 317,
      "place": 318,
      "##ie": 319,
      "##oil": 320,
      "##ove": 321,
      "##ves": 322,
      "##ake": 323,
      "##ain": 324,
      "oven": 325,
      "##se": 326,
      "##li": 327,
      "##ry": 328,
      "##ide": 329,
      "brown": 330,
      "##ach": 331,
      "pre": 332,
      "all": 333,
      "##ad": 334,
      "cut": 335,
      "baking": 336,
      "##ap": 337,
      "can": 338,
      "spr": 339,
      "##ef": 340,
      "##ean": 341,
      "pot": 342,
      "se": 343,
      "12": 344,
      "onion": 345,
      "comb": 346,
      "red": 347,
      "from": 348,
      "at": 349,
      "##ore": 350,
      "##atoes": 351,
      "##der": 352,
      "##oo": 353,
      "top": 354,
      "an": 355,
      "oli": 356,
      "##ilk": 357,
      "cover": 358,
      "##ul": 359,
      "inch": 360,
      "##let": 361,
      "mu": 362,
      "remove": 363,
      "you": 364,
      "tom": 365,
      "cl": 366,
      "sk": 367,
      "##ated": 368,
      "teaspoons": 369,
      "juice": 370,
      "##ted": 371,
      "##qu": 372,
      "##nder": 373,
      "##ip": 374,
      "serve": 375,
      "combine": 376,
      "pow": 377,
      "10": 378,
      "bake": 379,
      "ground": 380,
      "olive": 381,
      "small": 382,
      "powder": 383,
      "par": 384,
      "##her": 385,
      "then": 386,
      "lea": 387,
      "boil": 388,
      "cool": 389,
      "if": 390,
      "milk": 391,
      "hal": 392,
      "lem": 393,
      "lemon": 394,
      "ro": 395,
      "pie": 396,
      "bl": 397,
      "each": 398,
      "##ess": 399,
      "##bs": 400,
      "ounces": 401,
      "##aste": 402,
      "##rain": 403,
      "##ant": 404,
      "let": 405,
      "well": 406,
      "##ish": 407,
      "##ink": 408,
      "##ightly": 409,
      "##ff": 410,
      "##old": 411,
      "car": 412,
      "ex": 413,
      "con": 414,
      "##ss": 415,
      "pour": 416,
      "##col": 417,
      "eggs": 418,
      "set": 419,
      "##ger": 420,
      "remain": 421,
      "##urn": 422,
      "##ite": 423,
      "##eason": 424,
      "##oc": 425,
      "##mer": 426,
      "##heat": 427,
      "remaining": 428,
      "season": 429,
      "##ard": 430,
      "sliced": 431,
      "ounce": 432,
      "##ional": 433,
      "##ee": 434,
      "she": 435,
      "##ber": 436,
      "are": 437,
      "##illet": 438,
      "gre": 439,
      "##and": 440,
      "##ole": 441,
      "hour": 442,
      "##ood": 443,
      "mel": 444,
      "##00": 445,
      "dri": 446,
      "dough": 447,
      "drain": 448,
      "##ced": 449,
      "half": 450,
      "beat": 451,
      "##illa": 452,
      "##ft": 453,
      "cor": 454,
      "van": 455,
      "li": 456,
      "vanilla": 457,
      "##age": 458,
      "##ran": 459,
      "##get": 460,
      "##ring": 461,
      "sprink": 462,
      "green": 463,
      "bread": 464,
      "##ag": 465,
      "sim": 466,
      "##gether": 467,
      "together": 468,
      "##est": 469,
      "low": 470,
      "##oll": 471,
      "veg": 472,
      "re": 473,
      "chocol": 474,
      "##ash": 475,
      "15": 476,
      "black": 477,
      "chocolate": 478,
      "##ving": 479,
      "not": 480,
      "stirring": 481,
      "taste": 482,
      "hot": 483,
      "##par": 484,
      "##ime": 485,
      "##us": 486,
      "sl": 487,
      "ble": 488,
      "corn": 489,
      "sprinkle": 490,
      "veget": 491,
      "fin": 492,
      "##ers": 493,
      "##co": 494,
      "skillet": 495,
      "##we": 496,
      "out": 497,
      "up": 498,
      "##ks": 499,
      "simmer": 500,
      "your": 501,
      "tomatoes": 502,
      "onions": 503,
      "us": 504,
      "##50": 505,
      "##one": 506,
      "high": 507,
      "preheat": 508,
      "smo": 509,
      "ext": 510,
      "mar": 511,
      "te": 512,
      "white": 513,
      "peel": 514,
      "cru": 515,
      "sc": 516,
      "##ld": 517,
      "bring": 518,
      "ne": 519,
      "##cess": 520,
      "##iz": 521,
      "pack": 522,
      "minced": 523,
      "soft": 524,
      "##isk": 525,
      "sheet": 526,
      "qu": 527,
      "past": 528,
      "##ress": 529,
      "dry": 530,
      "app": 531,
      "##ery": 532,
      "##fer": 533,
      "rice": 534,
      "more": 535,
      "pro": 536,
      "potatoes": 537,
      "pap": 538,
      "##ies": 539,
      "##inn": 540,
      "14": 541,
      "30": 542,
      "clo": 543,
      "whisk": 544,
      "them": 545,
      "bean": 546,
      "##hen": 547,
      "turn": 548,
      "roll": 549,
      "whole": 550,
      "pound": 551,
      "##ke": 552,
      "finely": 553,
      "use": 554,
      "slices": 555,
      "ar": 556,
      "seed": 557,
      "ref": 558,
      "pieces": 559,
      "cooked": 560,
      "##edd": 561,
      "##iced": 562,
      "##ile": 563,
      "meat": 564,
      "refri": 565,
      "##weet": 566,
      "pin": 567,
      "vine": 568,
      "tender": 569,
      "350": 570,
      "aside": 571,
      "vinegar": 572,
      "##ute": 573,
      "##pan": 574,
      "lightly": 575,
      "##ps": 576,
      "deg": 577,
      "##ley": 578,
      "cake": 579,
      "en": 580,
      "##ork": 581,
      "##arm": 582,
      "refriger": 583,
      "##able": 584,
      "dish": 585,
      "side": 586,
      "##ass": 587,
      "tran": 588,
      "cooking": 589,
      "trans": 590,
      "##pt": 591,
      "cloves": 592,
      "##ise": 593,
      "make": 594,
      "spoon": 595,
      "pars": 596,
      "just": 597,
      "degre": 598,
      "20": 599,
      "when": 600,
      "saucepan": 601,
      "one": 602,
      "smooth": 603,
      "thin": 604,
      "serving": 605,
      "diced": 606,
      "gold": 607,
      "dried": 608,
      "##ved": 609,
      "grated": 610,
      "##me": 611,
      "##ave": 612,
      "warm": 613,
      "##eal": 614,
      "using": 615,
      "##ins": 616,
      "##oup": 617,
      "parsley": 618,
      "##ened": 619,
      "mush": 620,
      "##oz": 621,
      "fill": 622,
      "leaves": 623,
      "this": 624,
      "roast": 625,
      "##amon": 626,
      "hours": 627,
      "##ock": 628,
      "cinn": 629,
      "##atter": 630,
      "golden": 631,
      "cinnamon": 632,
      "##room": 633,
      "spread": 634,
      "beef": 635,
      "##ries": 636,
      "mushroom": 637,
      "blend": 638,
      "bot": 639,
      "##ru": 640,
      "will": 641,
      "##uts": 642,
      "tomato": 643,
      "##cc": 644,
      "thr": 645,
      "degrees": 646,
      "put": 647,
      "##ue": 648,
      "bef": 649,
      "before": 650,
      "transfer": 651,
      "thick": 652,
      "chil": 653,
      "##per": 654,
      "beans": 655,
      "broth": 656,
      "squ": 657,
      "lay": 658,
      "##av": 659,
      "##b0": 660,
      "##00b0": 661,
      "##ree": 662,
      "melted": 663,
      "##akes": 664,
      "##ots": 665,
      "##u00b0": 666,
      "cont": 667,
      "wine": 668,
      "crum": 669,
      "##rim": 670,
      "grill": 671,
      "##pping": 672,
      "bas": 673,
      "oran": 674,
      "##ray": 675,
      "saute": 676,
      "toss": 677,
      "##sp": 678,
      "##inger": 679,
      "soup": 680,
      "through": 681,
      "peeled": 682,
      "prepar": 683,
      "sod": 684,
      "carr": 685,
      "pasta": 686,
      "tem": 687,
      "process": 688,
      "gl": 689,
      "##act": 690,
      "sweet": 691,
      "shr": 692,
      "##east": 693,
      "##eep": 694,
      "##tom": 695,
      "bottom": 696,
      "vegetable": 697,
      "salad": 698,
      "##stard": 699,
      "paper": 700,
      "fat": 701,
      "fry": 702,
      "opt": 703,
      "##mo": 704,
      "##ently": 705,
      "garn": 706,
      "##rap": 707,
      "orange": 708,
      "by": 709,
      "##ub": 710,
      "chill": 711,
      "##ars": 712,
      "garnish": 713,
      "##ature": 714,
      "##nds": 715,
      "almo": 716,
      "liqu": 717,
      "##tle": 718,
      "##ew": 719,
      "ginger": 720,
      "##ately": 721,
      "fir": 722,
      "may": 723,
      "optional": 724,
      "div": 725,
      "##ade": 726,
      "even": 727,
      "temper": 728,
      "rack": 729,
      "##ipe": 730,
      "##ides": 731,
      "hea": 732,
      "spray": 733,
      "res": 734,
      "coat": 735,
      "pork": 736,
      "bac": 737,
      "po": 738,
      "parm": 739,
      "temperature": 740,
      "##ges": 741,
      "shredd": 742,
      "bacon": 743,
      "##uc": 744,
      "shredded": 745,
      "stick": 746,
      "##th": 747,
      "do": 748,
      "free": 749,
      "##ire": 750,
      "ice": 751,
      "##ract": 752,
      "sides": 753,
      "##fe": 754,
      "reduce": 755,
      "time": 756,
      "pur": 757,
      "##vy": 758,
      "des": 759,
      "##ian": 760,
      "lb": 761,
      "##uff": 762,
      "off": 763,
      "extract": 764,
      "cub": 765,
      "lime": 766,
      "mushrooms": 767,
      "##ong": 768,
      "minute": 769,
      "freshly": 770,
      "##ined": 771,
      "tw": 772,
      "coc": 773,
      "##ired": 774,
      "sour": 775,
      "##ally": 776,
      "greas": 777,
      "mustard": 778,
      "##ips": 779,
      "##ome": 780,
      "seeds": 781,
      "stock": 782,
      "cel": 783,
      "uns": 784,
      "siz": 785,
      "that": 786,
      "##pose": 787,
      "heavy": 788,
      "##berries": 789,
      "slice": 790,
      "melt": 791,
      "crust": 792,
      "desired": 793,
      "quart": 794,
      "food": 795,
      "package": 796,
      "purpose": 797,
      "##enn": 798,
      "##sc": 799,
      "##ist": 800,
      "parmes": 801,
      "basil": 802,
      "parmesan": 803,
      "toast": 804,
      "liquid": 805,
      "down": 806,
      "celery": 807,
      "##ze": 808,
      "sy": 809,
      "seasoning": 810,
      "crush": 811,
      "layer": 812,
      "syru": 813,
      "##ozen": 814,
      "syrup": 815,
      "soda": 816,
      "##ini": 817,
      "##ressing": 818,
      "room": 819,
      "refrigerate": 820,
      "batter": 821,
      "cent": 822,
      "kn": 823,
      "##oney": 824,
      "honey": 825,
      "chili": 826,
      "filling": 827,
      "onto": 828,
      "gently": 829,
      "##ort": 830,
      "de": 831,
      "extra": 832,
      "frozen": 833,
      "lo": 834,
      "rec": 835,
      "they": 836,
      "##onut": 837,
      "##led": 838,
      "shall": 839,
      "light": 840,
      "drained": 841,
      "slightly": 842,
      "tsp": 843,
      "##ould": 844,
      "tbs": 845,
      "coconut": 846,
      "comp": 847,
      "##gin": 848,
      "have": 849,
      "mo": 850,
      "##ble": 851,
      "evenly": 852,
      "##other": 853,
      "peppers": 854,
      "form": 855,
      "##antro": 856,
      "cil": 857,
      "shrim": 858,
      "cilantro": 859,
      "browned": 860,
      "hand": 861,
      "bag": 862,
      "tor": 863,
      "shrimp": 864,
      "once": 865,
      "crushed": 866,
      "##yme": 867,
      "thyme": 868,
      "cold": 869,
      "any": 870,
      "reser": 871,
      "##aw": 872,
      "another": 873,
      "very": 874,
      "complet": 875,
      "thinly": 876,
      "##ich": 877,
      "softened": 878,
      "lit": 879,
      "vegetables": 880,
      "occ": 881,
      "##ary": 882,
      "##ush": 883,
      "##ionally": 884,
      "##uit": 885,
      "chips": 886,
      "center": 887,
      "occas": 888,
      "##eak": 889,
      "dressing": 890,
      "pinch": 891,
      "breast": 892,
      "occasionally": 893,
      "soy": 894,
      "need": 895,
      "##ame": 896,
      "fold": 897,
      "im": 898,
      "marin": 899,
      "ed": 900,
      "completely": 901,
      "13": 902,
      "foil": 903,
      "two": 904,
      "carrots": 905,
      "while": 906,
      "##ther": 907,
      "##min": 908,
      "tur": 909,
      "##avor": 910,
      "##na": 911,
      "##ano": 912,
      "keep": 913,
      "plate": 914,
      "like": 915,
      "##ous": 916,
      "pure": 917,
      "nut": 918,
      "allow": 919,
      "zest": 920,
      "cris": 921,
      "little": 922,
      "fish": 923,
      "##ig": 924,
      "skin": 925,
      "some": 926,
      "paste": 927,
      "##cor": 928,
      "stand": 929,
      "spin": 930,
      "16": 931,
      "apple": 932,
      "non": 933,
      "seco": 934,
      "spinach": 935,
      "##stant": 936,
      "##zz": 937,
      "##els": 938,
      "oz": 939,
      "pean": 940,
      "bit": 941,
      "potato": 942,
      "processor": 943,
      "##ump": 944,
      "press": 945,
      "other": 946,
      "drizz": 947,
      "##alted": 948,
      "ko": 949,
      "bell": 950,
      "##berry": 951,
      "wrap": 952,
      "##ment": 953,
      "col": 954,
      "unsalted": 955,
      "ball": 956,
      "spe": 957,
      "clean": 958,
      "recipe": 959,
      "cumin": 960,
      "##tt": 961,
      "whi": 962,
      "boiling": 963,
      "brush": 964,
      "##og": 965,
      "kosh": 966,
      "kosher": 967,
      "crisp": 968,
      "saus": 969,
      "##ka": 970,
      "##astic": 971,
      "##oughly": 972,
      "blender": 973,
      "contin": 974,
      "mixer": 975,
      "##ided": 976,
      "##75": 977,
      "prepared": 978,
      "ore": 979,
      "ri": 980,
      "slow": 981,
      "plus": 982,
      "should": 983,
      "##can": 984,
      "least": 985,
      "enough": 986,
      "tow": 987,
      "gran": 988,
      "cookies": 989,
      "thicken": 990,
      "tbsp": 991,
      "cookie": 992,
      "25": 993,
      "##till": 994,
      "yol": 995,
      "tortill": 996,
      "covered": 997,
      "size": 998,
      "##ang": 999,
      "##raw": 1000,
      "nood": 1001,
      "drizzle": 1002,
      "##fter": 1003,
      "mixing": 1004,
      "stri": 1005,
      "imm": 1006,
      "immedi": 1007,
      "cur": 1008,
      "immediately": 1009,
      "topping": 1010,
      "##urt": 1011,
      "sur": 1012,
      "plastic": 1013,
      "##gano": 1014,
      "few": 1015,
      "crumbs": 1016,
      "pounds": 1017,
      "after": 1018,
      "##arch": 1019,
      "has": 1020,
      "ins": 1021,
      "divided": 1022,
      "am": 1023,
      "scall": 1024,
      "##ices": 1025,
      "read": 1026,
      "##enne": 1027,
      "##ll": 1028,
      "##nuts": 1029,
      "firm": 1030,
      "oregano": 1031,
      "pecan": 1032,
      "apples": 1033,
      "##erry": 1034,
      "sausage": 1035,
      "bo": 1036,
      "addit": 1037,
      "##ches": 1038,
      "nuts": 1039,
      "##por": 1040,
      "pea": 1041,
      "continue": 1042,
      "##key": 1043,
      "18": 1044,
      "surf": 1045,
      "##sem": 1046,
      "ret": 1047,
      "mean": 1048,
      "chedd": 1049,
      "cheddar": 1050,
      "toasted": 1051,
      "##row": 1052,
      "pastry": 1053,
      "pat": 1054,
      "crack": 1055,
      "cubes": 1056,
      "yog": 1057,
      "yogurt": 1058,
      "noodles": 1059,
      "flakes": 1060,
      "surface": 1061,
      "turkey": 1062,
      "chi": 1063,
      "##ust": 1064,
      "per": 1065,
      "done": 1066,
      "rest": 1067,
      "glass": 1068,
      "##ric": 1069,
      "##ully": 1070,
      "mayon": 1071,
      "vir": 1072,
      "bon": 1073,
      "##naise": 1074,
      "virgin": 1075,
      "combined": 1076,
      "leaf": 1077,
      "disc": 1078,
      "pul": 1079,
      "##af": 1080,
      "contain": 1081,
      "##os": 1082,
      "peanut": 1083,
      "return": 1084,
      "don": 1085,
      "muff": 1086,
      "mayonnaise": 1087,
      "round": 1088,
      "##cr": 1089,
      "bay": 1090,
      "flavor": 1091,
      "crumb": 1092,
      "##ked": 1093,
      "##u00b0f": 1094,
      "straw": 1095,
      "400": 1096,
      "##wh": 1097,
      "greased": 1098,
      "wal": 1099,
      "ban": 1100,
      "fruit": 1101,
      "##ark": 1102,
      "arran": 1103,
      "beaten": 1104,
      "##meg": 1105,
      "375": 1106,
      "around": 1107,
      "nutmeg": 1108,
      "##ting": 1109,
      "##ually": 1110,
      "mash": 1111,
      "speed": 1112,
      "rep": 1113,
      "back": 1114,
      "ham": 1115,
      "##25": 1116,
      "##pe": 1117,
      "banan": 1118,
      "45": 1119,
      "mic": 1120,
      "##ive": 1121,
      "##while": 1122,
      "##wise": 1123,
      "caref": 1124,
      "arrange": 1125,
      "##ais": 1126,
      "strips": 1127,
      "meanwhile": 1128,
      "puree": 1129,
      "separ": 1130,
      "clove": 1131,
      "papri": 1132,
      "##ta": 1133,
      "roasted": 1134,
      "discard": 1135,
      "av": 1136,
      "kni": 1137,
      "##ling": 1138,
      "cornst": 1139,
      "paprika": 1140,
      "cornstarch": 1141,
      "chop": 1142,
      "##ellow": 1143,
      "flat": 1144,
      "no": 1145,
      "seconds": 1146,
      "first": 1147,
      "ses": 1148,
      "fork": 1149,
      "##cover": 1150,
      "sesame": 1151,
      "microw": 1152,
      "lbs": 1153,
      "ital": 1154,
      "##ites": 1155,
      "edges": 1156,
      "yellow": 1157,
      "knife": 1158,
      "bun": 1159,
      "wor": 1160,
      "her": 1161,
      "italian": 1162,
      "cass": 1163,
      "uncover": 1164,
      "##ator": 1165,
      "we": 1166,
      "##ape": 1167,
      "ag": 1168,
      "ad": 1169,
      "ml": 1170,
      "blended": 1171,
      "oat": 1172,
      "whites": 1173,
      "##kin": 1174,
      "loo": 1175,
      "part": 1176,
      "##onger": 1177,
      "almonds": 1178,
      "sea": 1179,
      "prepare": 1180,
      "coars": 1181,
      "mint": 1182,
      "##ula": 1183,
      "##oy": 1184,
      "bet": 1185,
      "inches": 1186,
      "margar": 1187,
      "##pple": 1188,
      "ready": 1189,
      "day": 1190,
      "casser": 1191,
      "broil": 1192,
      "cay": 1193,
      "zuc": 1194,
      "powdered": 1195,
      "zucch": 1196,
      "pinea": 1197,
      "longer": 1198,
      "cayenne": 1199,
      "##ella": 1200,
      "casserole": 1201,
      "parch": 1202,
      "packed": 1203,
      "microwave": 1204,
      "take": 1205,
      "parchment": 1206,
      "##ost": 1207,
      "wire": 1208,
      "container": 1209,
      "coarsely": 1210,
      "pineapple": 1211,
      "zucchini": 1212,
      "too": 1213,
      "refrigerator": 1214,
      "peas": 1215,
      "needed": 1216,
      "si": 1217,
      "squash": 1218,
      "##stick": 1219,
      "##mon": 1220,
      "wed": 1221,
      "divide": 1222,
      "both": 1223,
      "##ates": 1224,
      "coco": 1225,
      "ap": 1226,
      "constant": 1227,
      "pecans": 1228,
      "margarine": 1229,
      "repeat": 1230,
      "constantly": 1231,
      "pump": 1232,
      "chun": 1233,
      "##oun": 1234,
      "shell": 1235,
      "##ddle": 1236,
      "cocoa": 1237,
      "##ander": 1238,
      "##ulated": 1239,
      "work": 1240,
      "blue": 1241,
      "fine": 1242,
      "##ola": 1243,
      "strain": 1244,
      "short": 1245,
      "line": 1246,
      "##med": 1247,
      "dark": 1248,
      "diss": 1249,
      "pumpkin": 1250,
      "cann": 1251,
      "acc": 1252,
      "dissol": 1253,
      "trim": 1254,
      "marinade": 1255,
      "##ding": 1256,
      "squar": 1257,
      "##joy": 1258,
      "remo": 1259,
      "##als": 1260,
      "eas": 1261,
      "enjoy": 1262,
      "##eng": 1263,
      "##apen": 1264,
      "##sa": 1265,
      "thor": 1266,
      "dip": 1267,
      "rais": 1268,
      "##abb": 1269,
      "yolks": 1270,
      "thoroughly": 1271,
      "##amel": 1272,
      "salmon": 1273,
      "get": 1274,
      "rub": 1275,
      "turning": 1276,
      "##ength": 1277,
      "bub": 1278,
      "carrot": 1279,
      "rosem": 1280,
      "rosemary": 1281,
      "jal": 1282,
      "whipped": 1283,
      "granulated": 1284,
      "##milk": 1285,
      "piece": 1286,
      "stuff": 1287,
      "cran": 1288,
      "broc": 1289,
      "comes": 1290,
      "##less": 1291,
      "##fl": 1292,
      "frost": 1293,
      "##ey": 1294,
      "length": 1295,
      "40": 1296,
      "broccol": 1297,
      "jalapen": 1298,
      "redu": 1299,
      "walnuts": 1300,
      "grease": 1301,
      "go": 1302,
      "ever": 1303,
      "sure": 1304,
      "lett": 1305,
      "sheets": 1306,
      "##night": 1307,
      "additional": 1308,
      "bar": 1309,
      "##ful": 1310,
      "##rig": 1311,
      "##umber": 1312,
      "stem": 1313,
      "ther": 1314,
      "sprig": 1315,
      "dro": 1316,
      "broccoli": 1317,
      "overnight": 1318,
      "##way": 1319,
      "pit": 1320,
      "sw": 1321,
      "lettuce": 1322,
      "breasts": 1323,
      "frying": 1324,
      "color": 1325,
      "pr": 1326,
      "##erries": 1327,
      "prefer": 1328,
      "note": 1329,
      "wa": 1330,
      "scrap": 1331,
      "store": 1332,
      "wash": 1333,
      "gla": 1334,
      "##ten": 1335,
      "##ied": 1336,
      "cabb": 1337,
      "buttermilk": 1338,
      "steak": 1339,
      "##izz": 1340,
      "almond": 1341,
      "loaf": 1342,
      "##ction": 1343,
      "cuc": 1344,
      "again": 1345,
      "cabbage": 1346,
      "caramel": 1347,
      "cucumber": 1348,
      "wheat": 1349,
      "##aking": 1350,
      "mixed": 1351,
      "wedges": 1352,
      "chilled": 1353,
      "long": 1354,
      "uncovered": 1355,
      "grad": 1356,
      "cans": 1357,
      "bat": 1358,
      "carefully": 1359,
      "moz": 1360,
      "yeast": 1361,
      "gradually": 1362,
      "slowly": 1363,
      "##eless": 1364,
      "##au": 1365,
      "olives": 1366,
      "tart": 1367,
      "boneless": 1368,
      "##amb": 1369,
      "##so": 1370,
      "reduced": 1371,
      "salsa": 1372,
      "##ts": 1373,
      "every": 1374,
      "mozz": 1375,
      "pans": 1376,
      "jar": 1377,
      "##ams": 1378,
      "##arella": 1379,
      "##ocad": 1380,
      "fillet": 1381,
      "##porated": 1382,
      "reserved": 1383,
      "pu": 1384,
      "avocad": 1385,
      "pizz": 1386,
      "halved": 1387,
      "mozzarella": 1388,
      "quick": 1389,
      "##ings": 1390,
      "34": 1391,
      "##ok": 1392,
      "deep": 1393,
      "used": 1394,
      "adding": 1395,
      "##ah": 1396,
      "seeded": 1397,
      "##ffee": 1398,
      "floured": 1399,
      "##bst": 1400,
      "inser": 1401,
      "nonstick": 1402,
      "##xt": 1403,
      "creamy": 1404,
      "sand": 1405,
      "dou": 1406,
      "##pl": 1407,
      "##lect": 1408,
      "##imes": 1409,
      "cre": 1410,
      "##ower": 1411,
      "bubb": 1412,
      "break": 1413,
      "thaw": 1414,
      "lid": 1415,
      "accor": 1416,
      "pick": 1417,
      "squee": 1418,
      "according": 1419,
      "dash": 1420,
      "pudd": 1421,
      "balls": 1422,
      "##ween": 1423,
      "shape": 1424,
      "between": 1425,
      "muffin": 1426,
      "under": 1427,
      "##shire": 1428,
      "pizza": 1429,
      "next": 1430,
      "##meal": 1431,
      "separate": 1432,
      "appro": 1433,
      "raisins": 1434,
      "shallots": 1435,
      "steam": 1436,
      "pudding": 1437,
      "want": 1438,
      "good": 1439,
      "##tershire": 1440,
      "run": 1441,
      "chunks": 1442,
      "seal": 1443,
      "thickened": 1444,
      "ras": 1445,
      "##ind": 1446,
      "worces": 1447,
      "approx": 1448,
      "##op": 1449,
      "curry": 1450,
      "##riander": 1451,
      "lengthwise": 1452,
      "worcestershire": 1453,
      "frosting": 1454,
      "##ium": 1455,
      "spat": 1456,
      "rolls": 1457,
      "platter": 1458,
      "fluff": 1459,
      "canola": 1460,
      "##cake": 1461,
      "##wich": 1462,
      "scallions": 1463,
      "tortillas": 1464,
      "##arp": 1465,
      "sandwich": 1466,
      "bis": 1467,
      "glaze": 1468,
      "coriander": 1469,
      "rasp": 1470,
      "canned": 1471,
      "op": 1472,
      "lined": 1473,
      "##lo": 1474,
      "cooled": 1475,
      "dill": 1476,
      "cubed": 1477,
      "##ening": 1478,
      "cons": 1479,
      "heated": 1480,
      "crumbled": 1481,
      "spatula": 1482,
      "still": 1483,
      "11": 1484,
      "also": 1485,
      "elect": 1486,
      "##isten": 1487,
      "##ount": 1488,
      "jalapeno": 1489,
      "chops": 1490,
      "shallow": 1491,
      "aspar": 1492,
      "electric": 1493,
      "coated": 1494,
      "##agus": 1495,
      "rins": 1496,
      "asparagus": 1497,
      "dut": 1498,
      "coffee": 1499,
      "##aple": 1500,
      "lamb": 1501,
      "##ider": 1502,
      "maple": 1503,
      "juices": 1504,
      "##ale": 1505,
      "##crum": 1506,
      "##eter": 1507,
      "##ets": 1508,
      "##inse": 1509,
      "leave": 1510,
      "##uck": 1511,
      "breadcrum": 1512,
      "strawberries": 1513,
      "rinsed": 1514,
      "##cessary": 1515,
      "rinse": 1516,
      "spice": 1517,
      "necessary": 1518,
      "wood": 1519,
      "freeze": 1520,
      "quarter": 1521,
      "35": 1522,
      "cherry": 1523,
      "sit": 1524,
      "##flower": 1525,
      "chives": 1526,
      "##red": 1527,
      "##cy": 1528,
      "ve": 1529,
      "excess": 1530,
      "sprigs": 1531,
      "banana": 1532,
      "##ier": 1533,
      "##plant": 1534,
      "eggplant": 1535,
      "##amic": 1536,
      "scoo": 1537,
      "soak": 1538,
      "till": 1539,
      "tortilla": 1540,
      "ribs": 1541,
      "avocado": 1542,
      "fet": 1543,
      "towel": 1544,
      "freez": 1545,
      "cap": 1546,
      "reserve": 1547,
      "##urger": 1548,
      "##andy": 1549,
      "salted": 1550,
      "port": 1551,
      "oats": 1552,
      "bec": 1553,
      "##ens": 1554,
      "halves": 1555,
      "beg": 1556,
      "see": 1557,
      "baked": 1558,
      "inserted": 1559,
      "##ina": 1560,
      "##fection": 1561,
      "air": 1562,
      "ev": 1563,
      "sodium": 1564,
      "head": 1565,
      "plain": 1566,
      "##nut": 1567,
      "confection": 1568,
      "removed": 1569,
      "##arse": 1570,
      "coarse": 1571,
      "thawed": 1572,
      "drop": 1573,
      "only": 1574,
      "##ck": 1575,
      "24": 1576,
      "##ease": 1577,
      "sized": 1578,
      "breadcrumbs": 1579,
      "cider": 1580,
      "##jon": 1581,
      "bab": 1582,
      "dijon": 1583,
      "##ino": 1584,
      "##ird": 1585,
      "towels": 1586,
      "bals": 1587,
      "greens": 1588,
      "balsamic": 1589,
      "##bed": 1590,
      "##coo": 1591,
      "##ron": 1592,
      "fillets": 1593,
      "tooth": 1594,
      "my": 1595,
      "##tern": 1596,
      "lef": 1597,
      "##ation": 1598,
      "##cakes": 1599,
      "##hett": 1600,
      "shortening": 1601,
      "along": 1602,
      "mon": 1603,
      "##sor": 1604,
      "baby": 1605,
      "tin": 1606,
      "spices": 1607,
      "skinless": 1608,
      "##just": 1609,
      "50": 1610,
      "bisc": 1611,
      "##ball": 1612,
      "consisten": 1613,
      "mac": 1614,
      "same": 1615,
      "scoop": 1616,
      "fluffy": 1617,
      "adjust": 1618,
      "consistency": 1619,
      "ind": 1620,
      "##ener": 1621,
      "##pick": 1622,
      "toothpick": 1623,
      "##atin": 1624,
      "##ollow": 1625,
      "middle": 1626,
      "freezer": 1627,
      "incor": 1628,
      "spl": 1629,
      "whip": 1630,
      "subst": 1631,
      "dutch": 1632,
      "fit": 1633,
      "grain": 1634,
      "weight": 1635,
      "##ia": 1636,
      "fenn": 1637,
      "fennel": 1638,
      "##corn": 1639,
      "bowls": 1640,
      "##ously": 1641,
      "substit": 1642,
      "ripe": 1643,
      "fre": 1644,
      "such": 1645,
      "shake": 1646,
      "pink": 1647,
      "sem": 1648,
      "approxim": 1649,
      "instant": 1650,
      "hands": 1651,
      "wooden": 1652,
      "knead": 1653,
      "moist": 1654,
      "confectioners": 1655,
      "##up": 1656,
      "ket": 1657,
      "##oni": 1658,
      "chile": 1659,
      "best": 1660,
      "burn": 1661,
      "ric": 1662,
      "##yle": 1663,
      "me": 1664,
      "##te": 1665,
      "##iv": 1666,
      "##eaks": 1667,
      "pulse": 1668,
      "##ages": 1669,
      "crab": 1670,
      "unsweet": 1671,
      "mashed": 1672,
      "cooker": 1673,
      "lee": 1674,
      "made": 1675,
      "fra": 1676,
      "spag": 1677,
      "trimmed": 1678,
      "unsweetened": 1679,
      "spaghett": 1680,
      "smoked": 1681,
      "##bl": 1682,
      "##quently": 1683,
      "sharp": 1684,
      "##oss": 1685,
      "meas": 1686,
      "frequently": 1687,
      "style": 1688,
      "##ench": 1689,
      "approximately": 1690,
      "art": 1691,
      "sn": 1692,
      "whipping": 1693,
      "325": 1694,
      "than": 1695,
      "spaghetti": 1696,
      "four": 1697,
      "biscuit": 1698,
      "##cept": 1699,
      "grilled": 1700,
      "making": 1701,
      "##ils": 1702,
      "roasting": 1703,
      "plates": 1704,
      "350u00b0": 1705,
      "spring": 1706,
      "hard": 1707,
      "moder": 1708,
      "##idge": 1709,
      "sticks": 1710,
      "##uring": 1711,
      "eva": 1712,
      "much": 1713,
      "reg": 1714,
      "wil": 1715,
      "except": 1716,
      "cau": 1717,
      "gel": 1718,
      "broiler": 1719,
      "stems": 1720,
      "##cing": 1721,
      "loos": 1722,
      "patt": 1723,
      "stal": 1724,
      "he": 1725,
      "##ull": 1726,
      "almost": 1727,
      "dust": 1728,
      "scrape": 1729,
      "times": 1730,
      "sage": 1731,
      "french": 1732,
      "##otta": 1733,
      "steaks": 1734,
      "##of": 1735,
      "tou": 1736,
      "feta": 1737,
      "ricotta": 1738,
      "bunch": 1739,
      "##ai": 1740,
      "box": 1741,
      "##ular": 1742,
      "lower": 1743,
      "cranberries": 1744,
      "squares": 1745,
      "##unch": 1746,
      "tops": 1747,
      "fridge": 1748,
      "icing": 1749,
      "##irc": 1750,
      "depe": 1751,
      "gener": 1752,
      "double": 1753,
      "##fu": 1754,
      "dice": 1755,
      "apart": 1756,
      "herbs": 1757,
      "##icy": 1758,
      "##ness": 1759,
      "way": 1760,
      "meatball": 1761,
      "ha": 1762,
      "sift": 1763,
      "circ": 1764,
      "##iss": 1765,
      "cutting": 1766,
      "amount": 1767,
      "three": 1768,
      "roughly": 1769,
      "rise": 1770,
      "follow": 1771,
      "artich": 1772,
      "equ": 1773,
      "days": 1774,
      "##head": 1775,
      "vegg": 1776,
      "finish": 1777,
      "skew": 1778,
      "ste": 1779,
      "bananas": 1780,
      "crock": 1781,
      "batches": 1782,
      "rea": 1783,
      "its": 1784,
      "mini": 1785,
      "##ably": 1786,
      "##meric": 1787,
      "cauli": 1788,
      "##cooked": 1789,
      "stew": 1790,
      "beating": 1791,
      "puff": 1792,
      "third": 1793,
      "cauliflower": 1794,
      "##thing": 1795,
      "grams": 1796,
      "mang": 1797,
      "often": 1798,
      "rom": 1799,
      "##be": 1800,
      "##adish": 1801,
      "ahead": 1802,
      "rum": 1803,
      "350f": 1804,
      "wax": 1805,
      "tun": 1806,
      "leaving": 1807,
      "##od": 1808,
      "sever": 1809,
      "fried": 1810,
      "##anch": 1811,
      "edge": 1812,
      "inst": 1813,
      "425": 1814,
      "##int": 1815,
      "jam": 1816,
      "rel": 1817,
      "several": 1818,
      "strawberry": 1819,
      "squeeze": 1820,
      "wet": 1821,
      "##ons": 1822,
      "##orm": 1823,
      "tofu": 1824,
      "##ug": 1825,
      "tightly": 1826,
      "full": 1827,
      "cornmeal": 1828,
      "tuna": 1829,
      "second": 1830,
      "quartered": 1831,
      "mango": 1832,
      "bite": 1833,
      "##iff": 1834,
      "sun": 1835,
      "##if": 1836,
      "cas": 1837,
      "apric": 1838,
      "350u00b0f": 1839,
      "##x1": 1840,
      "easy": 1841,
      "chiles": 1842,
      "begin": 1843,
      "now": 1844,
      "crackers": 1845,
      "substitute": 1846,
      "absor": 1847,
      "##ating": 1848,
      "cond": 1849,
      "spicy": 1850,
      "##chup": 1851,
      "ketchup": 1852,
      "gelatin": 1853,
      "square": 1854,
      "makes": 1855,
      "shells": 1856,
      "##ily": 1857,
      "depend": 1858,
      "berries": 1859,
      "##gon": 1860,
      "raw": 1861,
      "meatballs": 1862,
      "skim": 1863,
      "hold": 1864,
      "tea": 1865,
      "lent": 1866,
      "##read": 1867,
      "rim": 1868,
      "shallot": 1869,
      "inside": 1870,
      "##heated": 1871,
      "man": 1872,
      "dissolved": 1873,
      "sherry": 1874,
      "##ple": 1875,
      "##zed": 1876,
      "wra": 1877,
      "yolk": 1878,
      "##allow": 1879,
      "less": 1880,
      "60": 1881,
      "stiff": 1882,
      "chilies": 1883,
      "muffins": 1884,
      "mins": 1885,
      "uncooked": 1886,
      "cherries": 1887,
      "fo": 1888,
      "##ity": 1889,
      "##ible": 1890,
      "altern": 1891,
      "##tight": 1892,
      "airtight": 1893,
      "grap": 1894,
      "therm": 1895,
      "mas": 1896,
      "thermom": 1897,
      "without": 1898,
      "last": 1899,
      "blueberries": 1900,
      "bits": 1901,
      "##avy": 1902,
      "everything": 1903,
      "##yst": 1904,
      "tray": 1905,
      "del": 1906,
      "thermometer": 1907,
      "evaporated": 1908,
      "marsh": 1909,
      "##bo": 1910,
      "##vel": 1911,
      "chick": 1912,
      "lad": 1913,
      "marshm": 1914,
      "whisking": 1915,
      "##tal": 1916,
      "##cl": 1917,
      "##side": 1918,
      "##elly": 1919,
      "##rett": 1920,
      "tac": 1921,
      "depending": 1922,
      "peaks": 1923,
      "marshmallow": 1924,
      "rind": 1925,
      "open": 1926,
      "bul": 1927,
      "##rette": 1928,
      "vina": 1929,
      "away": 1930,
      "med": 1931,
      "cal": 1932,
      "layers": 1933,
      "quickly": 1934,
      "preheated": 1935,
      "vinaig": 1936,
      "bars": 1937,
      "bou": 1938,
      "patties": 1939,
      "200": 1940,
      "condens": 1941,
      "crispy": 1942,
      "tri": 1943,
      "vinaigrette": 1944,
      "kit": 1945,
      "met": 1946,
      "there": 1947,
      "their": 1948,
      "##otted": 1949,
      "favor": 1950,
      "##ops": 1951,
      "condensed": 1952,
      "23": 1953,
      "board": 1954,
      "begins": 1955,
      "macar": 1956,
      "pitted": 1957,
      "##chen": 1958,
      "incorporated": 1959,
      "##ingle": 1960,
      "##amp": 1961,
      "450": 1962,
      "##king": 1963,
      "sprout": 1964,
      "hor": 1965,
      "##ud": 1966,
      "cakes": 1967,
      "##ingers": 1968,
      "rect": 1969,
      "cranberry": 1970,
      "slotted": 1971,
      "marinate": 1972,
      "rolling": 1973,
      "ends": 1974,
      "rectang": 1975,
      "burger": 1976,
      "refrigerated": 1977,
      "hom": 1978,
      "gravy": 1979,
      "seasoned": 1980,
      "beer": 1981,
      "favorite": 1982,
      "goat": 1983,
      "kitchen": 1984,
      "##ney": 1985,
      "custard": 1986,
      "cross": 1987,
      "##pot": 1988,
      "flip": 1989,
      "plum": 1990,
      "##cent": 1991,
      "check": 1992,
      "ris": 1993,
      "att": 1994,
      "single": 1995,
      "##ized": 1996,
      "preferably": 1997,
      "##loin": 1998,
      "pes": 1999,
      "##ctions": 2000,
      "candy": 2001,
      "##ern": 2002,
      "jack": 2003,
      "split": 2004,
      "wide": 2005,
      "char": 2006,
      "seasonings": 2007,
      "bubbly": 2008,
      "##ieve": 2009,
      "peaches": 2010,
      "pesto": 2011,
      "prev": 2012,
      "cast": 2013,
      "peppercorn": 2014,
      "heart": 2015,
      "soften": 2016,
      "coup": 2017,
      "stuffing": 2018,
      "does": 2019,
      "chickp": 2020,
      "been": 2021,
      "##cho": 2022,
      "tar": 2023,
      "##atch": 2024,
      "racks": 2025,
      "##zel": 2026,
      "mol": 2027,
      "##iano": 2028,
      "##hy": 2029,
      "these": 2030,
      "barbe": 2031,
      "##asses": 2032,
      "among": 2033,
      "##bread": 2034,
      "pear": 2035,
      "jelly": 2036,
      "touch": 2037,
      "wok": 2038,
      "alum": 2039,
      "stalks": 2040,
      "iron": 2041,
      "veggies": 2042,
      "##eased": 2043,
      "##ari": 2044,
      "str": 2045,
      "sweetened": 2046,
      "raspberry": 2047,
      "hel": 2048,
      "fragr": 2049,
      "tip": 2050,
      "thigh": 2051,
      "most": 2052,
      "ac": 2053,
      "peanuts": 2054,
      "packages": 2055,
      "grah": 2056,
      "choice": 2057,
      "##spice": 2058,
      "couple": 2059,
      "##ont": 2060,
      "mex": 2061,
      "##ragon": 2062,
      "##crease": 2063,
      "sprouts": 2064,
      "real": 2065,
      "##ssels": 2066,
      "molasses": 2067,
      "##ek": 2068,
      "right": 2069,
      "##ters": 2070,
      "cracker": 2071,
      "fragrant": 2072,
      "##inum": 2073,
      "pine": 2074,
      "creat": 2075,
      "lentils": 2076,
      "allspice": 2077,
      "biscuits": 2078,
      "pres": 2079,
      "raspberries": 2080,
      "tarragon": 2081,
      "graham": 2082,
      "stuffed": 2083,
      "turmeric": 2084,
      "creme": 2085,
      "rounds": 2086,
      "herb": 2087,
      "macaroni": 2088,
      "cored": 2089,
      "lean": 2090,
      "bu": 2091,
      "fully": 2092,
      "wee": 2093,
      "aluminum": 2094,
      "total": 2095,
      "gri": 2096,
      "el": 2097,
      "ho": 2098,
      "##ning": 2099,
      "cer": 2100,
      "##pro": 2101,
      "##ata": 2102,
      "dissolve": 2103,
      "transl": 2104,
      "kale": 2105,
      "und": 2106,
      "chipo": 2107,
      "barbec": 2108,
      "28": 2109,
      "thickness": 2110,
      "##bled": 2111,
      "300": 2112,
      "attach": 2113,
      "dr": 2114,
      "card": 2115,
      "ver": 2116,
      "poss": 2117,
      "transluc": 2118,
      "decor": 2119,
      "gu": 2120,
      "peppercorns": 2121,
      "translucent": 2122,
      "buns": 2123,
      "##ual": 2124,
      "how": 2125,
      "capers": 2126,
      "chipotle": 2127,
      "prevent": 2128,
      "ancho": 2129,
      "180": 2130,
      "greek": 2131,
      "assem": 2132,
      "rot": 2133,
      "meal": 2134,
      "absorbed": 2135,
      "mexic": 2136,
      "bone": 2137,
      "base": 2138,
      "pears": 2139,
      "regular": 2140,
      "leeks": 2141,
      "quino": 2142,
      "quinoa": 2143,
      "jars": 2144,
      "chees": 2145,
      "firmly": 2146,
      "point": 2147,
      "##ere": 2148,
      "crosswise": 2149,
      "bouill": 2150,
      "##ail": 2151,
      "ladle": 2152,
      "arug": 2153,
      "old": 2154,
      "taco": 2155,
      "degree": 2156,
      "##greased": 2157,
      "equal": 2158,
      "100": 2159,
      "reserving": 2160,
      "arugula": 2161,
      "cou": 2162,
      "nice": 2163,
      "simmering": 2164,
      "##io": 2165,
      "##bon": 2166,
      "ungreased": 2167,
      "##tover": 2168,
      "scallops": 2169,
      "possible": 2170,
      "leftover": 2171,
      "##iel": 2172,
      "##zo": 2173,
      "thickens": 2174,
      "flatten": 2175,
      "##ib": 2176,
      "swiss": 2177,
      "five": 2178,
      "##olid": 2179,
      "eat": 2180,
      "##proof": 2181,
      "which": 2182,
      "pint": 2183,
      "bouillon": 2184,
      "kern": 2185,
      "cheesecake": 2186,
      "come": 2187,
      "##ivid": 2188,
      "pa": 2189,
      "pop": 2190,
      "individ": 2191,
      "give": 2192,
      "##amom": 2193,
      "addition": 2194,
      "homem": 2195,
      "stove": 2196,
      "increase": 2197,
      "added": 2198,
      "homemade": 2199,
      "##fuls": 2200,
      "sieve": 2201,
      "crumble": 2202,
      "working": 2203,
      "peach": 2204,
      "##eur": 2205,
      "oranges": 2206,
      "##oke": 2207,
      "big": 2208,
      "##iche": 2209,
      "fingers": 2210,
      "le": 2211,
      "liqueur": 2212,
      "boiled": 2213,
      "moderate": 2214,
      "great": 2215,
      "##irl": 2216,
      "dump": 2217,
      "##fted": 2218,
      "barbecue": 2219,
      "##tail": 2220,
      "heal": 2221,
      "##uted": 2222,
      "cock": 2223,
      "lemons": 2224,
      "roma": 2225,
      "careful": 2226,
      "forms": 2227,
      "cardamom": 2228,
      "##its": 2229,
      "artichoke": 2230,
      "halfway": 2231,
      "washed": 2232,
      "safe": 2233,
      "circle": 2234,
      "##are": 2235,
      "health": 2236,
      "mexican": 2237,
      "dripping": 2238,
      "##aker": 2239,
      "mold": 2240,
      "chickpeas": 2241,
      "rib": 2242,
      "sandwiches": 2243,
      "##oul": 2244,
      "scraping": 2245,
      "pull": 2246,
      "skewers": 2247,
      "cousc": 2248,
      "couscous": 2249,
      "sli": 2250,
      "tex": 2251,
      "easily": 2252,
      "oyst": 2253,
      "250": 2254,
      "instru": 2255,
      "mer": 2256,
      "generously": 2257,
      "ca": 2258,
      "quarts": 2259,
      "bottle": 2260,
      "dent": 2261,
      "starts": 2262,
      "parts": 2263,
      "preser": 2264,
      "##ffle": 2265,
      "hazel": 2266,
      "sifted": 2267,
      "left": 2268,
      "above": 2269,
      "beets": 2270,
      "step": 2271,
      "cocktail": 2272,
      "##ser": 2273,
      "cle": 2274,
      "##ny": 2275,
      "buttered": 2276,
      "fe": 2277,
      "flavors": 2278,
      "metal": 2279,
      "loosely": 2280,
      "melts": 2281,
      "oatmeal": 2282,
      "dente": 2283,
      "pancakes": 2284,
      "drippings": 2285,
      "##ence": 2286,
      "til": 2287,
      "cupcakes": 2288,
      "thighs": 2289,
      "##ici": 2290,
      "was": 2291,
      "dist": 2292,
      "##ye": 2293,
      "##atur": 2294,
      "##ci": 2295,
      "##ala": 2296,
      "em": 2297,
      "instructions": 2298,
      "foam": 2299,
      "##ither": 2300,
      "wings": 2301,
      "sticky": 2302,
      "individual": 2303,
      "las": 2304,
      "##ote": 2305,
      "##ctive": 2306,
      "squeezed": 2307,
      "##aked": 2308,
      "solid": 2309,
      "flavored": 2310,
      "removing": 2311,
      "dis": 2312,
      "lasag": 2313,
      "brie": 2314,
      "sec": 2315,
      "##hew": 2316,
      "fil": 2317,
      "cand": 2318,
      "cooling": 2319,
      "either": 2320,
      "marshmallows": 2321,
      "flore": 2322,
      "would": 2323,
      "brandy": 2324,
      "starting": 2325,
      "measure": 2326,
      "##ance": 2327,
      "9x1": 2328,
      "##emb": 2329,
      "pressing": 2330,
      "bel": 2331,
      "cashew": 2332,
      "##ky": 2333,
      "##burger": 2334,
      "cott": 2335,
      "juli": 2336,
      "monter": 2337,
      "leg": 2338,
      "apricot": 2339,
      "cereal": 2340,
      "better": 2341,
      "lift": 2342,
      "rectangle": 2343,
      "pol": 2344,
      "rolled": 2345,
      "17": 2346,
      "cutter": 2347,
      "during": 2348,
      "mach": 2349,
      "##umps": 2350,
      "##ition": 2351,
      "shap": 2352,
      "portion": 2353,
      "pist": 2354,
      "semi": 2355,
      "dipping": 2356,
      "mering": 2357,
      "kid": 2358,
      "close": 2359,
      "tenderloin": 2360,
      "diam": 2361,
      "strainer": 2362,
      "quarters": 2363,
      "##form": 2364,
      "##auce": 2365,
      "grate": 2366,
      "##x9": 2367,
      "rings": 2368,
      "horser": 2369,
      "horseradish": 2370,
      "rame": 2371,
      "sear": 2372,
      "tr": 2373,
      "new": 2374,
      "applesauce": 2375,
      "##omme": 2376,
      "try": 2377,
      "prosc": 2378,
      "##agon": 2379,
      "burgers": 2380,
      "machine": 2381,
      "##ne": 2382,
      "monterey": 2383,
      "coating": 2384,
      "stor": 2385,
      "colander": 2386,
      "fig": 2387,
      "##inner": 2388,
      "warmed": 2389,
      "clear": 2390,
      "##ild": 2391,
      "duck": 2392,
      "##ppy": 2393,
      "##ette": 2394,
      "##oli": 2395,
      "simple": 2396,
      "grind": 2397,
      "handle": 2398,
      "vod": 2399,
      "glasses": 2400,
      "fitted": 2401,
      "running": 2402,
      "torn": 2403,
      "vodka": 2404,
      "florets": 2405,
      "pistach": 2406,
      "doubled": 2407,
      "cracked": 2408,
      "diagon": 2409,
      "shred": 2410,
      "tab": 2411,
      "##la": 2412,
      "##rate": 2413,
      "bones": 2414,
      "deve": 2415,
      "measuring": 2416,
      "coloring": 2417,
      "9x13": 2418,
      "cube": 2419,
      "filled": 2420,
      "help": 2421,
      "rimmed": 2422,
      "##ched": 2423,
      "##utto": 2424,
      "thai": 2425,
      "##inning": 2426,
      "reaches": 2427,
      "mor": 2428,
      "saff": 2429,
      "##kins": 2430,
      "pos": 2431,
      "tast": 2432,
      "hamburger": 2433,
      "prosci": 2434,
      "prosciutto": 2435,
      "skins": 2436,
      "clams": 2437,
      "really": 2438,
      "##ilad": 2439,
      "##elf": 2440,
      "##ross": 2441,
      "inver": 2442,
      "walnut": 2443,
      "plac": 2444,
      "sliver": 2445,
      "##arb": 2446,
      "lasagna": 2447,
      "glut": 2448,
      "semis": 2449,
      "blanch": 2450,
      "##ause": 2451,
      "handful": 2452,
      "swirl": 2453,
      "##ko": 2454,
      "semisweet": 2455,
      "fles": 2456,
      "dates": 2457,
      "cucumbers": 2458,
      "rh": 2459,
      "##ield": 2460,
      "assemble": 2461,
      "##lets": 2462,
      "because": 2463,
      "##asco": 2464,
      "500": 2465,
      "##rib": 2466,
      "bru": 2467,
      "moderately": 2468,
      "create": 2469,
      "##outh": 2470,
      "rn": 2471,
      "log": 2472,
      "lin": 2473,
      "esp": 2474,
      "veal": 2475,
      "ok": 2476,
      "tub": 2477,
      "dred": 2478,
      "##ti": 2479,
      "radish": 2480,
      "flesh": 2481,
      "drops": 2482,
      "grape": 2483,
      "kernels": 2484,
      "hearts": 2485,
      "doll": 2486,
      "separated": 2487,
      "across": 2488,
      "punch": 2489,
      "finger": 2490,
      "bitters": 2491,
      "attachment": 2492,
      "ranch": 2493,
      "crunch": 2494,
      "zip": 2495,
      "vari": 2496,
      "month": 2497,
      "bour": 2498,
      "##gan": 2499,
      "sha": 2500,
      "loosen": 2501,
      "tam": 2502,
      "packet": 2503,
      "##ax": 2504,
      "##rit": 2505,
      "##enta": 2506,
      "tabasco": 2507,
      "lobst": 2508,
      "gluten": 2509,
      "test": 2510,
      "texture": 2511,
      "19": 2512,
      "ent": 2513,
      "incl": 2514,
      "polenta": 2515,
      "recomme": 2516,
      "som": 2517,
      "ang": 2518,
      "sugars": 2519,
      "portions": 2520,
      "beginning": 2521,
      "caramelized": 2522,
      "table": 2523,
      "tartar": 2524,
      "##ello": 2525,
      "waxed": 2526,
      "wild": 2527,
      "meringue": 2528,
      "bubbles": 2529,
      "creamed": 2530,
      "cottage": 2531,
      "##air": 2532,
      "##eness": 2533,
      "soaked": 2534,
      "delici": 2535,
      "leek": 2536,
      "super": 2537,
      "##que": 2538,
      "jalapenos": 2539,
      "butternut": 2540,
      "##ton": 2541,
      "position": 2542,
      "pass": 2543,
      "dess": 2544,
      "outside": 2545,
      "tossing": 2546,
      "pita": 2547,
      "fi": 2548,
      "usually": 2549,
      "recommend": 2550,
      "bb": 2551,
      "brownies": 2552,
      "preserves": 2553,
      "rhub": 2554,
      "panko": 2555,
      "look": 2556,
      "tru": 2557,
      "become": 2558,
      "delicious": 2559,
      "deveined": 2560,
      "bags": 2561,
      "##okes": 2562,
      "rhubarb": 2563,
      "saffron": 2564,
      "por": 2565,
      "desser": 2566,
      "bbq": 2567,
      "##ank": 2568,
      "phy": 2569,
      "##etta": 2570,
      "scallion": 2571,
      "##llo": 2572,
      "##rained": 2573,
      "##fish": 2574,
      "kidney": 2575,
      "diameter": 2576,
      "ench": 2577,
      "larger": 2578,
      "invert": 2579,
      "distrib": 2580,
      "panc": 2581,
      "prote": 2582,
      "phyllo": 2583,
      "pier": 2584,
      "organ": 2585,
      "ll": 2586,
      "##nda": 2587,
      "dumpling": 2588,
      "root": 2589,
      "enchilad": 2590,
      "sau": 2591,
      "served": 2592,
      "rubber": 2593,
      "fud": 2594,
      "cheeses": 2595,
      "griddle": 2596,
      "tap": 2597,
      "entire": 2598,
      "pale": 2599,
      "undrained": 2600,
      "yield": 2601,
      "wrapper": 2602,
      "##ipes": 2603,
      "pancetta": 2604,
      "organic": 2605,
      "near": 2606,
      "scra": 2607,
      "reheat": 2608,
      "follows": 2609,
      "apricots": 2610,
      "setting": 2611,
      "curd": 2612,
      "doneness": 2613,
      "artichokes": 2614,
      "cleaned": 2615,
      "later": 2616,
      "bagu": 2617,
      "mild": 2618,
      "skewer": 2619,
      "doesn": 2620,
      "chip": 2621,
      "six": 2622,
      "wilted": 2623,
      "bourbon": 2624,
      "##ested": 2625,
      "brok": 2626,
      "cav": 2627,
      "broken": 2628,
      "chor": 2629,
      "becom": 2630,
      "flame": 2631,
      "scatter": 2632,
      "heap": 2633,
      "mound": 2634,
      "pulp": 2635,
      "parmig": 2636,
      "smaller": 2637,
      "13x9": 2638,
      "##ty": 2639,
      "ramekins": 2640,
      "dessert": 2641,
      "chest": 2642,
      "shel": 2643,
      "asian": 2644,
      "concent": 2645,
      "ori": 2646,
      "##omegr": 2647,
      "oiled": 2648,
      "choriz": 2649,
      "mussels": 2650,
      "pomegr": 2651,
      "smash": 2652,
      "##ruit": 2653,
      "##umm": 2654,
      "blueberry": 2655,
      "chorizo": 2656,
      "pomegran": 2657,
      "strip": 2658,
      "mayo": 2659,
      "##ellini": 2660,
      "##porate": 2661,
      "bund": 2662,
      "romaine": 2663,
      "##ially": 2664,
      "tight": 2665,
      "##ear": 2666,
      "level": 2667,
      "pim": 2668,
      "dredge": 2669,
      "##0u00b0": 2670,
      "release": 2671,
      "twice": 2672,
      "being": 2673,
      "##ality": 2674,
      "chin": 2675,
      "##chi": 2676,
      "##ioli": 2677,
      "qt": 2678,
      "sum": 2679,
      "##ara": 2680,
      "nic": 2681,
      "moistened": 2682,
      "##meat": 2683,
      "flu": 2684,
      "sticking": 2685,
      "##ght": 2686,
      "22": 2687,
      "##mel": 2688,
      "gas": 2689,
      "quality": 2690,
      "nect": 2691,
      "tong": 2692,
      "pancake": 2693,
      "parmigiano": 2694,
      "nectar": 2695,
      "boiler": 2696,
      "chinese": 2697,
      "barley": 2698,
      "mill": 2699,
      "generous": 2700,
      "stre": 2701,
      "brand": 2702,
      "##lish": 2703,
      "push": 2704,
      "125": 2705,
      "fudge": 2706,
      "find": 2707,
      "fluid": 2708,
      "starch": 2709,
      "pomegranate": 2710,
      "protein": 2711,
      "calor": 2712,
      "375u00b0": 2713,
      "dishes": 2714,
      "week": 2715,
      "loin": 2716,
      "bath": 2717,
      "becomes": 2718,
      "rare": 2719,
      "lumps": 2720,
      "springform": 2721,
      "et": 2722,
      "##fly": 2723,
      "below": 2724,
      "limes": 2725,
      "##fat": 2726,
      "healthy": 2727,
      "seam": 2728,
      "vegan": 2729,
      "##aves": 2730,
      "bur": 2731,
      "directed": 2732,
      "chard": 2733,
      "partially": 2734,
      "crout": 2735,
      "400u00b0": 2736,
      "servings": 2737,
      "fraiche": 2738,
      "pod": 2739,
      "bubbling": 2740,
      "hazelnuts": 2741,
      "sprinkling": 2742,
      "twist": 2743,
      "150": 2744,
      "##aise": 2745,
      "brisk": 2746,
      "juiced": 2747,
      "frit": 2748,
      "dissolves": 2749,
      "core": 2750,
      "##resso": 2751,
      "bast": 2752,
      "slicing": 2753,
      "##ose": 2754,
      "gall": 2755,
      "slivered": 2756,
      "lobster": 2757,
      "prov": 2758,
      "baguette": 2759,
      "dollop": 2760,
      "save": 2761,
      "fire": 2762,
      "eng": 2763,
      "pickled": 2764,
      "##cher": 2765,
      "grapef": 2766,
      "toppings": 2767,
      "grapes": 2768,
      "espresso": 2769,
      "##ines": 2770,
      "cashews": 2771,
      "could": 2772,
      "dinner": 2773,
      "ta": 2774,
      "topped": 2775,
      "relish": 2776,
      "steamed": 2777,
      "triang": 2778,
      "proof": 2779,
      "sausages": 2780,
      "count": 2781,
      "##ather": 2782,
      "##ios": 2783,
      "instead": 2784,
      "resemb": 2785,
      "alternately": 2786,
      "pal": 2787,
      "##ory": 2788,
      "works": 2789,
      "etc": 2790,
      "ling": 2791,
      "loaves": 2792,
      "penne": 2793,
      "cupcake": 2794,
      "##ggiano": 2795,
      "sunflower": 2796,
      "cit": 2797,
      "regist": 2798,
      "oyster": 2799,
      "finished": 2800,
      "thirds": 2801,
      "resembles": 2802,
      "heaping": 2803,
      "poach": 2804,
      "##anish": 2805,
      "crumbly": 2806,
      "fall": 2807,
      "basting": 2808,
      "active": 2809,
      "thread": 2810,
      "sple": 2811,
      "reggiano": 2812,
      "browning": 2813,
      "mince": 2814,
      "caps": 2815,
      "##az": 2816,
      "tongs": 2817,
      "tins": 2818,
      "##man": 2819,
      "fash": 2820,
      "##fect": 2821,
      "ty": 2822,
      "pressure": 2823,
      "##pos": 2824,
      "marinated": 2825,
      "ow": 2826,
      "fashion": 2827,
      "##jor": 2828,
      "375f": 2829,
      "pureed": 2830,
      "##root": 2831,
      "crusts": 2832,
      "splenda": 2833,
      "crusty": 2834,
      "spiced": 2835,
      "dumplings": 2836,
      "##ants": 2837,
      "turns": 2838,
      "##ively": 2839,
      "tbl": 2840,
      "cornbread": 2841,
      "masala": 2842,
      "perfect": 2843,
      "temp": 2844,
      "drink": 2845,
      "##arpone": 2846,
      "##fast": 2847,
      "avocados": 2848,
      "##ought": 2849,
      "masc": 2850,
      "sou": 2851,
      "origin": 2852,
      "charred": 2853,
      "own": 2854,
      "pipe": 2855,
      "nicely": 2856,
      "chut": 2857,
      "crabmeat": 2858,
      "grapefruit": 2859,
      "pret": 2860,
      "english": 2861,
      "chunky": 2862,
      "chutney": 2863,
      "far": 2864,
      "mascarpone": 2865,
      "##eri": 2866,
      "breakfast": 2867,
      "poppy": 2868,
      "concentrate": 2869,
      "watch": 2870,
      "wipe": 2871,
      "dusting": 2872,
      "coun": 2873,
      "lingu": 2874,
      "flaked": 2875,
      "directly": 2876,
      "400f": 2877,
      "splash": 2878,
      "bott": 2879,
      "slide": 2880,
      "##inned": 2881,
      "32": 2882,
      "vig": 2883,
      "gi": 2884,
      "400u00b0f": 2885,
      "##eled": 2886,
      "tube": 2887,
      "stalk": 2888,
      "flax": 2889,
      "sauteed": 2890,
      "sub": 2891,
      "pistachios": 2892,
      "berry": 2893,
      "recipes": 2894,
      "##rew": 2895,
      "croutons": 2896,
      "##food": 2897,
      "incorporate": 2898,
      "##ones": 2899,
      "star": 2900,
      "mand": 2901,
      "natur": 2902,
      "smoke": 2903,
      "ru": 2904,
      "anise": 2905,
      "##ffles": 2906,
      "##uf": 2907,
      "##otch": 2908,
      "mesh": 2909,
      "legs": 2910,
      "##enned": 2911,
      "diff": 2912,
      "ado": 2913,
      "briefly": 2914,
      "tie": 2915,
      "counter": 2916,
      "registers": 2917,
      "brussels": 2918,
      "stack": 2919,
      "##ways": 2920,
      "##pes": 2921,
      "barely": 2922,
      "summer": 2923,
      "vigor": 2924,
      "page": 2925,
      "julienned": 2926,
      "bittersweet": 2927,
      "pressed": 2928,
      "##ita": 2929,
      "375u00b0f": 2930,
      "##sticks": 2931,
      "ess": 2932,
      "pers": 2933,
      "string": 2934,
      "figs": 2935,
      "brownie": 2936,
      "##ailable": 2937,
      "shelled": 2938,
      "what": 2939,
      "eight": 2940,
      "##ize": 2941,
      "wedge": 2942,
      "shi": 2943,
      "damp": 2944,
      "circles": 2945,
      "paddle": 2946,
      "##ache": 2947,
      "##atever": 2948,
      "##joram": 2949,
      "stop": 2950,
      "shaker": 2951,
      "original": 2952,
      "beet": 2953,
      "whatever": 2954,
      "palm": 2955,
      "candied": 2956,
      "##cial": 2957,
      "curr": 2958,
      "##ucc": 2959,
      "adobo": 2960,
      "weeks": 2961,
      "sil": 2962,
      "##ioc": 2963,
      "marjoram": 2964,
      "55": 2965,
      "seafood": 2966,
      "stemmed": 2967,
      "##erk": 2968,
      "batch": 2969,
      "##ook": 2970,
      "jo": 2971,
      "har": 2972,
      "nonfat": 2973,
      "lim": 2974,
      "secure": 2975,
      "bubble": 2976,
      "combin": 2977,
      "mark": 2978,
      "##uy": 2979,
      "##ns": 2980,
      "ovenproof": 2981,
      "romano": 2982,
      "ques": 2983,
      "##melon": 2984,
      "sav": 2985,
      "brushing": 2986,
      "chestnuts": 2987,
      "##rub": 2988,
      "continu": 2989,
      "watermelon": 2990,
      "chilli": 2991,
      "cres": 2992,
      "vigorously": 2993,
      "cooks": 2994,
      "dog": 2995,
      "parsn": 2996,
      "move": 2997,
      "tra": 2998,
      "decorate": 2999,
      "grand": 3000,
      "mal": 3001,
      "##rus": 3002,
      "hash": 3003,
      "##ments": 3004,
      "spanish": 3005,
      "ph": 3006,
      "##peeled": 3007,
      "def": 3008,
      "##ats": 3009,
      "tips": 3010,
      "mir": 3011,
      "radishes": 3012,
      "quite": 3013,
      "stone": 3014,
      "##cm": 3015,
      "verm": 3016,
      "ens": 3017,
      "champ": 3018,
      "caj": 3019,
      "easier": 3020,
      "snow": 3021,
      "brine": 3022,
      "ger": 3023,
      "pic": 3024,
      "##warm": 3025,
      "holes": 3026,
      "##oid": 3027,
      "ke": 3028,
      "citrus": 3029,
      "brisket": 3030,
      "dont": 3031,
      "glazed": 3032,
      "##mit": 3033,
      "available": 3034,
      "order": 3035,
      "unbl": 3036,
      "bor": 3037,
      "feel": 3038,
      "##eached": 3039,
      "##atively": 3040,
      "crockpot": 3041,
      "stream": 3042,
      "orzo": 3043,
      "notes": 3044,
      "scrub": 3045,
      "eye": 3046,
      "simp": 3047,
      "##mal": 3048,
      "avoid": 3049,
      "##ified": 3050,
      "wrapped": 3051,
      "shiit": 3052,
      "slaw": 3053,
      "##otto": 3054,
      "bottomed": 3055,
      "bottoms": 3056,
      "envel": 3057,
      "americ": 3058,
      "wait": 3059,
      "serran": 3060,
      "puffed": 3061,
      "##port": 3062,
      "smoking": 3063,
      "chuck": 3064,
      "insert": 3065,
      "sir": 3066,
      "calories": 3067,
      "##top": 3068,
      "cajun": 3069,
      "##hyd": 3070,
      "fett": 3071,
      "somet": 3072,
      "##agne": 3073,
      "months": 3074,
      "shaking": 3075,
      "seedless": 3076,
      "bran": 3077,
      "cod": 3078,
      "spreading": 3079,
      "##kg": 3080,
      "gruy": 3081,
      "##cloth": 3082,
      "bought": 3083,
      "##cress": 3084,
      "watercress": 3085,
      "unpeeled": 3086,
      "agave": 3087,
      "##eseed": 3088,
      "champagne": 3089,
      "blade": 3090,
      "risotto": 3091,
      "unbleached": 3092,
      "popcorn": 3093,
      "##ner": 3094,
      "diagonally": 3095,
      "smashed": 3096,
      "wont": 3097,
      "cryst": 3098,
      "crunchy": 3099,
      "tough": 3100,
      "granny": 3101,
      "simply": 3102,
      "pickle": 3103,
      "kind": 3104,
      "smith": 3105,
      "##avour": 3106,
      "gruyere": 3107,
      "russ": 3108,
      "sor": 3109,
      "skinned": 3110,
      "heads": 3111,
      "##uding": 3112,
      "linguine": 3113,
      "solids": 3114,
      "##ml": 3115,
      "##tes": 3116,
      "stra": 3117,
      "180c": 3118,
      "call": 3119,
      "##ila": 3120,
      "cm": 3121,
      "resul": 3122,
      "outer": 3123,
      "tah": 3124,
      "rounded": 3125,
      "fur": 3126,
      "breaking": 3127,
      "natural": 3128,
      "##acha": 3129,
      "pobl": 3130,
      "marmal": 3131,
      "##kon": 3132,
      "self": 3133,
      "poblano": 3134,
      "many": 3135,
      "serrano": 3136,
      "marmalade": 3137,
      "cheesecloth": 3138,
      "repl": 3139,
      "anchovy": 3140,
      "coals": 3141,
      "##ousse": 3142,
      "distribute": 3143,
      "tomat": 3144,
      "blanched": 3145,
      "225": 3146,
      "veggie": 3147,
      "here": 3148,
      "mousse": 3149,
      "liners": 3150,
      "moisture": 3151,
      "praw": 3152,
      "tomatill": 3153,
      "vel": 3154,
      "omit": 3155,
      "liver": 3156,
      "lu": 3157,
      "##aki": 3158,
      "mat": 3159,
      "mine": 3160,
      "noodle": 3161,
      "differ": 3162,
      "won": 3163,
      "further": 3164,
      "fashioned": 3165,
      "including": 3166,
      "marinara": 3167,
      "placing": 3168,
      "clam": 3169,
      "bundt": 3170,
      "##bet": 3171,
      "##tain": 3172,
      "pitcher": 3173,
      "cob": 3174,
      "sto": 3175,
      "hus": 3176,
      "rising": 3177,
      "grilling": 3178,
      "chan": 3179,
      "granola": 3180,
      "meatlo": 3181,
      "75": 3182,
      "lump": 3183,
      "##ix": 3184,
      "wish": 3185,
      "21": 3186,
      "sirloin": 3187,
      "clos": 3188,
      "special": 3189,
      "halve": 3190,
      "tahini": 3191,
      "sprayed": 3192,
      "##isin": 3193,
      "##gn": 3194,
      "recommended": 3195,
      "##raut": 3196,
      "##mers": 3197,
      "##estle": 3198,
      "175": 3199,
      "pkg": 3200,
      "adv": 3201,
      "brais": 3202,
      "##aque": 3203,
      "ring": 3204,
      "cloth": 3205,
      "rav": 3206,
      "tequ": 3207,
      "fiber": 3208,
      "chow": 3209,
      "within": 3210,
      "colored": 3211,
      "gan": 3212,
      "pickles": 3213,
      "tear": 3214,
      "maker": 3215,
      "ears": 3216,
      "##ban": 3217,
      "shiitake": 3218,
      "chef": 3219,
      "##cini": 3220,
      "sr": 3221,
      "essence": 3222,
      "manuf": 3223,
      "bulb": 3224,
      "baste": 3225,
      "160": 3226,
      "tequila": 3227,
      "seem": 3228,
      "disk": 3229,
      "cour": 3230,
      "esc": 3231,
      "##rated": 3232,
      "36": 3233,
      "raisin": 3234,
      "steamer": 3235,
      "crescent": 3236,
      "opaque": 3237,
      "throw": 3238,
      "manufact": 3239,
      "might": 3240,
      "bulk": 3241,
      "sizz": 3242,
      "rou": 3243,
      "foamy": 3244,
      "##coal": 3245,
      "gets": 3246,
      "looks": 3247,
      "manufactur": 3248,
      "angel": 3249,
      "allowing": 3250,
      "##away": 3251,
      "basic": 3252,
      "match": 3253,
      "##ys": 3254,
      "meatloaf": 3255,
      "ganache": 3256,
      "mort": 3257,
      "main": 3258,
      "peppermin": 3259,
      "charcoal": 3260,
      "always": 3261,
      "fast": 3262,
      "inter": 3263,
      "fettucc": 3264,
      "srir": 3265,
      "90": 3266,
      "froth": 3267,
      "granu": 3268,
      "reach": 3269,
      "power": 3270,
      "discarding": 3271,
      "##sted": 3272,
      "ome": 3273,
      "bird": 3274,
      "hoisin": 3275,
      "peppermint": 3276,
      "prick": 3277,
      "shaped": 3278,
      "amar": 3279,
      "shaved": 3280,
      "meth": 3281,
      "cutlets": 3282,
      "heatproof": 3283,
      "oysters": 3284,
      "##che": 3285,
      "garam": 3286,
      "strong": 3287,
      "sriracha": 3288,
      "snap": 3289,
      "grits": 3290,
      "gallon": 3291,
      "##ards": 3292,
      "guac": 3293,
      "caraway": 3294,
      "miso": 3295,
      "intern": 3296,
      "stockpot": 3297,
      "browns": 3298,
      "##ations": 3299,
      "pepperoni": 3300,
      "ensure": 3301,
      "##mg": 3302,
      "rich": 3303,
      "melon": 3304,
      "##bow": 3305,
      "##ope": 3306,
      "##arian": 3307,
      "pock": 3308,
      "containers": 3309,
      "shoul": 3310,
      "luke": 3311,
      "shoulder": 3312,
      "pods": 3313,
      "duty": 3314,
      "dashes": 3315,
      "ey": 3316,
      "horiz": 3317,
      "enchilada": 3318,
      "ravioli": 3319,
      "sugg": 3320,
      "##ient": 3321,
      "gent": 3322,
      "##ipped": 3323,
      "rye": 3324,
      "##amole": 3325,
      "pecor": 3326,
      "id": 3327,
      "granules": 3328,
      "##grass": 3329,
      "pecorino": 3330,
      "separately": 3331,
      "ale": 3332,
      "flours": 3333,
      "mom": 3334,
      "##ried": 3335,
      "miniature": 3336,
      "kal": 3337,
      "guacamole": 3338,
      "lard": 3339,
      "did": 3340,
      "ki": 3341,
      "sauerk": 3342,
      "omelet": 3343,
      "sauerkraut": 3344,
      "tiny": 3345,
      "lemongrass": 3346,
      "leftovers": 3347,
      "##cream": 3348,
      "country": 3349,
      "##vet": 3350,
      "##scotch": 3351,
      "reseal": 3352,
      "butterscotch": 3353,
      "##vil": 3354,
      "hole": 3355,
      "##itz": 3356,
      "gentle": 3357,
      "section": 3358,
      "forming": 3359,
      "prawns": 3360,
      "##ester": 3361,
      "scram": 3362,
      "lot": 3363,
      "yu": 3364,
      "##ouse": 3365,
      "##cook": 3366,
      "moisten": 3367,
      "envelope": 3368,
      "ones": 3369,
      "fan": 3370,
      "kg": 3371,
      "fettuccine": 3372,
      "degla": 3373,
      "rose": 3374,
      "cavity": 3375,
      "gn": 3376,
      "elastic": 3377,
      "patty": 3378,
      "roux": 3379,
      "lukewarm": 3380,
      "shim": 3381,
      "##ati": 3382,
      "mart": 3383,
      "method": 3384,
      "caster": 3385,
      "dot": 3386,
      "blackberries": 3387,
      "crepes": 3388,
      "steel": 3389,
      "##umbo": 3390,
      "##iny": 3391,
      "flank": 3392,
      "okra": 3393,
      "border": 3394,
      "think": 3395,
      "internal": 3396,
      "int": 3397,
      "##try": 3398,
      "soon": 3399,
      "finally": 3400,
      "##5u00b0": 3401,
      "lemonade": 3402,
      "resealable": 3403,
      "##yaki": 3404,
      "coll": 3405,
      "corner": 3406,
      "covering": 3407,
      "advance": 3408,
      "against": 3409,
      "##raft": 3410,
      "creole": 3411,
      "##ign": 3412,
      "shapes": 3413,
      "scones": 3414,
      "prett": 3415,
      "plums": 3416,
      "cornfl": 3417,
      "##anese": 3418,
      "fries": 3419,
      "burning": 3420,
      "jello": 3421,
      "tort": 3422,
      "sprinkles": 3423,
      "absorb": 3424,
      "currants": 3425,
      "wrappers": 3426,
      "cheesy": 3427,
      "##ically": 3428,
      "sections": 3429,
      "going": 3430,
      "savory": 3431,
      "drizzling": 3432,
      "requ": 3433,
      "toffee": 3434,
      "russet": 3435,
      "link": 3436,
      "##amata": 3437,
      "vegetarian": 3438,
      "waffle": 3439,
      "##ao": 3440,
      "anchov": 3441,
      "diagonal": 3442,
      "fryer": 3443,
      "crem": 3444,
      "liking": 3445,
      "8x": 3446,
      "##ls": 3447,
      "##enty": 3448,
      "space": 3449,
      "keeping": 3450,
      "garban": 3451,
      "gor": 3452,
      "button": 3453,
      "tasty": 3454,
      "scal": 3455,
      "spo": 3456,
      "anchovies": 3457,
      "gratin": 3458,
      "stored": 3459,
      "different": 3460,
      "teri": 3461,
      "takes": 3462,
      "heating": 3463,
      "type": 3464,
      "vis": 3465,
      "cart": 3466,
      "triangles": 3467,
      "night": 3468,
      "contents": 3469,
      "##da": 3470,
      "gingerroot": 3471,
      "gnoc": 3472,
      "##law": 3473,
      "##eta": 3474,
      "##acing": 3475,
      "choy": 3476,
      "mortar": 3477,
      "##ava": 3478,
      "##rn": 3479,
      "seg": 3480,
      "arom": 3481,
      "teriyaki": 3482,
      "spoonful": 3483,
      "eggplants": 3484,
      "##hern": 3485,
      "tester": 3486,
      "##roll": 3487,
      "flavour": 3488,
      "hazelnut": 3489,
      "deglaze": 3490,
      "rough": 3491,
      "coles": 3492,
      "au": 3493,
      "reads": 3494,
      "bask": 3495,
      "preferred": 3496,
      "coleslaw": 3497,
      "sprinkled": 3498,
      "crepe": 3499,
      "steep": 3500,
      "pinches": 3501,
      "parsnips": 3502,
      "alf": 3503,
      "##anks": 3504,
      "provol": 3505,
      "kalamata": 3506,
      "jap": 3507,
      "provolone": 3508,
      "prun": 3509,
      "person": 3510,
      "##ren": 3511,
      "##entation": 3512,
      "bunches": 3513,
      "whe": 3514,
      "##ince": 3515,
      "pretty": 3516,
      "gnocchi": 3517,
      "centre": 3518,
      "flo": 3519,
      "##ioca": 3520,
      "looking": 3521,
      "kettle": 3522,
      "brew": 3523,
      "manufacturer": 3524,
      "empt": 3525,
      "poul": 3526,
      "tapioca": 3527,
      "ending": 3528,
      "cy": 3529,
      "zipl": 3530,
      "accom": 3531,
      "##ontally": 3532,
      "nutrit": 3533,
      "horizontally": 3534,
      "buttercream": 3535,
      "alternatively": 3536,
      "pinto": 3537,
      "##u00b0c": 3538,
      "crim": 3539,
      "tuck": 3540,
      "fair": 3541,
      "bottled": 3542,
      "stewed": 3543,
      "bok": 3544,
      "appear": 3545,
      "thicker": 3546,
      "followed": 3547,
      "overla": 3548,
      "empty": 3549,
      "smoothie": 3550,
      "drip": 3551,
      "##elli": 3552,
      "pam": 3553,
      "unb": 3554,
      "fam": 3555,
      "nearly": 3556,
      "following": 3557,
      "frothy": 3558,
      "loose": 3559,
      "##igg": 3560,
      "final": 3561,
      "mandar": 3562,
      "##ado": 3563,
      "japanese": 3564,
      "grinder": 3565,
      "where": 3566,
      "formed": 3567,
      "overlapping": 3568,
      "la": 3569,
      "packets": 3570,
      "##rea": 3571,
      "liber": 3572,
      "molds": 3573,
      "##heit": 3574,
      "##ond": 3575,
      "carbo": 3576,
      "those": 3577,
      "replace": 3578,
      "##airy": 3579,
      "##x2": 3580,
      "assor": 3581,
      "colour": 3582,
      "assorted": 3583,
      "##hee": 3584,
      "garbanzo": 3585,
      "fourth": 3586,
      "drum": 3587,
      "##ibut": 3588,
      "saut": 3589,
      "remai": 3590,
      "garnished": 3591,
      "##aturated": 3592,
      "##dough": 3593,
      "halibut": 3594,
      "nutritional": 3595,
      "throughout": 3596,
      "yukon": 3597,
      "import": 3598,
      "rap": 3599,
      "remainder": 3600,
      "boils": 3601,
      "##dy": 3602,
      "american": 3603,
      "##ume": 3604,
      "##berg": 3605,
      "tacos": 3606,
      "piment": 3607,
      "class": 3608,
      "poultry": 3609,
      "lentil": 3610,
      "ten": 3611,
      "##eath": 3612,
      "tortellini": 3613,
      "important": 3614,
      "70": 3615,
      "must": 3616,
      "##iluted": 3617,
      "sourdough": 3618,
      "masher": 3619,
      "whiskey": 3620,
      "vermouth": 3621,
      "thickest": 3622,
      "render": 3623,
      "deli": 3624,
      "snipped": 3625,
      "defro": 3626,
      "ghee": 3627,
      "unw": 3628,
      "spears": 3629,
      "mandarin": 3630,
      "immers": 3631,
      "tent": 3632,
      "##uls": 3633,
      "candies": 3634,
      "##chino": 3635,
      "spoonfuls": 3636,
      "club": 3637,
      "##otti": 3638,
      "##ember": 3639,
      "streus": 3640,
      "80": 3641,
      "scrubbed": 3642,
      "pri": 3643,
      "found": 3644,
      "raise": 3645,
      "humm": 3646,
      "##ori": 3647,
      "##aya": 3648,
      "bulg": 3649,
      "amaret": 3650,
      "maras": 3651,
      "pip": 3652,
      "spark": 3653,
      "streusel": 3654,
      "julienne": 3655,
      "soaking": 3656,
      "tamari": 3657,
      "truffle": 3658,
      "pimient": 3659,
      "prep": 3660,
      "appet": 3661,
      "burner": 3662,
      "waf": 3663,
      "trad": 3664,
      "basket": 3665,
      "healthier": 3666,
      "amoun": 3667,
      "wafers": 3668,
      "crisco": 3669,
      "##aj": 3670,
      "weed": 3671,
      "classic": 3672,
      "maraschino": 3673,
      "##zola": 3674,
      "sealed": 3675,
      "425u00b0": 3676,
      "enchiladas": 3677,
      "pet": 3678,
      "fruits": 3679,
      "stead": 3680,
      "carbohyd": 3681,
      "pearl": 3682,
      "patter": 3683,
      "tested": 3684,
      "upside": 3685,
      "amounts": 3686,
      "emuls": 3687,
      "##gonzola": 3688,
      "tails": 3689,
      "poke": 3690,
      "cannellini": 3691,
      "yo": 3692,
      "##ilit": 3693,
      "dairy": 3694,
      "overcook": 3695,
      "gather": 3696,
      "gorgonzola": 3697,
      "vol": 3698,
      "prod": 3699,
      "results": 3700,
      "combination": 3701,
      "souffle": 3702,
      "##abi": 3703,
      "sho": 3704,
      "pierced": 3705,
      "hummus": 3706,
      "dozen": 3707,
      "##zels": 3708,
      "325u00b0": 3709,
      "##veeta": 3710,
      "velveeta": 3711,
      "shimmer": 3712,
      "pretzels": 3713,
      "##quet": 3714,
      "fairly": 3715,
      "letting": 3716,
      "liberally": 3717,
      "triple": 3718,
      "braised": 3719,
      "##time": 3720,
      "martini": 3721,
      "tomatillos": 3722,
      "##de": 3723,
      "arb": 3724,
      "toothpicks": 3725,
      "mot": 3726,
      "gin": 3727,
      "fond": 3728,
      "vers": 3729,
      "tail": 3730,
      "bulgur": 3731,
      "blood": 3732,
      "##acao": 3733,
      "fah": 3734,
      "south": 3735,
      "##han": 3736,
      "adap": 3737,
      "immersion": 3738,
      "memb": 3739,
      "refried": 3740,
      "poached": 3741,
      "##ama": 3742,
      "fahren": 3743,
      "blending": 3744,
      "includ": 3745,
      "ach": 3746,
      "##mati": 3747,
      "flavoring": 3748,
      "runny": 3749,
      "fahrenheit": 3750,
      "stage": 3751,
      "alternating": 3752,
      "know": 3753,
      "variet": 3754,
      "val": 3755,
      "gloss": 3756,
      "##ero": 3757,
      "ear": 3758,
      "##land": 3759,
      "mug": 3760,
      "quiche": 3761,
      "tro": 3762,
      "##vals": 3763,
      "membran": 3764,
      "##here": 3765,
      "alfred": 3766,
      "cro": 3767,
      "rotating": 3768,
      "sorbet": 3769,
      "basmati": 3770,
      "rock": 3771,
      "##aid": 3772,
      "burrit": 3773,
      "plant": 3774,
      "straight": 3775,
      "love": 3776,
      "bright": 3777,
      "pies": 3778,
      "pestle": 3779,
      "##adam": 3780,
      "lengths": 3781,
      "alfredo": 3782,
      "chowder": 3783,
      "wonton": 3784,
      "care": 3785,
      "8x8": 3786,
      "goo": 3787,
      "##ille": 3788,
      "hollow": 3789,
      "tradit": 3790,
      "sna": 3791,
      "##lt": 3792,
      "preference": 3793,
      "##ummy": 3794,
      "tall": 3795,
      "pistachio": 3796,
      "pattern": 3797,
      "wo": 3798,
      "date": 3799,
      "##agg": 3800,
      "quesad": 3801,
      "sparkling": 3802,
      "act": 3803,
      "iri": 3804,
      "lids": 3805,
      "ram": 3806,
      "flow": 3807,
      "stret": 3808,
      "called": 3809,
      "inf": 3810,
      "elbow": 3811,
      "pile": 3812,
      "preparing": 3813,
      "kiw": 3814,
      "rad": 3815,
      "hun": 3816,
      "intact": 3817,
      "macadam": 3818,
      "bal": 3819,
      "##ord": 3820,
      "seems": 3821,
      "bamb": 3822,
      "irish": 3823,
      "porcini": 3824,
      "##rs": 3825,
      "choles": 3826,
      "##terol": 3827,
      "##ghurt": 3828,
      "##itas": 3829,
      "suggest": 3830,
      "bamboo": 3831,
      "accompan": 3832,
      "##by": 3833,
      "cholesterol": 3834,
      "yoghurt": 3835,
      "mirin": 3836,
      "undiluted": 3837,
      "adapted": 3838,
      "serves": 3839,
      "continuously": 3840,
      "##val": 3841,
      "##elle": 3842,
      "germ": 3843,
      "shortbread": 3844,
      "submer": 3845,
      "##ative": 3846,
      "##0c": 3847,
      "stain": 3848,
      "waffles": 3849,
      "peeler": 3850,
      "lat": 3851,
      "smell": 3852,
      "buff": 3853,
      "pops": 3854,
      "##cle": 3855,
      "pierce": 3856,
      "chickpea": 3857,
      "scant": 3858,
      "had": 3859,
      "sometimes": 3860,
      "unfl": 3861,
      "segments": 3862,
      "ster": 3863,
      "stay": 3864,
      "##ever": 3865,
      "simil": 3866,
      "taking": 3867,
      "tastes": 3868,
      "kept": 3869,
      "fun": 3870,
      "piping": 3871,
      "##kes": 3872,
      "kernel": 3873,
      "##mix": 3874,
      "##ical": 3875,
      "reached": 3876,
      "grapeseed": 3877,
      "steady": 3878,
      "fingert": 3879,
      "lowest": 3880,
      "bed": 3881,
      "##ills": 3882,
      "similar": 3883,
      "evoo": 3884,
      "volume": 3885,
      "26": 3886,
      "slits": 3887,
      "cools": 3888,
      "foods": 3889,
      "squid": 3890,
      "worry": 3891,
      "##chio": 3892,
      "tan": 3893,
      "jell": 3894,
      "##bur": 3895,
      "picked": 3896,
      "pints": 3897,
      "##oto": 3898,
      "lady": 3899,
      "ingredient": 3900,
      "assemb": 3901,
      "vary": 3902,
      "glossy": 3903,
      "##ulled": 3904,
      "crumbles": 3905,
      "crimp": 3906,
      "##used": 3907,
      "mors": 3908,
      "spir": 3909,
      "fritt": 3910,
      "##nier": 3911,
      "trout": 3912,
      "bisqu": 3913,
      "macadamia": 3914,
      "cat": 3915,
      "upper": 3916,
      "unbaked": 3917,
      "ton": 3918,
      "pil": 3919,
      "rapid": 3920,
      "folding": 3921,
      "##alia": 3922,
      "tamar": 3923,
      "sam": 3924,
      "paring": 3925,
      "325f": 3926,
      "##ami": 3927,
      "plenty": 3928,
      "stretch": 3929,
      "##ured": 3930,
      "neck": 3931,
      "our": 3932,
      "radic": 3933,
      "##gnac": 3934,
      "creating": 3935,
      "##avender": 3936,
      "caramelize": 3937,
      "sautee": 3938,
      "cognac": 3939,
      "ww": 3940,
      "##alo": 3941,
      "##bas": 3942,
      "##ipping": 3943,
      "score": 3944,
      "radicchio": 3945,
      "##avored": 3946,
      "shimmering": 3947,
      "48": 3948,
      "mars": 3949,
      "flake": 3950,
      "##ua": 3951,
      "since": 3952,
      "chew": 3953,
      "millilit": 3954,
      "though": 3955,
      "were": 3956,
      "unflavored": 3957,
      "home": 3958,
      "rectangles": 3959,
      "dogs": 3960,
      "tamarind": 3961,
      "amaretto": 3962,
      "proced": 3963,
      "poin": 3964,
      "scallop": 3965,
      "hook": 3966,
      "##ready": 3967,
      "intervals": 3968,
      "grains": 3969,
      "snack": 3970,
      "##ceed": 3971,
      "bea": 3972,
      "##olina": 3973,
      "bisquick": 3974,
      "##ged": 3975,
      "holds": 3976,
      "pretzel": 3977,
      "unm": 3978,
      "maintain": 3979,
      "unroll": 3980,
      "already": 3981,
      "mg": 3982,
      "buffalo": 3983,
      "flower": 3984,
      "marnier": 3985,
      "silk": 3986,
      "fitting": 3987,
      "dress": 3988,
      "##ada": 3989,
      "zested": 3990,
      "##ago": 3991,
      "plantain": 3992,
      "unif": 3993,
      "course": 3994,
      "remember": 3995,
      "overh": 3996,
      "450u00b0": 3997,
      "porto": 3998,
      "##iment": 3999,
      "purple": 4000,
      "##basa": 4001,
      "rag": 4002,
      "nutella": 4003,
      "prunes": 4004,
      "family": 4005,
      "slit": 4006,
      "325u00b0f": 4007,
      "##apia": 4008,
      "procedure": 4009,
      "evapor": 4010,
      "mushy": 4011,
      "##ph": 4012,
      "hens": 4013,
      "font": 4014,
      "lavender": 4015,
      "uniform": 4016,
      "frittata": 4017,
      "logs": 4018,
      "jumbo": 4019,
      "morsels": 4020,
      "based": 4021,
      "shanks": 4022,
      "gum": 4023,
      "turnips": 4024,
      "risen": 4025,
      "sink": 4026,
      "wraps": 4027,
      "##orn": 4028,
      "##loins": 4029,
      "carton": 4030,
      "strained": 4031,
      "choose": 4032,
      "##ster": 4033,
      "portob": 4034,
      "otherwise": 4035,
      "prob": 4036,
      "edam": 4037,
      "spots": 4038,
      "vid": 4039,
      "##work": 4040,
      "variety": 4041,
      "marsala": 4042,
      "kiel": 4043,
      "crow": 4044,
      "ci": 4045,
      "tilapia": 4046,
      "traditional": 4047,
      "overhang": 4048,
      "cane": 4049,
      "drumsticks": 4050,
      "lots": 4051,
      "tenderloins": 4052,
      "hair": 4053,
      "serrated": 4054,
      "chunk": 4055,
      "additions": 4056,
      "kielbasa": 4057,
      "##x10": 4058,
      "somew": 4059,
      "fontina": 4060,
      "unmold": 4061,
      "1t": 4062,
      "tablespoonfuls": 4063,
      "wasabi": 4064,
      "##ures": 4065,
      "salami": 4066,
      "750": 4067,
      "dipped": 4068,
      "harden": 4069,
      "##elt": 4070,
      "scor": 4071,
      "equally": 4072,
      "san": 4073,
      "endive": 4074,
      "##si": 4075,
      "beaters": 4076,
      "hab": 4077,
      "##fa": 4078,
      "stainless": 4079,
      "##rist": 4080,
      "##ect": 4081,
      "corners": 4082,
      "fle": 4083,
      "blackberry": 4084,
      "eating": 4085,
      "morning": 4086,
      "seared": 4087,
      "probably": 4088,
      "key": 4089,
      "brewed": 4090,
      "substituted": 4091,
      "##hat": 4092,
      "##ik": 4093,
      "sweetener": 4094,
      "photo": 4095,
      "120": 4096,
      "cling": 4097,
      "version": 4098,
      "placed": 4099,
      "aioli": 4100,
      "##atic": 4101,
      "standing": 4102,
      "proceed": 4103,
      "needs": 4104,
      "atop": 4105,
      "steril": 4106,
      "tbls": 4107,
      "##aps": 4108,
      "mul": 4109,
      "alongside": 4110,
      "475": 4111,
      "indian": 4112,
      "centers": 4113,
      "vidalia": 4114,
      "house": 4115,
      "kee": 4116,
      "sweat": 4117,
      "links": 4118,
      "sch": 4119,
      "clumps": 4120,
      "discarded": 4121,
      "meantime": 4122,
      "chickens": 4123,
      "##fine": 4124,
      "##umb": 4125,
      "tb": 4126,
      "bites": 4127,
      "evaporates": 4128,
      "##ming": 4129,
      "170": 4130,
      "saturated": 4131,
      "starter": 4132,
      "425u00b0f": 4133,
      "variation": 4134,
      "fingertips": 4135,
      "##set": 4136,
      "helps": 4137,
      "getting": 4138,
      "forks": 4139,
      "hulled": 4140,
      "superfine": 4141,
      "salty": 4142,
      "wing": 4143,
      "oreo": 4144,
      "swir": 4145,
      "buy": 4146,
      "edamame": 4147,
      "cacao": 4148,
      "vit": 4149,
      "##imum": 4150,
      "thickly": 4151,
      "closed": 4152,
      "spon": 4153,
      "kneading": 4154,
      "flipping": 4155,
      "fres": 4156,
      "wilt": 4157,
      "curried": 4158,
      "yet": 4159,
      "##ues": 4160,
      "compo": 4161,
      "mcc": 4162,
      "appetiz": 4163,
      "##risp": 4164,
      "grater": 4165,
      "wafer": 4166,
      "wonder": 4167,
      "greasing": 4168,
      "goes": 4169,
      "thing": 4170,
      "##abs": 4171,
      "required": 4172,
      "scoops": 4173,
      "herbed": 4174,
      "however": 4175,
      "mass": 4176,
      "##ial": 4177,
      "##ba": 4178,
      "yummy": 4179,
      "papaya": 4180,
      "silic": 4181,
      "queso": 4182,
      "prior": 4183,
      "##ople": 4184,
      "##bler": 4185,
      "##ging": 4186,
      "corned": 4187,
      "cremini": 4188,
      "##ahl": 4189,
      "people": 4190,
      "haban": 4191,
      "shaving": 4192,
      "##cha": 4193,
      "holding": 4194,
      "shiny": 4195,
      "##vetop": 4196,
      "##iness": 4197,
      "nap": 4198,
      "stovetop": 4199,
      "flak": 4200,
      "overmix": 4201,
      "##mas": 4202,
      "sponge": 4203,
      "pouring": 4204,
      "preparation": 4205,
      "##iago": 4206,
      "##den": 4207,
      "compote": 4208,
      "sake": 4209,
      "rotate": 4210,
      "##ison": 4211,
      "amp": 4212,
      "win": 4213,
      "asiago": 4214,
      "ven": 4215,
      "meats": 4216,
      "devel": 4217,
      "##coh": 4218,
      "eyed": 4219,
      "##ker": 4220,
      "2t": 4221,
      "buck": 4222,
      "fritters": 4223,
      "bloss": 4224,
      "##mine": 4225,
      "blossom": 4226,
      "semolina": 4227,
      "##ormick": 4228,
      "confectioner": 4229,
      "please": 4230,
      "seper": 4231,
      "oval": 4232,
      "rig": 4233,
      "##ows": 4234,
      "celsi": 4235,
      "undern": 4236,
      "cornflour": 4237,
      "celsius": 4238,
      "underneath": 4239,
      "never": 4240,
      "##bons": 4241,
      "mangoes": 4242,
      "enc": 4243,
      "christ": 4244,
      "na": 4245,
      "liter": 4246,
      "toward": 4247,
      "unwrap": 4248,
      "mccormick": 4249,
      "##res": 4250,
      "milliliters": 4251,
      "crost": 4252,
      "able": 4253,
      "coats": 4254,
      "door": 4255,
      "aromatic": 4256,
      "husks": 4257,
      "flaky": 4258,
      "165": 4259,
      "##ma": 4260,
      "mostly": 4261,
      "overb": 4262,
      "casings": 4263,
      "standard": 4264,
      "##bury": 4265,
      "trays": 4266,
      "caram": 4267,
      "block": 4268,
      "putting": 4269,
      "puffs": 4270,
      "treat": 4271,
      "chefs": 4272,
      "triangle": 4273,
      "pocket": 4274,
      "##orio": 4275,
      "portobello": 4276,
      "ramen": 4277,
      "farm": 4278,
      "tim": 4279,
      "nu": 4280,
      "proven": 4281,
      "chewy": 4282,
      "kahl": 4283,
      "tanger": 4284,
      "cantal": 4285,
      "breadcrumb": 4286,
      "patted": 4287,
      "chillies": 4288,
      "kiwi": 4289,
      "remains": 4290,
      "syrupy": 4291,
      "plan": 4292,
      "kab": 4293,
      "matzo": 4294,
      "kahlua": 4295,
      "thumb": 4296,
      "isn": 4297,
      "somewhat": 4298,
      "stores": 4299,
      "proper": 4300,
      "verde": 4301,
      "lab": 4302,
      "gib": 4303,
      "pickling": 4304,
      "blackened": 4305,
      "lock": 4306,
      "##zing": 4307,
      "##itch": 4308,
      "float": 4309,
      "bitter": 4310,
      "keeps": 4311,
      "arborio": 4312,
      "oppos": 4313,
      "##ears": 4314,
      "thinner": 4315,
      "inform": 4316,
      "rotel": 4317,
      "rather": 4318,
      "##onds": 4319,
      "##vers": 4320,
      "##illas": 4321,
      "##ouille": 4322,
      "110": 4323,
      "scraps": 4324,
      "truffles": 4325,
      "##acle": 4326,
      "shavings": 4327,
      "winter": 4328,
      "information": 4329,
      "cuts": 4330,
      "gone": 4331,
      "case": 4332,
      "cantaloup": 4333,
      "ribbons": 4334,
      "southw": 4335,
      "distributed": 4336,
      "snapper": 4337,
      "portab": 4338,
      "blan": 4339,
      "crystall": 4340,
      "equip": 4341,
      "##hing": 4342,
      "##ung": 4343,
      "rectangular": 4344,
      "opening": 4345,
      "equipment": 4346,
      "425f": 4347,
      "sout": 4348,
      "attached": 4349,
      "##illed": 4350,
      "filets": 4351,
      "depends": 4352,
      "garnishes": 4353,
      "net": 4354,
      "alcoh": 4355,
      "caramels": 4356,
      "##omb": 4357,
      "crusted": 4358,
      "german": 4359,
      "dept": 4360,
      "chia": 4361,
      "liquids": 4362,
      "flowers": 4363,
      "garden": 4364,
      "habanero": 4365,
      "teaspoonfuls": 4366,
      "boned": 4367,
      "transpar": 4368,
      "touching": 4369,
      "##via": 4370,
      "##seed": 4371,
      "soymilk": 4372,
      "clar": 4373,
      "pith": 4374,
      "gou": 4375,
      "filet": 4376,
      "ziploc": 4377,
      "##abe": 4378,
      "bi": 4379,
      "oils": 4380,
      "weights": 4381,
      "miracle": 4382,
      "spiral": 4383,
      "carb": 4384,
      "venison": 4385,
      "jic": 4386,
      "15x10": 4387,
      "turned": 4388,
      "steaming": 4389,
      "rendered": 4390,
      "transparent": 4391,
      "tang": 4392,
      "something": 4393,
      "depth": 4394,
      "options": 4395,
      "infused": 4396,
      "##ses": 4397,
      "##cks": 4398,
      "cantaloupe": 4399,
      "jicama": 4400,
      "iceberg": 4401,
      "##sch": 4402,
      "sizzle": 4403,
      "swirling": 4404,
      "krisp": 4405,
      "feed": 4406,
      "silicone": 4407,
      "tarts": 4408,
      "kabo": 4409,
      "area": 4410,
      "else": 4411,
      "vert": 4412,
      "##jo": 4413,
      "melting": 4414,
      "bass": 4415,
      "liquor": 4416,
      "checking": 4417,
      "wid": 4418,
      "bottles": 4419,
      "anything": 4420,
      "springs": 4421,
      "tenders": 4422,
      "acid": 4423,
      "body": 4424,
      "pulled": 4425,
      "carving": 4426,
      "sat": 4427,
      "combining": 4428,
      "sup": 4429,
      "continuing": 4430,
      "mallet": 4431,
      "##ibb": 4432,
      "devil": 4433,
      "##ante": 4434,
      "sauc": 4435,
      "rnrn": 4436,
      "masa": 4437,
      "opposite": 4438,
      "norm": 4439,
      "##ggy": 4440,
      "deseed": 4441,
      "layering": 4442,
      "canning": 4443,
      "butt": 4444,
      "mandol": 4445,
      "farro": 4446,
      "##acho": 4447,
      "handfuls": 4448,
      "southern": 4449,
      "jas": 4450,
      "cannot": 4451,
      "yours": 4452,
      "develop": 4453,
      "##ify": 4454,
      "ramekin": 4455,
      "200c": 4456,
      "##ane": 4457,
      "complete": 4458,
      "diet": 4459,
      "kraft": 4460,
      "inc": 4461,
      "christmas": 4462,
      "listed": 4463,
      "lima": 4464,
      "stopping": 4465,
      "##ctin": 4466,
      "bli": 4467,
      "livers": 4468,
      "hers": 4469,
      "rubbed": 4470,
      "provided": 4471,
      "pockets": 4472,
      "samb": 4473,
      "9x": 4474,
      "##illo": 4475,
      "ter": 4476,
      "yams": 4477,
      "pectin": 4478,
      "##iter": 4479,
      "seven": 4480,
      "pimiento": 4481,
      "threads": 4482,
      "moving": 4483,
      "balance": 4484,
      "storage": 4485,
      "doughnuts": 4486,
      "groc": 4487,
      "115": 4488,
      "##ution": 4489,
      "##ocks": 4490,
      "escar": 4491,
      "scrambled": 4492,
      "produ": 4493,
      "assembly": 4494,
      "##aces": 4495,
      "##ral": 4496,
      "grm": 4497,
      "sound": 4498,
      "##icum": 4499,
      "escape": 4500,
      "parfa": 4501,
      "##plate": 4502,
      "jasmine": 4503,
      "who": 4504,
      "mounds": 4505,
      "scraped": 4506,
      "toasts": 4507,
      "capsicum": 4508,
      "flan": 4509,
      "switch": 4510,
      "sterilized": 4511,
      "29": 4512,
      "party": 4513,
      "##don": 4514,
      "450f": 4515,
      "bouquet": 4516,
      "##bin": 4517,
      "iced": 4518,
      "quesadillas": 4519,
      "accum": 4520,
      "glo": 4521,
      "giblets": 4522,
      "spreadable": 4523,
      "vermic": 4524,
      "eggn": 4525,
      "gingerbread": 4526,
      "wonderful": 4527,
      "chim": 4528,
      "vitam": 4529,
      "hell": 4530,
      "hershe": 4531,
      "turnip": 4532,
      "hearty": 4533,
      "eggnog": 4534,
      "##iest": 4535,
      "##erie": 4536,
      "fondue": 4537,
      "percent": 4538,
      "vermicelli": 4539,
      "draft": 4540,
      "smoker": 4541,
      "##shi": 4542,
      "extracts": 4543,
      "##urry": 4544,
      "lumpy": 4545,
      "##atta": 4546,
      "maybe": 4547,
      "stro": 4548,
      "##illsbury": 4549,
      "hi": 4550,
      "clarified": 4551,
      "cobbler": 4552,
      "275": 4553,
      "##issa": 4554,
      "dal": 4555,
      "scald": 4556,
      "catch": 4557,
      "tot": 4558,
      "##aph": 4559,
      "unf": 4560,
      "change": 4561,
      "##mm": 4562,
      "scramble": 4563,
      "gouda": 4564,
      "nonrea": 4565,
      "twine": 4566,
      "nonreactive": 4567,
      "chiff": 4568,
      "crystallized": 4569,
      "fronds": 4570,
      "facing": 4571,
      "dai": 4572,
      "spoons": 4573,
      "##ests": 4574,
      "breads": 4575,
      "rabe": 4576,
      "mess": 4577,
      "##iding": 4578,
      "pain": 4579,
      "crowd": 4580,
      "cycle": 4581,
      "hang": 4582,
      "##irt": 4583,
      "chiffon": 4584,
      "##acc": 4585,
      "ladyf": 4586,
      "carbohydrate": 4587,
      "##esar": 4588,
      "drying": 4589,
      "eyes": 4590,
      "sauces": 4591,
      "biscotti": 4592,
      "slight": 4593,
      "oc": 4594,
      "##irect": 4595,
      "cher": 4596,
      "ceramic": 4597,
      "##wheat": 4598,
      "subs": 4599,
      "dec": 4600,
      "##aced": 4601,
      "catfish": 4602,
      "chive": 4603,
      "itself": 4604,
      "htt": 4605,
      "mag": 4606,
      "##mark": 4607,
      "torte": 4608,
      "film": 4609,
      "indirect": 4610,
      "##chamel": 4611,
      "bulbs": 4612,
      "rigat": 4613,
      "juicy": 4614,
      "##right": 4615,
      "caesar": 4616,
      "fu": 4617,
      "pli": 4618,
      "weigh": 4619,
      "scorch": 4620,
      "crostini": 4621,
      "beaut": 4622,
      "minimum": 4623,
      "passion": 4624,
      "defrosted": 4625,
      "okay": 4626,
      "points": 4627,
      "photogr": 4628,
      "##ana": 4629,
      "rigatoni": 4630,
      "apply": 4631,
      "mediter": 4632,
      "escarole": 4633,
      "mah": 4634,
      "touched": 4635,
      "##isserie": 4636,
      "##ob": 4637,
      "raising": 4638,
      "pillsbury": 4639,
      "bechamel": 4640,
      "nort": 4641,
      "belly": 4642,
      "slivers": 4643,
      "flatbread": 4644,
      "rabb": 4645,
      "9x5": 4646,
      "##alle": 4647,
      "acorn": 4648,
      "faj": 4649,
      "5g": 4650,
      "emer": 4651,
      "frie": 4652,
      "island": 4653,
      "##ranean": 4654,
      "harissa": 4655,
      "peri": 4656,
      "variations": 4657,
      "keb": 4658,
      "eff": 4659,
      "##pical": 4660,
      "rotisserie": 4661,
      "beater": 4662,
      "hellman": 4663,
      "mediterranean": 4664,
      "py": 4665,
      "photograph": 4666,
      "include": 4667,
      "##een": 4668,
      "select": 4669,
      "turbin": 4670,
      "crystals": 4671,
      "texas": 4672,
      "prof": 4673,
      "##go": 4674,
      "sund": 4675,
      "emulsified": 4676,
      "##lette": 4677,
      "smoky": 4678,
      "turbinado": 4679,
      "sher": 4680,
      "falling": 4681,
      "supermark": 4682,
      "nutty": 4683,
      "east": 4684,
      "alcohol": 4685,
      "ragu": 4686,
      "offset": 4687,
      "amber": 4688,
      "boxes": 4689,
      "fer": 4690,
      "camp": 4691,
      "140": 4692,
      "angle": 4693,
      "vi": 4694,
      "##met": 4695,
      "ciab": 4696,
      "exp": 4697,
      "adhere": 4698,
      "conf": 4699,
      "decrease": 4700,
      "visit": 4701,
      "hershey": 4702,
      "dem": 4703,
      "packag": 4704,
      "deseeded": 4705,
      "65": 4706,
      "filter": 4707,
      "northern": 4708,
      "foc": 4709,
      "##ioche": 4710,
      "microwav": 4711,
      "##oor": 4712,
      "brioche": 4713,
      "##end": 4714,
      "croiss": 4715,
      "alternate": 4716,
      "cured": 4717,
      "espe": 4718,
      "jigg": 4719,
      "parsnip": 4720,
      "ciabatta": 4721,
      "##ura": 4722,
      "##ji": 4723,
      "craw": 4724,
      "##iar": 4725,
      "face": 4726,
      "meld": 4727,
      "marks": 4728,
      "160u00b0": 4729,
      "plun": 4730,
      "ob": 4731,
      "youre": 4732,
      "provence": 4733,
      "rust": 4734,
      "pilaf": 4735,
      "ma": 4736,
      "decorative": 4737,
      "retain": 4738,
      "450u00b0f": 4739,
      "pou": 4740,
      "cats": 4741,
      "kim": 4742,
      "##ito": 4743,
      "membranes": 4744,
      "trif": 4745,
      "sword": 4746,
      "pimento": 4747,
      "draw": 4748,
      "nori": 4749,
      "##ettes": 4750,
      "aged": 4751,
      "##ware": 4752,
      "grass": 4753,
      "##ston": 4754,
      "seperate": 4755,
      "calif": 4756,
      "appetizer": 4757,
      "burrito": 4758,
      "portabella": 4759,
      "holid": 4760,
      "pliable": 4761,
      "##aff": 4762,
      "holiday": 4763,
      "buckwheat": 4764,
      "lip": 4765,
      "##issor": 4766,
      "micro": 4767,
      "sushi": 4768,
      "rabbit": 4769,
      "processed": 4770,
      "##rec": 4771,
      "californ": 4772,
      "xant": 4773,
      "anal": 4774,
      "tangerine": 4775,
      "curls": 4776,
      "gingers": 4777,
      "##utes": 4778,
      "scissor": 4779,
      "www": 4780,
      "ritz": 4781,
      "colby": 4782,
      "pizzas": 4783,
      "##posed": 4784,
      "##lee": 4785,
      "access": 4786,
      "swordfish": 4787,
      "rapidly": 4788,
      "napa": 4789,
      "steps": 4790,
      "15x10x1": 4791,
      "drizzled": 4792,
      "plantains": 4793,
      "##rates": 4794,
      "grocery": 4795,
      "mey": 4796,
      "layered": 4797,
      "aut": 4798,
      "pate": 4799,
      "catsup": 4800,
      "crawfish": 4801,
      "180u00b0c": 4802,
      "##rust": 4803,
      "pral": 4804,
      "accumulated": 4805,
      "stevia": 4806,
      "tag": 4807,
      "matchsticks": 4808,
      "california": 4809,
      "mouth": 4810,
      "##hetta": 4811,
      "krispies": 4812,
      "calorie": 4813,
      "sweetness": 4814,
      "achieve": 4815,
      "freezing": 4816,
      "##ward": 4817,
      "markets": 4818,
      "scotch": 4819,
      "##loom": 4820,
      "heir": 4821,
      "collard": 4822,
      "shoots": 4823,
      "medall": 4824,
      "brit": 4825,
      "heirloom": 4826,
      "anyone": 4827,
      "gingersn": 4828,
      "##iti": 4829,
      "visible": 4830,
      "##resh": 4831,
      "plump": 4832,
      "skip": 4833,
      "pair": 4834,
      "mace": 4835,
      "gour": 4836,
      "9x9": 4837,
      "ele": 4838,
      "motor": 4839,
      "didn": 4840,
      "spacing": 4841,
      "mocha": 4842,
      "##reau": 4843,
      "meyer": 4844,
      "defrost": 4845,
      "chestnut": 4846,
      "##ship": 4847,
      "margarita": 4848,
      "marz": 4849,
      "ts": 4850,
      "flute": 4851,
      "bol": 4852,
      "source": 4853,
      "preserved": 4854,
      "coint": 4855,
      "yum": 4856,
      "overl": 4857,
      "carve": 4858,
      "kiss": 4859,
      "slip": 4860,
      "bark": 4861,
      "kor": 4862,
      "cointreau": 4863,
      "rip": 4864,
      "##ysis": 4865,
      "smear": 4866,
      "dusted": 4867,
      "things": 4868,
      "disks": 4869,
      "analysis": 4870,
      "picante": 4871,
      "decorating": 4872,
      "tilt": 4873,
      "exact": 4874,
      "trifle": 4875,
      "america": 4876,
      "andouille": 4877,
      "crabs": 4878,
      "inner": 4879,
      "remov": 4880,
      "scissors": 4881,
      "##ities": 4882,
      "yourself": 4883,
      "##ene": 4884,
      "transferring": 4885,
      "nar": 4886,
      "rope": 4887,
      "8oz": 4888,
      "finishing": 4889,
      "desire": 4890,
      "cola": 4891,
      "##aur": 4892,
      "##cially": 4893,
      "insides": 4894,
      "bias": 4895,
      "##chetta": 4896,
      "caviar": 4897,
      "tomatillo": 4898,
      "##adian": 4899,
      "network": 4900,
      "frank": 4901,
      "xanthan": 4902,
      "##chas": 4903,
      "product": 4904,
      "##ior": 4905,
      "period": 4906,
      "boston": 4907,
      "rustic": 4908,
      "quant": 4909,
      "13x9x2": 4910,
      "##recipes": 4911,
      "##crust": 4912,
      "pitas": 4913,
      "##ha": 4914,
      "##pri": 4915,
      "toaster": 4916,
      "gives": 4917,
      "lite": 4918,
      "http": 4919,
      "##dge": 4920,
      "##lose": 4921,
      "ladyfingers": 4922,
      "##adas": 4923,
      "##eable": 4924,
      "buttery": 4925,
      "sambal": 4926,
      "doing": 4927,
      "fava": 4928,
      "chervil": 4929,
      "##urbed": 4930,
      "lobsters": 4931,
      "##pat": 4932,
      "soups": 4933,
      "fourths": 4934,
      "enclose": 4935,
      "korean": 4936,
      "purchas": 4937,
      "rid": 4938,
      "moroc": 4939,
      "resist": 4940,
      "tropical": 4941,
      "190c": 4942,
      "arrow": 4943,
      "##accia": 4944,
      "undist": 4945,
      "perfectly": 4946,
      "wr": 4947,
      "plunge": 4948,
      "##efore": 4949,
      "spot": 4950,
      "burst": 4951,
      "option": 4952,
      "shot": 4953,
      "held": 4954,
      "jun": 4955,
      "king": 4956,
      "undisturbed": 4957,
      "narrow": 4958,
      "blanc": 4959,
      "rows": 4960,
      "##oise": 4961,
      "peels": 4962,
      "ziplock": 4963,
      "removable": 4964,
      "cam": 4965,
      "brus": 4966,
      "loc": 4967,
      "kebabs": 4968,
      "##aken": 4969,
      "pi": 4970,
      "spar": 4971,
      "panini": 4972,
      "##eans": 4973,
      "folded": 4974,
      "##ng": 4975,
      "sided": 4976,
      "puffy": 4977,
      "correct": 4978,
      "whirl": 4979,
      "actually": 4980,
      "jarred": 4981,
      "upright": 4982,
      "##irsch": 4983,
      "suit": 4984,
      "##rem": 4985,
      "ba": 4986,
      "wheel": 4987,
      "focaccia": 4988,
      "sealing": 4989,
      "##rex": 4990,
      "towards": 4991,
      "quail": 4992,
      "therefore": 4993,
      "lg": 4994,
      "eaten": 4995,
      "cyli": 4996,
      "##vely": 4997,
      "canadian": 4998,
      "salads": 4999,
      "build": 5000,
      "ligh": 5001,
      "nestle": 5002,
      "##eer": 5003,
      "ferment": 5004,
      "got": 5005,
      "##zer": 5006,
      "herbes": 5007,
      "moroccan": 5008,
      "##garian": 5009,
      "hominy": 5010,
      "tangy": 5011,
      "pyrex": 5012,
      "medallions": 5013,
      "ziti": 5014,
      "overlap": 5015,
      "popped": 5016,
      "front": 5017,
      "accompaniment": 5018,
      "bundle": 5019,
      "slo": 5020,
      "sizzling": 5021,
      "partner": 5022,
      "screw": 5023,
      "vent": 5024,
      "happ": 5025,
      "distilled": 5026,
      "totally": 5027,
      "haw": 5028,
      "malt": 5029,
      "sherbet": 5030,
      "##weed": 5031,
      "vitamin": 5032,
      "cobs": 5033,
      "casing": 5034,
      "##ued": 5035,
      "usda": 5036,
      "arrowroot": 5037,
      "currant": 5038,
      "fluted": 5039,
      "##tic": 5040,
      "130": 5041,
      "31": 5042,
      "flaxseed": 5043,
      "book": 5044,
      "##abag": 5045,
      "indentation": 5046,
      "reduces": 5047,
      "vertically": 5048,
      "##ucked": 5049,
      "width": 5050,
      "##uan": 5051,
      "sort": 5052,
      "##ious": 5053,
      "especially": 5054,
      "dul": 5055,
      "mes": 5056,
      "macaro": 5057,
      "carbohydrates": 5058,
      "properly": 5059,
      "broiled": 5060,
      "rotini": 5061,
      "naan": 5062,
      "label": 5063,
      "dv": 5064,
      "bruschetta": 5065,
      "tost": 5066,
      "pep": 5067,
      "grandma": 5068,
      "gourmet": 5069,
      "##ja": 5070,
      "profess": 5071,
      "kabobs": 5072,
      "grainy": 5073,
      "##ised": 5074,
      "shelf": 5075,
      "nectarines": 5076,
      "chilis": 5077,
      "85": 5078,
      "27": 5079,
      "chopping": 5080,
      "33": 5081,
      "neat": 5082,
      "##estern": 5083,
      "flor": 5084,
      "pushing": 5085,
      "kick": 5086,
      "##fort": 5087,
      "professional": 5088,
      "restaur": 5089,
      "delight": 5090,
      "dig": 5091,
      "ribbon": 5092,
      "0g": 5093,
      "##iments": 5094,
      "gooey": 5095,
      "popsic": 5096,
      "submerge": 5097,
      "nav": 5098,
      "dir": 5099,
      "145": 5100,
      "pounded": 5101,
      "soba": 5102,
      "myrecipes": 5103,
      "hick": 5104,
      "underside": 5105,
      "partnership": 5106,
      "myplate": 5107,
      "pico": 5108,
      "fus": 5109,
      "reduction": 5110,
      "stuck": 5111,
      "burritos": 5112,
      "##adine": 5113,
      "rises": 5114,
      "strands": 5115,
      "trove": 5116,
      "bagel": 5117,
      "resem": 5118,
      "gren": 5119,
      "pad": 5120,
      "emeril": 5121,
      "gram": 5122,
      "membrane": 5123,
      "hickory": 5124,
      "squeezing": 5125,
      "brittle": 5126,
      "kitchenaid": 5127,
      "gloves": 5128,
      "dividing": 5129,
      "bigg": 5130,
      "manner": 5131,
      "kids": 5132,
      "hungarian": 5133,
      "##boil": 5134,
      "ideal": 5135,
      "##no": 5136,
      "##sing": 5137,
      "chimich": 5138,
      "pom": 5139,
      "##ange": 5140,
      "cylinder": 5141,
      "sets": 5142,
      "38": 5143,
      "cutters": 5144,
      "easiest": 5145,
      "kum": 5146,
      "##dger": 5147,
      "fresco": 5148,
      "rat": 5149,
      "cooler": 5150,
      "##oncini": 5151,
      "##ssel": 5152,
      "##illi": 5153,
      "##round": 5154,
      "resemble": 5155,
      "delic": 5156,
      "colors": 5157,
      "silpat": 5158,
      "crema": 5159,
      "pimientos": 5160,
      "tempe": 5161,
      "##fuse": 5162,
      "##gy": 5163,
      "soggy": 5164,
      "calam": 5165,
      "tblsp": 5166,
      "hawai": 5167,
      "crisps": 5168,
      "guests": 5169,
      "jerk": 5170,
      "rut": 5171,
      "meringues": 5172,
      "tempeh": 5173,
      "##iki": 5174,
      "snip": 5175,
      "valley": 5176,
      "meaty": 5177,
      "submerged": 5178,
      "chiffonade": 5179,
      "##ieved": 5180,
      "band": 5181,
      "##iana": 5182,
      "##ult": 5183,
      "silver": 5184,
      "garni": 5185,
      "surround": 5186,
      "infuse": 5187,
      "refresh": 5188,
      "heav": 5189,
      "gallo": 5190,
      "tu": 5191,
      "ox": 5192,
      "braising": 5193,
      "##uri": 5194,
      "refridger": 5195,
      "stru": 5196,
      "individually": 5197,
      "##mi": 5198,
      "dun": 5199,
      "fruity": 5200,
      "barbecued": 5201,
      "lou": 5202,
      "##ira": 5203,
      "daikon": 5204,
      "rims": 5205,
      "zesty": 5206,
      "bagels": 5207,
      "##ca": 5208,
      "incr": 5209,
      "ga": 5210,
      "adds": 5211,
      "baker": 5212,
      "600": 5213,
      "grab": 5214,
      "butterf": 5215,
      "tend": 5216,
      "parfait": 5217,
      "carbon": 5218,
      "praline": 5219,
      "##reek": 5220,
      "diamond": 5221,
      "##ales": 5222,
      "##ental": 5223,
      "hrs": 5224,
      "mrs": 5225,
      "churn": 5226,
      "dev": 5227,
      "ber": 5228,
      "da": 5229,
      "##py": 5230,
      "multi": 5231,
      "comfort": 5232,
      "slurry": 5233,
      "mein": 5234,
      "leche": 5235,
      "mixt": 5236,
      "softens": 5237,
      "##orr": 5238,
      "restaurant": 5239,
      "indic": 5240,
      "grenadine": 5241,
      "reactive": 5242,
      "closely": 5243,
      "mandoline": 5244,
      "##dden": 5245,
      "##nam": 5246,
      "neut": 5247,
      "##for": 5248,
      "##0u00b0c": 5249,
      "shreds": 5250,
      "gumbo": 5251,
      "t1": 5252,
      "##itos": 5253,
      "decoration": 5254,
      "##bles": 5255,
      "##ival": 5256,
      "blister": 5257,
      "flavorful": 5258,
      "say": 5259,
      "##unt": 5260,
      "neutral": 5261,
      "dulce": 5262,
      "butcher": 5263,
      "appears": 5264,
      "##bone": 5265,
      "hellmann": 5266,
      "knorr": 5267,
      "##und": 5268,
      "sauteing": 5269,
      "farf": 5270,
      "supermarkets": 5271,
      "##oulade": 5272,
      "velvet": 5273,
      "lines": 5274,
      "draining": 5275,
      "hawaiian": 5276,
      "exc": 5277,
      "effect": 5278,
      "navel": 5279,
      "opened": 5280,
      "wall": 5281,
      "places": 5282,
      "partic": 5283,
      "##urst": 5284,
      "##eno": 5285,
      "skimming": 5286,
      "ult": 5287,
      "aroma": 5288,
      "soya": 5289,
      "navy": 5290,
      "##bing": 5291,
      "##onc": 5292,
      "spritz": 5293,
      "repres": 5294,
      "lighter": 5295,
      "sult": 5296,
      "bagg": 5297,
      "mahi": 5298,
      "tapen": 5299,
      "covers": 5300,
      "##ret": 5301,
      "omitting": 5302,
      "fen": 5303,
      "tasting": 5304,
      "evaporate": 5305,
      "##ida": 5306,
      "##zu": 5307,
      "motion": 5308,
      "tapenade": 5309,
      "grinds": 5310,
      "number": 5311,
      "saucepot": 5312,
      "##utter": 5313,
      "consist": 5314,
      "kitchens": 5315,
      "dollops": 5316,
      "300f": 5317,
      "##cup": 5318,
      "knives": 5319,
      "calc": 5320,
      "edible": 5321,
      "tossed": 5322,
      "##imate": 5323,
      "##pps": 5324,
      "young": 5325,
      "palms": 5326,
      "bob": 5327,
      "worth": 5328,
      "granular": 5329,
      "tater": 5330,
      "exposed": 5331,
      "##x7": 5332,
      "calamari": 5333,
      "##cal": 5334,
      "circular": 5335,
      "tus": 5336,
      "amaz": 5337,
      "fancy": 5338,
      "stale": 5339,
      "marinating": 5340,
      "lovely": 5341,
      "##ele": 5342,
      "limp": 5343,
      "joe": 5344,
      "prem": 5345,
      "pulls": 5346,
      "claw": 5347,
      "##bell": 5348,
      "muddle": 5349,
      "cone": 5350,
      "clump": 5351,
      "eart": 5352,
      "rain": 5353,
      "sard": 5354,
      "rewarm": 5355,
      "brick": 5356,
      "schna": 5357,
      "kar": 5358,
      "spelt": 5359,
      "conve": 5360,
      "suggested": 5361,
      "##iper": 5362,
      "##ignon": 5363,
      "lunch": 5364,
      "latt": 5365,
      "sloppy": 5366,
      "chilling": 5367,
      "##ds": 5368,
      "schnapps": 5369,
      "bolog": 5370,
      "sel": 5371,
      "poaching": 5372,
      "##isee": 5373,
      "holl": 5374,
      "##ugreek": 5375,
      "york": 5376,
      "##ans": 5377,
      "paint": 5378,
      "blot": 5379,
      "spec": 5380,
      "goose": 5381,
      "juniper": 5382,
      "aid": 5383,
      "shucked": 5384,
      "fenugreek": 5385,
      "sar": 5386,
      "##verage": 5387,
      "flatt": 5388,
      "personal": 5389,
      "year": 5390,
      "passing": 5391,
      "manic": 5392,
      "result": 5393,
      "stirred": 5394,
      "piecrust": 5395,
      "friend": 5396,
      "kimchi": 5397,
      "tuscan": 5398,
      "started": 5399,
      "millet": 5400,
      "##azy": 5401,
      "law": 5402,
      "dream": 5403,
      "representation": 5404,
      "##my": 5405,
      "rocks": 5406,
      "lattice": 5407,
      "madeira": 5408,
      "190": 5409,
      "##net": 5410,
      "holland": 5411,
      "regularly": 5412,
      "yields": 5413,
      "garnishing": 5414,
      "##phia": 5415,
      "belg": 5416,
      "feels": 5417,
      "manicotti": 5418,
      "cause": 5419,
      "specialty": 5420,
      "##aded": 5421,
      "slush": 5422,
      "item": 5423,
      "faster": 5424,
      "convection": 5425,
      "mist": 5426,
      "oriental": 5427,
      "ment": 5428,
      "300u00b0f": 5429,
      "rutabag": 5430,
      "##del": 5431,
      "jug": 5432,
      "heavily": 5433,
      "stout": 5434,
      "chall": 5435,
      "aw": 5436,
      "alth": 5437,
      "incre": 5438,
      "bigger": 5439,
      "chai": 5440,
      "ups": 5441,
      "##elphia": 5442,
      "released": 5443,
      "whisked": 5444,
      "securely": 5445,
      "equival": 5446,
      "ben": 5447,
      "braise": 5448,
      "##wurst": 5449,
      "moons": 5450,
      "mashing": 5451,
      "nor": 5452,
      "tied": 5453,
      "braid": 5454,
      "slab": 5455,
      "simmers": 5456,
      "omelette": 5457,
      "favour": 5458,
      "tines": 5459,
      "trying": 5460,
      "##iously": 5461,
      "##ms": 5462,
      "overbake": 5463,
      "show": 5464,
      "skirt": 5465,
      "settle": 5466,
      "lifting": 5467,
      "although": 5468,
      "flattened": 5469,
      "pas": 5470,
      "##olf": 5471,
      "processing": 5472,
      "creamer": 5473,
      "fusilli": 5474,
      "petals": 5475,
      "110u00b0": 5476,
      "##iladelphia": 5477,
      "##quettes": 5478,
      "pepitas": 5479,
      "gal": 5480,
      "##wood": 5481,
      "darker": 5482,
      "pastries": 5483,
      "unfold": 5484,
      "mixtures": 5485,
      "mid": 5486,
      "##opes": 5487,
      "##reme": 5488,
      "empan": 5489,
      "nugg": 5490,
      "af": 5491,
      "wontons": 5492,
      "equivalent": 5493,
      "##hs": 5494,
      "##lied": 5495,
      "upon": 5496,
      "resting": 5497,
      "pulling": 5498,
      "##day": 5499,
      "##easing": 5500,
      "360": 5501,
      "abs": 5502,
      "gh": 5503,
      "unless": 5504,
      "wise": 5505,
      "bro": 5506,
      "viet": 5507,
      "pits": 5508,
      "forget": 5509,
      "given": 5510,
      "deviled": 5511,
      "##ppers": 5512,
      "burnt": 5513,
      "quesadilla": 5514,
      "doesnt": 5515,
      "philadelphia": 5516,
      "produce": 5517,
      "##ellent": 5518,
      "##iful": 5519,
      "stur": 5520,
      "blond": 5521,
      "lose": 5522,
      "louis": 5523,
      "testing": 5524,
      "##inis": 5525,
      "husk": 5526,
      "favourite": 5527,
      "southwestern": 5528,
      "grade": 5529,
      "pen": 5530,
      "donuts": 5531,
      "normal": 5532,
      "sundried": 5533,
      "##ler": 5534,
      "gras": 5535,
      "selt": 5536,
      "mus": 5537,
      "vietnam": 5538,
      "range": 5539,
      "##lin": 5540,
      "slash": 5541,
      "hidden": 5542,
      "39": 5543,
      "seltzer": 5544,
      "sol": 5545,
      "##ico": 5546,
      "seaweed": 5547,
      "moon": 5548,
      "2g": 5549,
      "persim": 5550,
      "timer": 5551,
      "crystal": 5552,
      "belgian": 5553,
      "persimmon": 5554,
      "kaff": 5555,
      "miss": 5556,
      "##inness": 5557,
      "ms": 5558,
      "reheated": 5559,
      "pig": 5560,
      "dredging": 5561,
      "farfalle": 5562,
      "baile": 5563,
      "##held": 5564,
      "smoothing": 5565,
      "mad": 5566,
      "handheld": 5567,
      "devein": 5568,
      "cornflakes": 5569,
      "purchased": 5570,
      "vietnamese": 5571,
      "kaffir": 5572,
      "##zle": 5573,
      "##ucing": 5574,
      "haric": 5575,
      "ly": 5576,
      "filo": 5577,
      "roots": 5578,
      "cab": 5579,
      "hen": 5580,
      "tum": 5581,
      "mind": 5582,
      "##eribs": 5583,
      "gaz": 5584,
      "spareribs": 5585,
      "mary": 5586,
      "joh": 5587,
      "lasagne": 5588,
      "mason": 5589,
      "breaded": 5590,
      "##ense": 5591,
      "caper": 5592,
      "ways": 5593,
      "increments": 5594,
      "octop": 5595,
      "##anas": 5596,
      "##iri": 5597,
      "##pacho": 5598,
      "waiting": 5599,
      "mould": 5600,
      "11x7": 5601,
      "grates": 5602,
      "bud": 5603,
      "tots": 5604,
      "burners": 5605,
      "fleur": 5606,
      "quantity": 5607,
      "##lb": 5608,
      "extend": 5609,
      "hollandaise": 5610,
      "240": 5611,
      "gazpacho": 5612,
      "mil": 5613,
      "##10": 5614,
      "beautiful": 5615,
      "ass": 5616,
      "##over": 5617,
      "spooning": 5618,
      "packaged": 5619,
      "##nay": 5620,
      "##hind": 5621,
      "1g": 5622,
      "##whe": 5623,
      "sole": 5624,
      "breading": 5625,
      "freezes": 5626,
      "envelopes": 5627,
      "##inch": 5628,
      "lipton": 5629,
      "##dew": 5630,
      "gray": 5631,
      "##urri": 5632,
      "tz": 5633,
      "##bsp": 5634,
      "octopus": 5635,
      "##press": 5636,
      "##andel": 5637,
      "peeling": 5638,
      "42": 5639,
      "dehyd": 5640,
      "excellent": 5641,
      "shave": 5642,
      "frosted": 5643,
      "clement": 5644,
      "proport": 5645,
      "trick": 5646,
      "amazing": 5647,
      "##tr": 5648,
      "grey": 5649,
      "dab": 5650,
      "chipot": 5651,
      "scaled": 5652,
      "honeydew": 5653,
      "macaroons": 5654,
      "ra": 5655,
      "southwest": 5656,
      "suff": 5657,
      "strings": 5658,
      "game": 5659,
      "paella": 5660,
      "essent": 5661,
      "runs": 5662,
      "disa": 5663,
      "shaping": 5664,
      "doughnut": 5665,
      "cornish": 5666,
      "consomme": 5667,
      "##ox": 5668,
      "##easoned": 5669,
      "outd": 5670,
      "briskly": 5671,
      "disapp": 5672,
      "direction": 5673,
      "terr": 5674,
      "##lis": 5675,
      "##ep": 5676,
      "##br": 5677,
      "campbell": 5678,
      "hock": 5679,
      "bare": 5680,
      "##atz": 5681,
      "collect": 5682,
      "eyeball": 5683,
      "outdoor": 5684,
      "war": 5685,
      "strogano": 5686,
      "chipotles": 5687,
      "##x3": 5688,
      "300u00b0": 5689,
      "treats": 5690,
      "##uting": 5691,
      "believe": 5692,
      "manche": 5693,
      "world": 5694,
      "115u00b0": 5695,
      "scorching": 5696,
      "frisee": 5697,
      "manchego": 5698,
      "wilts": 5699,
      "adjusting": 5700,
      "##lower": 5701,
      "allows": 5702,
      "courget": 5703,
      "challah": 5704,
      "brat": 5705,
      "##ades": 5706,
      "exper": 5707,
      "took": 5708,
      "mugs": 5709,
      "mung": 5710,
      "chimichurri": 5711,
      "stroganoff": 5712,
      "sealable": 5713,
      "twists": 5714,
      "croissants": 5715,
      "sweeter": 5716,
      "liters": 5717,
      "chex": 5718,
      "dan": 5719,
      "saltine": 5720,
      "tests": 5721,
      "pimentos": 5722,
      "fajita": 5723,
      "matter": 5724,
      "sunda": 5725,
      "guinness": 5726,
      "105": 5727,
      "bleu": 5728,
      "hr": 5729,
      "liner": 5730,
      "achieved": 5731,
      "grit": 5732,
      "others": 5733,
      "##itation": 5734,
      "glace": 5735,
      "bringing": 5736,
      "crais": 5737,
      "##asse": 5738,
      "measured": 5739,
      "carmel": 5740,
      "zi": 5741,
      "##ados": 5742,
      "massage": 5743,
      "moment": 5744,
      "twenty": 5745,
      "flavours": 5746,
      "safflower": 5747,
      "prune": 5748,
      "du": 5749,
      "unseasoned": 5750,
      "silken": 5751,
      "##house": 5752,
      "##eather": 5753,
      "fingerling": 5754,
      "saving": 5755,
      "presentation": 5756,
      "##liced": 5757,
      "confit": 5758,
      "##heim": 5759,
      "dressed": 5760,
      "wisk": 5761,
      "behind": 5762,
      "3g": 5763,
      "sangr": 5764,
      "##vre": 5765,
      "##itan": 5766,
      "uses": 5767,
      "periodically": 5768,
      "soupy": 5769,
      "seams": 5770,
      "jus": 5771,
      "sumac": 5772,
      "##ki": 5773,
      "jim": 5774,
      "tid": 5775,
      "lastly": 5776,
      "curly": 5777,
      "auberg": 5778,
      "petite": 5779,
      "indicated": 5780,
      "aubergine": 5781,
      "bic": 5782,
      "##rel": 5783,
      "youll": 5784,
      "popsicle": 5785,
      "bibb": 5786,
      "rainbow": 5787,
      "##pie": 5788,
      "yes": 5789,
      "blossoms": 5790,
      "golf": 5791,
      "scr": 5792,
      "frypan": 5793,
      "watching": 5794,
      "subsides": 5795,
      "whey": 5796,
      "magic": 5797,
      "canner": 5798,
      "##ific": 5799,
      "##board": 5800,
      "higher": 5801,
      "market": 5802,
      "aunt": 5803,
      "nam": 5804,
      "dra": 5805,
      "pouch": 5806,
      "cow": 5807,
      "curds": 5808,
      "carn": 5809,
      "tapped": 5810,
      "##atziki": 5811,
      "mixes": 5812,
      "scalded": 5813,
      "##eade": 5814,
      "reducing": 5815,
      "ana": 5816,
      "group": 5817,
      "nuggets": 5818,
      "storing": 5819,
      "##imeter": 5820,
      "copy": 5821,
      "##line": 5822,
      "decoratively": 5823,
      "kirsch": 5824,
      "max": 5825,
      "imitation": 5826,
      "untill": 5827,
      "##tens": 5828,
      "chanter": 5829,
      "dashi": 5830,
      "terrine": 5831,
      "tzatziki": 5832,
      "idea": 5833,
      "marble": 5834,
      "wip": 5835,
      "flam": 5836,
      "##achos": 5837,
      "butterflied": 5838,
      "2c": 5839,
      "sounds": 5840,
      "exactly": 5841,
      "feet": 5842,
      "anaheim": 5843,
      "lol": 5844,
      "changes": 5845,
      "flex": 5846,
      "aren": 5847,
      "roy": 5848,
      "homog": 5849,
      "sauv": 5850,
      "ce": 5851,
      "bakes": 5852,
      "sturdy": 5853,
      "lowfat": 5854,
      "snick": 5855,
      "ann": 5856,
      "flound": 5857,
      "##ict": 5858,
      "curl": 5859,
      "calcium": 5860,
      "items": 5861,
      "flounder": 5862,
      "nutr": 5863,
      "lemony": 5864,
      "shrink": 5865,
      "handled": 5866,
      "surfaces": 5867,
      "drap": 5868,
      "pinching": 5869,
      "scraper": 5870,
      "microwavable": 5871,
      "dom": 5872,
      "46": 5873,
      "awes": 5874,
      "nachos": 5875,
      "220": 5876,
      "##icc": 5877,
      "aj": 5878,
      "hint": 5879,
      "##tip": 5880,
      "enamel": 5881,
      "nest": 5882,
      "pum": 5883,
      "sauvignon": 5884,
      "nine": 5885,
      "oele": 5886,
      "##dded": 5887,
      "pinot": 5888,
      "bod": 5889,
      "tamales": 5890,
      "nutrition": 5891,
      "design": 5892,
      "hadd": 5893,
      "oelek": 5894,
      "chee": 5895,
      "##space": 5896,
      "limeade": 5897,
      "hy": 5898,
      "x1": 5899,
      "ultimate": 5900,
      "kumqu": 5901,
      "fondant": 5902,
      "jer": 5903,
      "ole": 5904,
      "shaken": 5905,
      "birds": 5906,
      "craisins": 5907,
      "hocks": 5908,
      "##cut": 5909,
      "wear": 5910,
      "sangria": 5911,
      "pulsing": 5912,
      "stewing": 5913,
      "butterfly": 5914,
      "rubbing": 5915,
      "headspace": 5916,
      "coming": 5917,
      "pinwhe": 5918,
      "lic": 5919,
      "##atel": 5920,
      "forth": 5921,
      "barbeque": 5922,
      "ge": 5923,
      "spa": 5924,
      "spic": 5925,
      "defl": 5926,
      "broiling": 5927,
      "oreos": 5928,
      "heats": 5929,
      "roaster": 5930,
      "##ridge": 5931,
      "granita": 5932,
      "burg": 5933,
      "gingersnap": 5934,
      "##pr": 5935,
      "breadsticks": 5936,
      "tried": 5937,
      "harina": 5938,
      "frang": 5939,
      "##zech": 5940,
      "##ickel": 5941,
      "sultanas": 5942,
      "highball": 5943,
      "arbol": 5944,
      "ash": 5945,
      "scalloped": 5946,
      "##ucks": 5947,
      "splatter": 5948,
      "cotta": 5949,
      "##atine": 5950,
      "saucy": 5951,
      "tell": 5952,
      "hardened": 5953,
      "peak": 5954,
      "bisque": 5955,
      "haddock": 5956,
      "##cri": 5957,
      "watery": 5958,
      "199": 5959,
      "larg": 5960,
      "discs": 5961,
      "blo": 5962,
      "##tl": 5963,
      "secret": 5964,
      "4g": 5965,
      "panna": 5966,
      "galette": 5967,
      "##iew": 5968,
      "twel": 5969,
      "curdle": 5970,
      "supreme": 5971,
      "tidb": 5972,
      "awesome": 5973,
      "cuban": 5974,
      "theyre": 5975,
      "diffic": 5976,
      "proportions": 5977,
      "##ibbean": 5978,
      "hass": 5979,
      "##lot": 5980,
      "alternative": 5981,
      "giving": 5982,
      "##saturated": 5983,
      "eighths": 5984,
      "##vest": 5985,
      "fillings": 5986,
      "caribbean": 5987,
      "ease": 5988,
      "roqu": 5989,
      "200u00b0c": 5990,
      "pulses": 5991,
      "##ona": 5992,
      "haricots": 5993,
      "yam": 5994,
      "means": 5995,
      "assembling": 5996,
      "pots": 5997,
      "fift": 5998,
      "neuf": 5999,
      "ruby": 6000,
      "bratwurst": 6001,
      "poly": 6002,
      "spooned": 6003,
      "twelve": 6004,
      "foot": 6005,
      "lawry": 6006,
      "calls": 6007,
      "37": 6008,
      "##gi": 6009,
      "surpri": 6010,
      "coti": 6011,
      "foaming": 6012,
      "kisses": 6013,
      "sardines": 6014,
      "paneer": 6015,
      "##aic": 6016,
      "##mins": 6017,
      "licor": 6018,
      "verts": 6019,
      "nacho": 6020,
      "chocolates": 6021,
      "throughly": 6022,
      "shouldn": 6023,
      "160c": 6024,
      "turk": 6025,
      "suffici": 6026,
      "za": 6027,
      "##cco": 6028,
      "##grain": 6029,
      "##othing": 6030,
      "expand": 6031,
      "spaced": 6032,
      "shut": 6033,
      "tidbits": 6034,
      "whiz": 6035,
      "resid": 6036,
      "willi": 6037,
      "cotija": 6038,
      "##nel": 6039,
      "live": 6040,
      "dor": 6041,
      "list": 6042,
      "ricer": 6043,
      "neufch": 6044,
      "tint": 6045,
      "calz": 6046,
      "jamaic": 6047,
      "bundles": 6048,
      "broccolini": 6049,
      "##ni": 6050,
      "blistered": 6051,
      "skillets": 6052,
      "russian": 6053,
      "montr": 6054,
      "##icial": 6055,
      "cole": 6056,
      "says": 6057,
      "desicc": 6058,
      "##ipan": 6059,
      "shears": 6060,
      "custards": 6061,
      "included": 6062,
      "##iders": 6063,
      "insp": 6064,
      "beverage": 6065,
      "desiccated": 6066,
      "##leans": 6067,
      "chardon": 6068,
      "condiments": 6069,
      "hoag": 6070,
      "sits": 6071,
      "turkish": 6072,
      "mole": 6073,
      "poured": 6074,
      "ep": 6075,
      "alone": 6076,
      "spear": 6077,
      "2nd": 6078,
      "tucking": 6079,
      "dispos": 6080,
      "precooked": 6081,
      "tree": 6082,
      "lik": 6083,
      "entirely": 6084,
      "ni": 6085,
      "orleans": 6086,
      "beetroot": 6087,
      "strudel": 6088,
      "##imal": 6089,
      "contr": 6090,
      "croquettes": 6091,
      "obtain": 6092,
      "flexible": 6093,
      "parboil": 6094,
      "5oz": 6095,
      "##imin": 6096,
      "fal": 6097,
      "absol": 6098,
      "crown": 6099,
      "descri": 6100,
      "indent": 6101,
      "6oz": 6102,
      "sizzles": 6103,
      "accordingly": 6104,
      "tir": 6105,
      "##ilian": 6106,
      "rutabaga": 6107,
      "agar": 6108,
      "containing": 6109,
      "700": 6110,
      "poblanos": 6111,
      "matchstick": 6112,
      "##pern": 6113,
      "neufchatel": 6114,
      "deeply": 6115,
      "artif": 6116,
      "vents": 6117,
      "##aho": 6118,
      "premium": 6119,
      "##aster": 6120,
      "szech": 6121,
      "##etti": 6122,
      "text": 6123,
      "snug": 6124,
      "chardonnay": 6125,
      "springy": 6126,
      "thanks": 6127,
      "pumpern": 6128,
      "blog": 6129,
      "content": 6130,
      "poll": 6131,
      "polish": 6132,
      "pierog": 6133,
      "gift": 6134,
      "##ience": 6135,
      "chevre": 6136,
      "meet": 6137,
      "soyb": 6138,
      "separating": 6139,
      "having": 6140,
      "louisiana": 6141,
      "##where": 6142,
      "burgund": 6143,
      "musc": 6144,
      "betty": 6145,
      "cracks": 6146,
      "perfor": 6147,
      "tubes": 6148,
      "pub": 6149,
      "difficult": 6150,
      "shortcake": 6151,
      "lengthways": 6152,
      "essential": 6153,
      "pepperoncini": 6154,
      "harvest": 6155,
      "idaho": 6156,
      "nothing": 6157,
      "lighten": 6158,
      "extrem": 6159,
      "capac": 6160,
      "sugared": 6161,
      "aka": 6162,
      "##eli": 6163,
      "everyone": 6164,
      "claws": 6165,
      "chic": 6166,
      "baller": 6167,
      "wrapping": 6168,
      "gala": 6169,
      "##edish": 6170,
      "joes": 6171,
      "##itely": 6172,
      "crisped": 6173,
      "guava": 6174,
      "husked": 6175,
      "segment": 6176,
      "rocket": 6177,
      "baguettes": 6178,
      "earth": 6179,
      "carc": 6180,
      "cous": 6181,
      "suggestions": 6182,
      "jale": 6183,
      "child": 6184,
      "shrimps": 6185,
      "dil": 6186,
      "falls": 6187,
      "##ena": 6188,
      "softer": 6189,
      "tbsps": 6190,
      "burgundy": 6191,
      "##ex": 6192,
      "cutlet": 6193,
      "##efort": 6194,
      "thats": 6195,
      "lining": 6196,
      "marzipan": 6197,
      "##oya": 6198,
      "est": 6199,
      "extremely": 6200,
      "capacity": 6201,
      "##erate": 6202,
      "##arbon": 6203,
      "pumpernickel": 6204,
      "##hi": 6205,
      "##mol": 6206,
      "suggestion": 6207,
      "disposable": 6208,
      "dirt": 6209,
      "force": 6210,
      "##ostura": 6211,
      "roquefort": 6212,
      "ign": 6213,
      "##etida": 6214,
      "brulee": 6215,
      "latkes": 6216,
      "##crow": 6217,
      "approximate": 6218,
      "burned": 6219,
      "##arbonate": 6220,
      "clust": 6221,
      "savoy": 6222,
      "hol": 6223,
      "jellyroll": 6224,
      "angostura": 6225,
      "refridgerate": 6226,
      "why": 6227,
      "201": 6228,
      "celeri": 6229,
      "maldon": 6230,
      "licorice": 6231,
      "obl": 6232,
      "juic": 6233,
      "progr": 6234,
      "44": 6235,
      "han": 6236,
      "##sides": 6237,
      "##initely": 6238,
      "##isc": 6239,
      "elimin": 6240,
      "purpos": 6241,
      "popping": 6242,
      "##pher": 6243,
      "##ject": 6244,
      "bonnet": 6245,
      "bicarbonate": 6246,
      "peper": 6247,
      "plank": 6248,
      "streaks": 6249,
      "mit": 6250,
      "pourable": 6251,
      "squish": 6252,
      "celeriac": 6253,
      "highest": 6254,
      "karo": 6255,
      "drape": 6256,
      "##ints": 6257,
      "slather": 6258,
      "porridge": 6259,
      "blitz": 6260,
      "morels": 6261,
      "artificial": 6262,
      "local": 6263,
      "gremol": 6264,
      "5cm": 6265,
      "suc": 6266,
      "slicer": 6267,
      "asaf": 6268,
      "bull": 6269,
      "malted": 6270,
      "swedish": 6271,
      "fore": 6272,
      "consider": 6273,
      "##amis": 6274,
      "##elles": 6275,
      "trader": 6276,
      "##chiette": 6277,
      "1oz": 6278,
      "matcha": 6279,
      "4oz": 6280,
      "toasty": 6281,
      "typ": 6282,
      "##estive": 6283,
      "john": 6284,
      "hav": 6285,
      "tartlets": 6286,
      "##nese": 6287,
      "demer": 6288,
      "torch": 6289,
      "arranging": 6290,
      "##chopped": 6291,
      "hu": 6292,
      "cupfuls": 6293,
      "mign": 6294,
      "jamb": 6295,
      "kais": 6296,
      "rer": 6297,
      "##chu": 6298,
      "remoulade": 6299,
      "assembled": 6300,
      "purposes": 6301,
      "bes": 6302,
      "commer": 6303,
      "##esta": 6304,
      "spider": 6305,
      "##acker": 6306,
      "unwra": 6307,
      "filtered": 6308,
      "bolognese": 6309,
      "##tails": 6310,
      "gelatine": 6311,
      "papp": 6312,
      "nectarine": 6313,
      "prose": 6314,
      "royal": 6315,
      "##roz": 6316,
      "popo": 6317,
      "microwaveable": 6318,
      "sweeten": 6319,
      "row": 6320,
      "dense": 6321,
      "famous": 6322,
      "bands": 6323,
      "##ancy": 6324,
      "deflate": 6325,
      "countertop": 6326,
      "##abet": 6327,
      "800": 6328,
      "overwork": 6329,
      "naturally": 6330,
      "interior": 6331,
      "oblong": 6332,
      "jalep": 6333,
      "overcrow": 6334,
      "life": 6335,
      "toasting": 6336,
      "cavities": 6337,
      "jamaican": 6338,
      "tiramis": 6339,
      "darken": 6340,
      "typically": 6341,
      "shank": 6342,
      "prosecco": 6343,
      "danish": 6344,
      "##acci": 6345,
      "glue": 6346,
      "mexico": 6347,
      "##va": 6348,
      "clou": 6349,
      "normally": 6350,
      "##giving": 6351,
      "##era": 6352,
      "sizes": 6353,
      "carameliz": 6354,
      "reroll": 6355,
      "##nic": 6356,
      "##cat": 6357,
      "choc": 6358,
      "cones": 6359,
      "boat": 6360,
      "incorpor": 6361,
      "silky": 6362,
      "##fruit": 6363,
      "##dro": 6364,
      "donut": 6365,
      "happy": 6366,
      "gremolata": 6367,
      "coulis": 6368,
      "knob": 6369,
      "fiesta": 6370,
      "demerara": 6371,
      "6g": 6372,
      "155": 6373,
      "hit": 6374,
      "##anted": 6375,
      "teaspoonful": 6376,
      "types": 6377,
      "##entine": 6378,
      "thir": 6379,
      "##ros": 6380,
      "heaven": 6381,
      "knock": 6382,
      "baggie": 6383,
      "orec": 6384,
      "kaiser": 6385,
      "shepher": 6386,
      "arm": 6387,
      "hoagie": 6388,
      "sauted": 6389,
      "tiramisu": 6390,
      "stays": 6391,
      "vin": 6392,
      "boo": 6393,
      "guide": 6394,
      "empanadas": 6395,
      "##ugel": 6396,
      "tagli": 6397,
      "##ives": 6398,
      "zipper": 6399,
      "limonc": 6400,
      "fajitas": 6401,
      "solution": 6402,
      "linguini": 6403,
      "absolut": 6404,
      "prawn": 6405,
      "orecchiette": 6406,
      "ensuring": 6407,
      "rev": 6408,
      "komb": 6409,
      "calv": 6410,
      "ideally": 6411,
      "##onst": 6412,
      "ropes": 6413,
      "caution": 6414,
      "##alaya": 6415,
      "known": 6416,
      "##lli": 6417,
      "stars": 6418,
      "contact": 6419,
      "cresc": 6420,
      "likely": 6421,
      "7g": 6422,
      "manufacturers": 6423,
      "kombu": 6424,
      "trimming": 6425,
      "tilting": 6426,
      "delicate": 6427,
      "arils": 6428,
      "limoncello": 6429,
      "calvados": 6430,
      "handling": 6431,
      "post": 6432,
      "##ires": 6433,
      "##wards": 6434,
      "100g": 6435,
      "garlicky": 6436,
      "rinds": 6437,
      "340": 6438,
      "kash": 6439,
      "lac": 6440,
      "fix": 6441,
      "##back": 6442,
      "leafy": 6443,
      "portug": 6444,
      "doubles": 6445,
      "sliders": 6446,
      "##ppo": 6447,
      "scent": 6448,
      "drafts": 6449,
      "grating": 6450,
      "discol": 6451,
      "##overs": 6452,
      "##water": 6453,
      "145u00b0": 6454,
      "farms": 6455,
      "quince": 6456,
      "tempered": 6457,
      "##oon": 6458,
      "##ernet": 6459,
      "broad": 6460,
      "jambalaya": 6461,
      "##mings": 6462,
      "##izer": 6463,
      "largest": 6464,
      "crescents": 6465,
      "##ras": 6466,
      "tech": 6467,
      "begun": 6468,
      "##ital": 6469,
      "worked": 6470,
      "coins": 6471,
      "brussel": 6472,
      "roe": 6473,
      "due": 6474,
      "unwrapped": 6475,
      "56": 6476,
      "trimmings": 6477,
      "sign": 6478,
      "smart": 6479,
      "ragout": 6480,
      "saran": 6481,
      "spaet": 6482,
      "bir": 6483,
      "##eases": 6484,
      "pla": 6485,
      "cheeseburger": 6486,
      "copycat": 6487,
      "tenderness": 6488,
      "##bly": 6489,
      "fact": 6490,
      "##unk": 6491,
      "##ported": 6492,
      "gingersnaps": 6493,
      "##redd": 6494,
      "stil": 6495,
      "emulsify": 6496,
      "bad": 6497,
      "var": 6498,
      "medley": 6499,
      "inspired": 6500,
      "easter": 6501,
      "##pa": 6502,
      "spam": 6503,
      "bosc": 6504,
      "washing": 6505,
      "shimmers": 6506,
      "crowding": 6507,
      "piqu": 6508,
      "early": 6509,
      "##ux": 6510,
      "handy": 6511,
      "montreal": 6512,
      "buc": 6513,
      "##cted": 6514,
      "smother": 6515,
      "joint": 6516,
      "play": 6517,
      "sich": 6518,
      "chang": 6519,
      "completed": 6520,
      "bind": 6521,
      "turnovers": 6522,
      "reason": 6523,
      "##oumi": 6524,
      "prim": 6525,
      "sitting": 6526,
      "kef": 6527,
      "strokes": 6528,
      "##acky": 6529,
      "croissant": 6530,
      "##clun": 6531,
      "135": 6532,
      "curacao": 6533,
      "skimmed": 6534,
      "fab": 6535,
      "canes": 6536,
      "puddings": 6537,
      "hope": 6538,
      "nicoise": 6539,
      "authen": 6540,
      "thirty": 6541,
      "wind": 6542,
      "##iffy": 6543,
      "strata": 6544,
      "require": 6545,
      "marzano": 6546,
      "falaf": 6547,
      "##lished": 6548,
      "overbeat": 6549,
      "giant": 6550,
      "cases": 6551,
      "persian": 6552,
      "dietary": 6553,
      "mesclun": 6554,
      "brunch": 6555,
      "certain": 6556,
      "##apes": 6557,
      "bloom": 6558,
      "stops": 6559,
      "micropl": 6560,
      "##oori": 6561,
      "ripened": 6562,
      "spaetzle": 6563,
      "##ardi": 6564,
      "bra": 6565,
      "appetizers": 6566,
      "seitan": 6567,
      "hem": 6568,
      "minest": 6569,
      "friendly": 6570,
      "cores": 6571,
      "simmered": 6572,
      "carcass": 6573,
      "##ref": 6574,
      "commercial": 6575,
      "cell": 6576,
      "franks": 6577,
      "carbs": 6578,
      "prom": 6579,
      "master": 6580,
      "thous": 6581,
      "papers": 6582,
      "pool": 6583,
      "mignon": 6584,
      "heath": 6585,
      "pointed": 6586,
      "thousand": 6587,
      "mandolin": 6588,
      "bloody": 6589,
      "crocker": 6590,
      "crimini": 6591,
      "sichuan": 6592,
      "authentic": 6593,
      "cornich": 6594,
      "foie": 6595,
      "bri": 6596,
      "##cel": 6597,
      "##inz": 6598,
      "fettuc": 6599,
      "thickening": 6600,
      "patting": 6601,
      "##viche": 6602,
      "menthe": 6603,
      "##tegr": 6604,
      "ries": 6605,
      "shellfish": 6606,
      "satay": 6607,
      "##acles": 6608,
      "165u00b0": 6609,
      "tand": 6610,
      "compact": 6611,
      "directs": 6612,
      "##place": 6613,
      "fuji": 6614,
      "enameled": 6615,
      "aleppo": 6616,
      "messy": 6617,
      "smoother": 6618,
      "coarsley": 6619,
      "sic": 6620,
      "tablespoonful": 6621,
      "attract": 6622,
      "tagine": 6623,
      "58": 6624,
      "lolli": 6625,
      "shortcakes": 6626,
      "grinding": 6627,
      "hear": 6628,
      "gallons": 6629,
      "ti": 6630,
      "uncle": 6631,
      "shakes": 6632,
      "rehyd": 6633,
      "pulver": 6634,
      "floret": 6635,
      "jiffy": 6636,
      "slee": 6637,
      "##do": 6638,
      "##ining": 6639,
      "heaped": 6640,
      "##rey": 6641,
      "##ucky": 6642,
      "stilton": 6643,
      "##rone": 6644,
      "funnel": 6645,
      "##jool": 6646,
      "sectioned": 6647,
      "sold": 6648,
      "##inny": 6649,
      "riesling": 6650,
      "cutout": 6651,
      "smoothly": 6652,
      "v8": 6653,
      "##lier": 6654,
      "imported": 6655,
      "crouton": 6656,
      "mincemeat": 6657,
      "gochu": 6658,
      "##pre": 6659,
      "flameproof": 6660,
      "alla": 6661,
      "snugly": 6662,
      "stacks": 6663,
      "discolor": 6664,
      "gy": 6665,
      "##ghum": 6666,
      "hotter": 6667,
      "lag": 6668,
      "gelato": 6669,
      "sorghum": 6670,
      "43": 6671,
      "##the": 6672,
      "##book": 6673,
      "ask": 6674,
      "galang": 6675,
      "##uese": 6676,
      "eastern": 6677,
      "##ement": 6678,
      "113": 6679,
      "collards": 6680,
      "oleo": 6681,
      "2oz": 6682,
      "ener": 6683,
      "microwa": 6684,
      "portuguese": 6685,
      "beefst": 6686,
      "woody": 6687,
      "##ase": 6688,
      "sundae": 6689,
      "##ned": 6690,
      "##eric": 6691,
      "littl": 6692,
      "medjool": 6693,
      "##ani": 6694,
      "preb": 6695,
      "##inkle": 6696,
      "guaj": 6697,
      "phe": 6698,
      "difference": 6699,
      "##ppa": 6700,
      "##x12": 6701,
      "sunny": 6702,
      "particular": 6703,
      "det": 6704,
      "gizz": 6705,
      "hall": 6706,
      "##lett": 6707,
      "cabernet": 6708,
      "goya": 6709,
      "accent": 6710,
      "vess": 6711,
      "trace": 6712,
      "buds": 6713,
      "fifteen": 6714,
      "mc": 6715,
      "##hal": 6716,
      "##ups": 6717,
      "bart": 6718,
      "##osing": 6719,
      "tentacles": 6720,
      "preserve": 6721,
      "szechuan": 6722,
      "littlene": 6723,
      "##ucker": 6724,
      "scooped": 6725,
      "replac": 6726,
      "eliminate": 6727,
      "1cm": 6728,
      "##ude": 6729,
      "fant": 6730,
      "sprite": 6731,
      "pheas": 6732,
      "udon": 6733,
      "##atelle": 6734,
      "lollipo": 6735,
      "fut": 6736,
      "wanted": 6737,
      "##umn": 6738,
      "##elloni": 6739,
      "monk": 6740,
      "drinking": 6741,
      "sant": 6742,
      "smells": 6743,
      "4c": 6744,
      "thanksgiving": 6745,
      "clusters": 6746,
      "shots": 6747,
      "sof": 6748,
      "salata": 6749,
      "published": 6750,
      "rump": 6751,
      "incorporating": 6752,
      "pina": 6753,
      "sorrel": 6754,
      "flames": 6755,
      "170u00b0": 6756,
      "impro": 6757,
      "clinging": 6758,
      "chamb": 6759,
      "cheesecakes": 6760,
      "marie": 6761,
      "fermented": 6762,
      "beefsteak": 6763,
      "hardens": 6764,
      "capp": 6765,
      "souffles": 6766,
      "kumquats": 6767,
      "41": 6768,
      "hemp": 6769,
      "chunked": 6770,
      "veins": 6771,
      "lagasse": 6772,
      "ea": 6773,
      "20cm": 6774,
      "##use": 6775,
      "trust": 6776,
      "whether": 6777,
      "minestrone": 6778,
      "##arti": 6779,
      "ghir": 6780,
      "mount": 6781,
      "minus": 6782,
      "##pari": 6783,
      "pern": 6784,
      "tumeric": 6785,
      "chambord": 6786,
      "aff": 6787,
      "thru": 6788,
      "scum": 6789,
      "##ndon": 6790,
      "1st": 6791,
      "##ardelle": 6792,
      "usual": 6793,
      "heinz": 6794,
      "relatively": 6795,
      "tagliatelle": 6796,
      "skinny": 6797,
      "paralle": 6798,
      "tapping": 6799,
      "2cm": 6800,
      "ais": 6801,
      "bench": 6802,
      "shiitakes": 6803,
      "proceeding": 6804,
      "tandoori": 6805,
      "78": 6806,
      "braz": 6807,
      "pleat": 6808,
      "bruised": 6809,
      "oh": 6810,
      "8x4": 6811,
      "microplane": 6812,
      "tongue": 6813,
      "future": 6814,
      "william": 6815,
      "galangal": 6816,
      "dropped": 6817,
      "blondies": 6818,
      "surprise": 6819,
      "u00b0": 6820,
      "endives": 6821,
      "mayonaise": 6822,
      "combo": 6823,
      "falafel": 6824,
      "##jang": 6825,
      "warming": 6826,
      "earlier": 6827,
      "multigrain": 6828,
      "techni": 6829,
      "mock": 6830,
      "tel": 6831,
      "##achet": 6832,
      "cheap": 6833,
      "tony": 6834,
      "parallel": 6835,
      "notice": 6836,
      "lager": 6837,
      "hum": 6838,
      "tacky": 6839,
      "##bble": 6840,
      "forest": 6841,
      "crazy": 6842,
      "anywhere": 6843,
      "tonight": 6844,
      "appropri": 6845,
      "squirt": 6846,
      "london": 6847,
      "bear": 6848,
      "##rito": 6849,
      "##urized": 6850,
      "ceviche": 6851,
      "said": 6852,
      "reconst": 6853,
      "ignite": 6854,
      "##olic": 6855,
      "fits": 6856,
      "fritos": 6857,
      "##ilage": 6858,
      "##fully": 6859,
      "stronger": 6860,
      "particles": 6861,
      "##pled": 6862,
      "havarti": 6863,
      "carbonated": 6864,
      "##lava": 6865,
      "##itake": 6866,
      "resistance": 6867,
      "achi": 6868,
      "poor": 6869,
      "striped": 6870,
      "parfaits": 6871,
      "pappardelle": 6872,
      "ratat": 6873,
      "grouper": 6874,
      "whit": 6875,
      "ros": 6876,
      "uniformly": 6877,
      "textured": 6878,
      "reconstit": 6879,
      "jess": 6880,
      "disappear": 6881,
      "pinwheels": 6882,
      "slushy": 6883,
      "chopper": 6884,
      "soap": 6885,
      "absorbs": 6886,
      "picnic": 6887,
      "view": 6888,
      "ii": 6889,
      "guess": 6890,
      "devour": 6891,
      "##owing": 6892,
      "shor": 6893,
      "nibs": 6894,
      "ratatouille": 6895,
      "a1": 6896,
      "baklava": 6897,
      "dol": 6898,
      "200g": 6899,
      "cotton": 6900,
      "##agle": 6901,
      "firmer": 6902,
      "carne": 6903,
      "immer": 6904,
      "inverted": 6905,
      "tostadas": 6906,
      "pasilla": 6907,
      "frangel": 6908,
      "guajillo": 6909,
      "##yn": 6910,
      "achiote": 6911,
      "spi": 6912,
      "amaretti": 6913,
      "sunday": 6914,
      "milksh": 6915,
      "crushing": 6916,
      "campari": 6917,
      "ratio": 6918,
      "overcrowd": 6919,
      "aisle": 6920,
      "brushed": 6921,
      "maximum": 6922,
      "afric": 6923,
      "sab": 6924,
      "cardboard": 6925,
      "64": 6926,
      "8g": 6927,
      "shoot": 6928,
      "eagle": 6929,
      "serv": 6930,
      "##ulate": 6931,
      "##ifted": 6932,
      "tamale": 6933,
      "##date": 6934,
      "##hl": 6935,
      "backbone": 6936,
      "prevents": 6937,
      "raita": 6938,
      "colada": 6939,
      "prime": 6940,
      "autumn": 6941,
      "185": 6942,
      "vessel": 6943,
      "##igr": 6944,
      "continually": 6945,
      "immerse": 6946,
      "picks": 6947,
      "supper": 6948,
      "pasty": 6949,
      "goodness": 6950,
      "chol": 6951,
      "highly": 6952,
      "##oxing": 6953,
      "##sel": 6954,
      "isra": 6955,
      "loaded": 6956,
      "##nadd": 6957,
      "dropping": 6958,
      "clementine": 6959,
      "gher": 6960,
      "tomatoe": 6961,
      "loses": 6962,
      "littleneck": 6963,
      "merlot": 6964,
      "##minutes": 6965,
      "swans": 6966,
      "haven": 6967,
      "##ris": 6968,
      "##quite": 6969,
      "flavorings": 6970,
      "mellow": 6971,
      "wi": 6972,
      "shaoxing": 6973,
      "element": 6974,
      "faced": 6975,
      "his": 6976,
      "hib": 6977,
      "##olo": 6978,
      "##uccino": 6979,
      "emulsion": 6980,
      "1c": 6981,
      "72": 6982,
      "macker": 6983,
      "##into": 6984,
      "alt": 6985,
      "acidity": 6986,
      "ajar": 6987,
      "3t": 6988,
      "boc": 6989,
      "hull": 6990,
      "mama": 6991,
      "pun": 6992,
      "preheating": 6993,
      "generally": 6994,
      "joy": 6995,
      "spraying": 6996,
      "##x8": 6997,
      "pepperidge": 6998,
      "##ibly": 6999,
      "amin": 7000,
      "mother": 7001,
      "beur": 7002,
      "##jack": 7003,
      "reese": 7004,
      "3r": 7005,
      "bartlett": 7006,
      "deter": 7007,
      "shir": 7008,
      "tempura": 7009,
      "tt": 7010,
      "##iso": 7011,
      "fatty": 7012,
      "coloured": 7013,
      "bullion": 7014,
      "dandel": 7015,
      "lazy": 7016,
      "parmesean": 7017,
      "accompany": 7018,
      "sofrito": 7019,
      "##poons": 7020,
      "spicier": 7021,
      "brined": 7022,
      "reheating": 7023,
      "decide": 7024,
      "dean": 7025,
      "worches": 7026,
      "appearance": 7027,
      "##sin": 7028,
      "whil": 7029,
      "expl": 7030,
      "saucer": 7031,
      "mesquite": 7032,
      "kill": 7033,
      "##uces": 7034,
      "##oman": 7035,
      "horizon": 7036,
      "israeli": 7037,
      "stones": 7038,
      "blocks": 7039,
      "dirty": 7040,
      "partly": 7041,
      "230": 7042,
      "concentrated": 7043,
      "appetit": 7044,
      "mackerel": 7045,
      "beurre": 7046,
      "tartlet": 7047,
      "timing": 7048,
      "friends": 7049,
      "cornichons": 7050,
      "pernod": 7051,
      "exam": 7052,
      "cassis": 7053,
      "baileys": 7054,
      "##esco": 7055,
      "spill": 7056,
      "frangelico": 7057,
      "##ption": 7058,
      "pats": 7059,
      "neatly": 7060,
      "goul": 7061,
      "##zan": 7062,
      "##foil": 7063,
      "cafe": 7064,
      "fudgy": 7065,
      "dampened": 7066,
      "lyche": 7067,
      "liquef": 7068,
      "happen": 7069,
      "marked": 7070,
      "sanding": 7071,
      "cartilage": 7072,
      "specified": 7073,
      "cost": 7074,
      "cookbook": 7075,
      "ray": 7076,
      "##ica": 7077,
      "tsps": 7078,
      "##rabi": 7079,
      "geor": 7080,
      "##di": 7081,
      "clay": 7082,
      "tangerines": 7083,
      "scented": 7084,
      "1lb": 7085,
      "saltines": 7086,
      "foams": 7087,
      "##ichever": 7088,
      "curdled": 7089,
      "jimmy": 7090,
      "santa": 7091,
      "goulash": 7092,
      "marrow": 7093,
      "##vent": 7094,
      "avac": 7095,
      "lettuces": 7096,
      "previous": 7097,
      "north": 7098,
      "##itions": 7099,
      "inserting": 7100,
      "happens": 7101,
      "success": 7102,
      "ooz": 7103,
      "##enster": 7104,
      "whichever": 7105,
      "muenster": 7106,
      "mm": 7107,
      "conc": 7108,
      "pimenton": 7109,
      "dunk": 7110,
      "gills": 7111,
      "shops": 7112,
      "lidded": 7113,
      "various": 7114,
      "huge": 7115,
      "unsifted": 7116,
      "mussel": 7117,
      "slabs": 7118,
      "whisky": 7119,
      "tomatos": 7120,
      "glazing": 7121,
      "absorbent": 7122,
      "##selves": 7123,
      "pumpkins": 7124,
      "tinfoil": 7125,
      "##atini": 7126,
      "ramps": 7127,
      "monkfish": 7128,
      "vac": 7129,
      "definitely": 7130,
      "cra": 7131,
      "flap": 7132,
      "shorter": 7133,
      "##gen": 7134,
      "handles": 7135,
      "contains": 7136,
      "shepherd": 7137,
      "##enos": 7138,
      "50g": 7139,
      "eg": 7140,
      "wells": 7141,
      "wiped": 7142,
      "1993": 7143,
      "elder": 7144,
      "mounding": 7145,
      "moj": 7146,
      "##rees": 7147,
      "demi": 7148,
      "jessie": 7149,
      "ill": 7150,
      "zin": 7151,
      "##bac": 7152,
      "cha": 7153,
      "peppered": 7154,
      "share": 7155,
      "drips": 7156,
      "4t": 7157,
      "increasing": 7158,
      "bodies": 7159,
      "##ister": 7160,
      "boull": 7161,
      "chance": 7162,
      "returns": 7163,
      "previously": 7164,
      "morrow": 7165,
      "paleo": 7166,
      "unused": 7167,
      "powders": 7168,
      "horizontal": 7169,
      "gem": 7170,
      "sicilian": 7171,
      "herring": 7172,
      "closest": 7173,
      "gm": 7174,
      "fresno": 7175,
      "##za": 7176,
      "bey": 7177,
      "##hes": 7178,
      "pared": 7179,
      "220c": 7180,
      "courgettes": 7181,
      "halloumi": 7182,
      "marbled": 7183,
      "depress": 7184,
      "mam": 7185,
      "##owel": 7186,
      "180u00b0": 7187,
      "ol": 7188,
      "##illy": 7189,
      "diabet": 7190,
      "tupper": 7191,
      "##iscus": 7192,
      "din": 7193,
      "##ors": 7194,
      "chay": 7195,
      "##ela": 7196,
      "##ision": 7197,
      "themselves": 7198,
      "whilst": 7199,
      "kh": 7200,
      "decorations": 7201,
      "##zy": 7202,
      "dim": 7203,
      "tends": 7204,
      "hibiscus": 7205,
      "##pples": 7206,
      "areas": 7207,
      "raised": 7208,
      "swanson": 7209,
      "##eed": 7210,
      "bailey": 7211,
      "fizz": 7212,
      "switching": 7213,
      "consistancy": 7214,
      "roasts": 7215,
      "##ruits": 7216,
      "trail": 7217,
      "carob": 7218,
      "strength": 7219,
      "hurry": 7220,
      "corriander": 7221,
      "##uca": 7222,
      "slashes": 7223,
      "##vir": 7224,
      "saf": 7225,
      "3oz": 7226,
      "##bling": 7227,
      "compan": 7228,
      "coupe": 7229,
      "becoming": 7230,
      "daily": 7231,
      "##terior": 7232,
      "saved": 7233,
      "nose": 7234,
      "stacked": 7235,
      "##bi": 7236,
      "succ": 7237,
      "height": 7238,
      "boullion": 7239,
      "rand": 7240,
      "taken": 7241,
      "exterior": 7242,
      "kohl": 7243,
      "beyond": 7244,
      "boursin": 7245,
      "perforations": 7246,
      "dandelion": 7247,
      "coca": 7248,
      "homogen": 7249,
      "tirsch": 7250,
      "pav": 7251,
      "samo": 7252,
      "hamburgers": 7253,
      "dilute": 7254,
      "##son": 7255,
      "tool": 7256,
      "365": 7257,
      "came": 7258,
      "##ardelli": 7259,
      "capon": 7260,
      "control": 7261,
      "refrigeration": 7262,
      "##hane": 7263,
      "suitable": 7264,
      "54": 7265,
      "meatless": 7266,
      "0mg": 7267,
      "jiggly": 7268,
      "example": 7269,
      "pon": 7270,
      "shock": 7271,
      "greaseproof": 7272,
      "##ibr": 7273,
      "personally": 7274,
      "1tsp": 7275,
      "hyd": 7276,
      "##att": 7277,
      "consum": 7278,
      "condiment": 7279,
      "created": 7280,
      "disp": 7281,
      "relax": 7282,
      "citron": 7283,
      "experiment": 7284,
      "laying": 7285,
      "includes": 7286,
      "kugel": 7287,
      "intens": 7288,
      "softly": 7289,
      "alfal": 7290,
      "risk": 7291,
      "imp": 7292,
      "nuoc": 7293,
      "hallow": 7294,
      "##ampi": 7295,
      "online": 7296,
      "##lest": 7297,
      "ahi": 7298,
      "hines": 7299,
      "blacken": 7300,
      "proble": 7301,
      "zests": 7302,
      "applewood": 7303,
      "tupperware": 7304,
      "die": 7305,
      "jalepeno": 7306,
      "separates": 7307,
      "alfalfa": 7308,
      "roo": 7309,
      "##wash": 7310,
      "##olds": 7311,
      "vinegars": 7312,
      "zu": 7313,
      "verb": 7314,
      "ingrediants": 7315,
      "grid": 7316,
      "##ulous": 7317,
      "lifted": 7318,
      "mints": 7319,
      "##olved": 7320,
      "spun": 7321,
      "140u00b0": 7322,
      "flavoured": 7323,
      "african": 7324,
      "unop": 7325,
      "oam": 7326,
      "##haps": 7327,
      "##edar": 7328,
      "packing": 7329,
      "altit": 7330,
      "unopened": 7331,
      "youve": 7332,
      "protect": 7333,
      "collins": 7334,
      "carbonara": 7335,
      "##efish": 7336,
      "scampi": 7337,
      "crustless": 7338,
      "knuck": 7339,
      "cornflake": 7340,
      "milkshake": 7341,
      "mojo": 7342,
      "ir": 7343,
      "stab": 7344,
      "shade": 7345,
      "smucker": 7346,
      "##ulf": 7347,
      "blt": 7348,
      "likes": 7349,
      "##ophane": 7350,
      "watchers": 7351,
      "x13": 7352,
      "festive": 7353,
      "pt": 7354,
      "cappuccino": 7355,
      "oamc": 7356,
      "57": 7357,
      "cannelloni": 7358,
      "pheasant": 7359,
      "une": 7360,
      "event": 7361,
      "ghirardelli": 7362,
      "bragg": 7363,
      "perhaps": 7364,
      "224": 7365,
      "##isco": 7366,
      "duncan": 7367,
      "verbena": 7368,
      "##ifully": 7369,
      "##yl": 7370,
      "bend": 7371,
      "substituting": 7372,
      "starchy": 7373,
      "diabetic": 7374,
      "kat": 7375,
      "monoun": 7376,
      "cellophane": 7377,
      "##rese": 7378,
      "speck": 7379,
      "carmelized": 7380,
      "tep": 7381,
      "swirls": 7382,
      "recommendation": 7383,
      "##oule": 7384,
      "bonito": 7385,
      "beautifully": 7386,
      "##tan": 7387,
      "##uum": 7388,
      "chanterelles": 7389,
      "mountain": 7390,
      "dam": 7391,
      "indoor": 7392,
      "scratch": 7393,
      "overfl": 7394,
      "macerate": 7395,
      "##laise": 7396,
      "shaggy": 7397,
      "anglaise": 7398,
      "truss": 7399,
      "farmer": 7400,
      "wheels": 7401,
      "##embert": 7402,
      "dehydrated": 7403,
      "technique": 7404,
      "kohlrabi": 7405,
      "stretching": 7406,
      "coke": 7407,
      "cure": 7408,
      "lardons": 7409,
      "tonic": 7410,
      "camembert": 7411,
      "##cil": 7412,
      "ovens": 7413,
      "##inium": 7414,
      "madras": 7415,
      "##brown": 7416,
      "280": 7417,
      "##arded": 7418,
      "present": 7419,
      "latte": 7420,
      "##cture": 7421,
      "reyn": 7422,
      "refrigerating": 7423,
      "unref": 7424,
      "pantry": 7425,
      "litre": 7426,
      "appropriate": 7427,
      "chap": 7428,
      "suet": 7429,
      "register": 7430,
      "hollowed": 7431,
      "overhanging": 7432,
      "aminos": 7433,
      "floats": 7434,
      "absolutely": 7435,
      "x9": 7436,
      "creamier": 7437,
      "feeling": 7438,
      "##ppi": 7439,
      "snaps": 7440,
      "file": 7441,
      "##ett": 7442,
      "crud": 7443,
      "##aca": 7444,
      "aluminium": 7445,
      "men": 7446,
      "breaks": 7447,
      "##anth": 7448,
      "concentric": 7449,
      "age": 7450,
      "##aver": 7451,
      "deb": 7452,
      "accommo": 7453,
      "calzones": 7454,
      "blow": 7455,
      "msg": 7456,
      "zinf": 7457,
      "desserts": 7458,
      "skewered": 7459,
      "##aa": 7460,
      "##ths": 7461,
      "burr": 7462,
      "fantastic": 7463,
      "##band": 7464,
      "colorful": 7465,
      "vein": 7466,
      "walla": 7467,
      "courgette": 7468,
      "9g": 7469,
      "aust": 7470,
      "jiggle": 7471,
      "doritos": 7472,
      "##zes": 7473,
      "bella": 7474,
      "##ville": 7475,
      "overly": 7476,
      "rinsing": 7477,
      "##hel": 7478,
      "scone": 7479,
      "basically": 7480,
      "west": 7481,
      "##cer": 7482,
      "cedar": 7483,
      "##ingly": 7484,
      "shitake": 7485,
      "berto": 7486,
      "halloween": 7487,
      "measurements": 7488,
      "grapefruits": 7489,
      "gumdro": 7490,
      "oxtails": 7491,
      "milder": 7492,
      "##ripe": 7493,
      "picture": 7494,
      "flatbreads": 7495,
      "kefir": 7496,
      "resistant": 7497,
      "vacuum": 7498,
      "mut": 7499,
      "straws": 7500,
      "decad": 7501,
      "encl": 7502,
      "allowed": 7503,
      "pac": 7504,
      "accompanied": 7505,
      "worchestershire": 7506,
      "##oug": 7507,
      "##oila": 7508,
      "burns": 7509,
      "requires": 7510,
      "accommodate": 7511,
      "poked": 7512,
      "snickers": 7513,
      "uneven": 7514,
      "##ddy": 7515,
      "papery": 7516,
      "florentine": 7517,
      "##intosh": 7518,
      "##otic": 7519,
      "quantities": 7520,
      "prebaked": 7521,
      "zinfandel": 7522,
      "85u00b0": 7523,
      "shoy": 7524,
      "criss": 7525,
      "field": 7526,
      "juicer": 7527,
      "smothered": 7528,
      "cin": 7529,
      "kir": 7530,
      "##atto": 7531,
      "scooping": 7532,
      "500u00b0": 7533,
      "kinds": 7534,
      "##uxe": 7535,
      "##rami": 7536,
      "tepid": 7537,
      "shoyu": 7538,
      "searing": 7539,
      "tadd": 7540,
      "lav": 7541,
      "##eros": 7542,
      "pastrami": 7543,
      "flattening": 7544,
      "positions": 7545,
      "powered": 7546,
      "##sas": 7547,
      "##uv": 7548,
      "##rad": 7549,
      "centimeter": 7550,
      "floating": 7551,
      "crissc": 7552,
      "martha": 7553,
      "catal": 7554,
      "cigar": 7555,
      "##lbs": 7556,
      "alas": 7557,
      "mangos": 7558,
      "crisscross": 7559,
      "atar": 7560,
      "boats": 7561,
      "##zos": 7562,
      "varieties": 7563,
      "##ouleh": 7564,
      "er": 7565,
      "noir": 7566,
      "snicker": 7567,
      "lau": 7568,
      "voila": 7569,
      "deluxe": 7570,
      "sufficient": 7571,
      "##gry": 7572,
      "cant": 7573,
      "popovers": 7574,
      "gummy": 7575,
      "stripes": 7576,
      "bertolli": 7577,
      "cord": 7578,
      "marry": 7579,
      "random": 7580,
      "##ott": 7581,
      "clover": 7582,
      "measures": 7583,
      "tass": 7584,
      "manual": 7585,
      "chanterelle": 7586,
      "reynolds": 7587,
      "##like": 7588,
      "fettucine": 7589,
      "caprese": 7590,
      "lollipop": 7591,
      "hanging": 7592,
      "nn": 7593,
      "bacardi": 7594,
      "pasteurized": 7595,
      "chopsticks": 7596,
      "##zon": 7597,
      "##30": 7598,
      "brun": 7599,
      "250g": 7600,
      "residual": 7601,
      "burrata": 7602,
      "diluted": 7603,
      "potatos": 7604,
      "substitutes": 7605,
      "madele": 7606,
      "paula": 7607,
      "pollo": 7608,
      "nat": 7609,
      "cheer": 7610,
      "inverting": 7611,
      "scored": 7612,
      "250f": 7613,
      "320": 7614,
      "pkgs": 7615,
      "vertical": 7616,
      "fabulous": 7617,
      "550": 7618,
      "none": 7619,
      "index": 7620,
      "68": 7621,
      "milky": 7622,
      "##box": 7623,
      "kabocha": 7624,
      "comfortably": 7625,
      "mojito": 7626,
      "hatch": 7627,
      "spare": 7628,
      "grana": 7629,
      "husband": 7630,
      "wreath": 7631,
      "clementines": 7632,
      "honeyc": 7633,
      "##uitto": 7634,
      "blind": 7635,
      "chicory": 7636,
      "gochujang": 7637,
      "monounsaturated": 7638,
      "ducks": 7639,
      "##isf": 7640,
      "##ilo": 7641,
      "##pol": 7642,
      "mitts": 7643,
      "dome": 7644,
      "##esli": 7645,
      "resulting": 7646,
      "musco": 7647,
      "soybeans": 7648,
      "perimeter": 7649,
      "zucchinis": 7650,
      "aniseed": 7651,
      "amaranth": 7652,
      "major": 7653,
      "roulade": 7654,
      "tv": 7655,
      "heel": 7656,
      "dampen": 7657,
      "company": 7658,
      "pb": 7659,
      "##eb": 7660,
      "muesli": 7661,
      "crumbling": 7662,
      "schn": 7663,
      "supermarket": 7664,
      "mou": 7665,
      "passata": 7666,
      "matzoh": 7667,
      "bush": 7668,
      "ladleful": 7669,
      "##hesive": 7670,
      "900": 7671,
      "##antly": 7672,
      "##agn": 7673,
      "##erella": 7674,
      "rested": 7675,
      "fool": 7676,
      "boy": 7677,
      "dee": 7678,
      "gf": 7679,
      "##eaten": 7680,
      "imag": 7681,
      "skimmer": 7682,
      "roti": 7683,
      "multip": 7684,
      "##bar": 7685,
      "##atore": 7686,
      "##using": 7687,
      "darkened": 7688,
      "eur": 7689,
      "##lea": 7690,
      "brats": 7691,
      "snacks": 7692,
      "described": 7693,
      "unt": 7694,
      "antip": 7695,
      "padano": 7696,
      "dital": 7697,
      "magg": 7698,
      "activ": 7699,
      "bakery": 7700,
      "dries": 7701,
      "moulds": 7702,
      "antipast": 7703,
      "nig": 7704,
      "##15": 7705,
      "##asted": 7706,
      "reub": 7707,
      "##pare": 7708,
      "indentations": 7709,
      "satisf": 7710,
      "cli": 7711,
      "##done": 7712,
      "##atelli": 7713,
      "parma": 7714,
      "girl": 7715,
      "sachet": 7716,
      "overcooked": 7717,
      "##fry": 7718,
      "##atar": 7719,
      "chou": 7720,
      "quicker": 7721,
      "tabb": 7722,
      "expose": 7723,
      "comple": 7724,
      "marc": 7725,
      "ing": 7726,
      "whoo": 7727,
      "disappears": 7728,
      "monkey": 7729,
      "250u00b0f": 7730,
      "9x12": 7731,
      "stacking": 7732,
      "sazon": 7733,
      "pract": 7734,
      "210": 7735,
      "road": 7736,
      "richer": 7737,
      "widthwise": 7738,
      "##avera": 7739,
      "ur": 7740,
      "##boy": 7741,
      "integr": 7742,
      "flush": 7743,
      "leak": 7744,
      "seasonal": 7745,
      "aromatics": 7746,
      "eleg": 7747,
      "attractive": 7748,
      "t2": 7749,
      "##jou": 7750,
      "init": 7751,
      "sandy": 7752,
      "kiwif": 7753,
      "primavera": 7754,
      "cult": 7755,
      "parsely": 7756,
      "basin": 7757,
      "cutouts": 7758,
      "knot": 7759,
      "fleshed": 7760,
      "##rozen": 7761,
      "name": 7762,
      "inn": 7763,
      "crackle": 7764,
      "250u00b0": 7765,
      "distur": 7766,
      "milligr": 7767,
      "blanco": 7768,
      "mention": 7769,
      "polyun": 7770,
      "pavlo": 7771,
      "gaps": 7772,
      "##utions": 7773,
      "pare": 7774,
      "mop": 7775,
      "stands": 7776,
      "##sen": 7777,
      "turtle": 7778,
      "stripped": 7779,
      "200u00b0f": 7780,
      "160u00b0f": 7781,
      "##oetida": 7782,
      "peek": 7783,
      "##assium": 7784,
      "koft": 7785,
      "accompaniments": 7786,
      "polyunsaturated": 7787,
      "##tles": 7788,
      "cohesive": 7789,
      "miner": 7790,
      "passover": 7791,
      "flowerets": 7792,
      "piquillo": 7793,
      "milligrams": 7794,
      "fist": 7795,
      "98": 7796,
      "conver": 7797,
      "lightened": 7798,
      "homogene": 7799,
      "##pole": 7800,
      "potassium": 7801,
      "streak": 7802,
      "holder": 7803,
      "altitude": 7804,
      "years": 7805,
      "##ilt": 7806,
      "##imet": 7807,
      "gingered": 7808,
      "earl": 7809,
      "165u00b0f": 7810,
      "heavenly": 7811,
      "##ealed": 7812,
      "##pect": 7813,
      "related": 7814,
      "confetti": 7815,
      "arth": 7816,
      "9x5x3": 7817,
      "##rie": 7818,
      "flash": 7819,
      "outsides": 7820,
      "##ya": 7821,
      "debe": 7822,
      "shortly": 7823,
      "beach": 7824,
      "service": 7825,
      "bain": 7826,
      "dippers": 7827,
      "scale": 7828,
      "creative": 7829,
      "provide": 7830,
      "bucatini": 7831,
      "##deg": 7832,
      "##isan": 7833,
      "##ensive": 7834,
      "twisting": 7835,
      "##bacore": 7836,
      "homogeneous": 7837,
      "##rod": 7838,
      "albacore": 7839,
      "traditionally": 7840,
      "children": 7841,
      "3rd": 7842,
      "bus": 7843,
      "##ered": 7844,
      "shredding": 7845,
      "refreshing": 7846,
      "incredi": 7847,
      "bened": 7848,
      "unto": 7849,
      "##izing": 7850,
      "colouring": 7851,
      "##vado": 7852,
      "stiffly": 7853,
      "nests": 7854,
      "##dor": 7855,
      "shri": 7856,
      "anjou": 7857,
      "30g": 7858,
      "proscuitto": 7859,
      "##oles": 7860,
      "##ali": 7861,
      "rob": 7862,
      "popsicles": 7863,
      "unrefined": 7864,
      "tabbouleh": 7865,
      "utens": 7866,
      "hue": 7867,
      "son": 7868,
      "pepp": 7869,
      "##assionally": 7870,
      "compress": 7871,
      "preferable": 7872,
      "##iles": 7873,
      "cannoli": 7874,
      "hardboil": 7875,
      "job": 7876,
      "rocky": 7877,
      "annatto": 7878,
      "replacer": 7879,
      "9oz": 7880,
      "ish": 7881,
      "forced": 7882,
      "load": 7883,
      "##tend": 7884,
      "fingertip": 7885,
      "95": 7886,
      "kool": 7887,
      "asafoetida": 7888,
      "arthur": 7889,
      "mats": 7890,
      "pc": 7891,
      "wider": 7892,
      "packs": 7893,
      "##20": 7894,
      "plating": 7895,
      "tearing": 7896,
      "ht": 7897,
      "adher": 7898,
      "hungry": 7899,
      "persimmons": 7900,
      "grown": 7901,
      "creams": 7902,
      "releases": 7903,
      "150g": 7904,
      "branches": 7905,
      "ditalini": 7906,
      "##ifies": 7907,
      "emment": 7908,
      "ponzu": 7909,
      "rell": 7910,
      "buttering": 7911,
      "england": 7912,
      "stringy": 7913,
      "hashbrown": 7914,
      "##fur": 7915,
      "youd": 7916,
      "dad": 7917,
      "lie": 7918,
      "sip": 7919,
      "sens": 7920,
      "patch": 7921,
      "cracking": 7922,
      "splashes": 7923,
      "extending": 7924,
      "hing": 7925,
      "mozarella": 7926,
      "cheez": 7927,
      "program": 7928,
      "kiwifruit": 7929,
      "benedict": 7930,
      "clea": 7931,
      "thins": 7932,
      "toweling": 7933,
      "ideas": 7934,
      "rnadd": 7935,
      "dull": 7936,
      "redi": 7937,
      "curve": 7938,
      "hanout": 7939,
      "##lick": 7940,
      "##gu": 7941,
      "leban": 7942,
      "##otes": 7943,
      "fran": 7944,
      "##clair": 7945,
      "bocc": 7946,
      "waxy": 7947,
      "sufficiently": 7948,
      "decadent": 7949,
      "choke": 7950,
      "shown": 7951,
      "200f": 7952,
      "pearls": 7953,
      "milled": 7954,
      "eclair": 7955,
      "tinned": 7956,
      "##butter": 7957,
      "##aged": 7958,
      "crackling": 7959,
      "muscovado": 7960,
      "bakers": 7961,
      "oily": 7962,
      "artisan": 7963,
      "varies": 7964,
      "hardboiled": 7965,
      "fn": 7966,
      "cleaning": 7967,
      "straining": 7968,
      "distributing": 7969,
      "humid": 7970,
      "##virgin": 7971,
      "minted": 7972,
      "thinned": 7973,
      "extravirgin": 7974,
      "bologna": 7975,
      "sing": 7976,
      "##ayan": 7977,
      "stamp": 7978,
      "grig": 7979,
      "wel": 7980,
      "whenever": 7981,
      "chur": 7982,
      "135u00b0": 7983,
      "chayote": 7984,
      "fed": 7985,
      "ston": 7986,
      "melba": 7987,
      "##fire": 7988,
      "##alt": 7989,
      "problem": 7990,
      "jagg": 7991,
      "pk": 7992,
      "closer": 7993,
      "##reeze": 7994,
      "refridgerator": 7995,
      "mission": 7996,
      "##dood": 7997,
      "##erve": 7998,
      "shy": 7999,
      "drinks": 8000,
      "avacado": 8001,
      "##rich": 8002,
      "smokey": 8003,
      "bases": 8004,
      "##istle": 8005,
      "len": 8006,
      "##tose": 8007,
      "conne": 8008,
      "refer": 8009,
      "fruitcake": 8010,
      "sle": 8011,
      "cleaver": 8012,
      "##dish": 8013,
      "rests": 8014,
      "mores": 8015,
      "thumbpr": 8016,
      "kraut": 8017,
      "ou": 8018,
      "tik": 8019,
      "cara": 8020,
      "folds": 8021,
      "ingred": 8022,
      "drumstick": 8023,
      "snickerdood": 8024,
      "wholemeal": 8025,
      "purchase": 8026,
      "tad": 8027,
      "lind": 8028,
      "lost": 8029,
      "passed": 8030,
      "elegant": 8031,
      "lan": 8032,
      "daiqu": 8033,
      "eventually": 8034,
      "##uco": 8035,
      "exch": 8036,
      "dribble": 8037,
      "roughy": 8038,
      "progress": 8039,
      "seep": 8040,
      "##azote": 8041,
      "160f": 8042,
      "tostada": 8043,
      "particularly": 8044,
      "whoopie": 8045,
      "jew": 8046,
      "sweetcorn": 8047,
      "baskets": 8048,
      "chimney": 8049,
      "reconstituted": 8050,
      "gherkins": 8051,
      "elderflower": 8052,
      "nigella": 8053,
      "isnt": 8054,
      "fol": 8055,
      "offer": 8056,
      "macarons": 8057,
      "cacci": 8058,
      "antipasto": 8059,
      "feather": 8060,
      "##ulas": 8061,
      "carolina": 8062,
      "true": 8063,
      "epazote": 8064,
      "energy": 8065,
      "atl": 8066,
      "gob": 8067,
      "reuben": 8068,
      "inten": 8069,
      "state": 8070,
      "##edding": 8071,
      "roman": 8072,
      "oxtail": 8073,
      "aji": 8074,
      "##geon": 8075,
      "deen": 8076,
      "porter": 8077,
      "420": 8078,
      "potatoe": 8079,
      "200u00b0": 8080,
      "tripled": 8081,
      "190u00b0c": 8082,
      "macaroon": 8083,
      "pierogi": 8084,
      "romesco": 8085,
      "slider": 8086,
      "sweetbread": 8087,
      "##cious": 8088,
      "smal": 8089,
      "crispness": 8090,
      "kasha": 8091,
      "debearded": 8092,
      "intense": 8093,
      "debon": 8094,
      "goal": 8095,
      "general": 8096,
      "500f": 8097,
      "sack": 8098,
      "##bu": 8099,
      "bee": 8100,
      "bliss": 8101,
      "seasons": 8102,
      "undercooked": 8103,
      "islands": 8104,
      "residue": 8105,
      "pierogies": 8106,
      "##redded": 8107,
      "viewer": 8108,
      "ina": 8109,
      "##erated": 8110,
      "nonal": 8111,
      "bucket": 8112,
      "cheerios": 8113,
      "lebanese": 8114,
      "nib": 8115,
      "wring": 8116,
      "tenderizer": 8117,
      "common": 8118,
      "pineapples": 8119,
      "500u00b0f": 8120,
      "passionfruit": 8121,
      "maid": 8122,
      "##inous": 8123,
      "##acy": 8124,
      "torta": 8125,
      "grigio": 8126,
      "mod": 8127,
      "sifter": 8128,
      "mozzerella": 8129,
      "seperated": 8130,
      "muslin": 8131,
      "maggi": 8132,
      "vide": 8133,
      "wea": 8134,
      "##reen": 8135,
      "##aka": 8136,
      "god": 8137,
      "vital": 8138,
      "sleeve": 8139,
      "dots": 8140,
      "tef": 8141,
      "##adella": 8142,
      "sterilize": 8143,
      "alcoholic": 8144,
      "saw": 8145,
      "rosewater": 8146,
      "pace": 8147,
      "##raid": 8148,
      "removal": 8149,
      "brands": 8150,
      "mau": 8151,
      "##rown": 8152,
      "thinning": 8153,
      "gro": 8154,
      "rhod": 8155,
      "jiggles": 8156,
      "soybean": 8157,
      "bocconcini": 8158,
      "himal": 8159,
      "##cooking": 8160,
      "substitutions": 8161,
      "##iva": 8162,
      "inv": 8163,
      "mortadella": 8164,
      "8x8x2": 8165,
      "consistent": 8166,
      "geno": 8167,
      "##reg": 8168,
      "coil": 8169,
      "cham": 8170,
      "unit": 8171,
      "pleas": 8172,
      "##ribute": 8173,
      "afraid": 8174,
      "cowboy": 8175,
      "estim": 8176,
      "mmm": 8177,
      "##pans": 8178,
      "anyway": 8179,
      "creates": 8180,
      "faren": 8181,
      "##ucca": 8182,
      "pak": 8183,
      "uni": 8184,
      "roller": 8185,
      "400g": 8186,
      "solidify": 8187,
      "jellied": 8188,
      "##kk": 8189,
      "shuck": 8190,
      "figure": 8191,
      "spout": 8192,
      "depression": 8193,
      "latin": 8194,
      "wedding": 8195,
      "smok": 8196,
      "morel": 8197,
      "casseroles": 8198,
      "##icle": 8199,
      "cardamoms": 8200,
      "fresca": 8201,
      "beneath": 8202,
      "carry": 8203,
      "lev": 8204,
      "dur": 8205,
      "##gent": 8206,
      "120u00b0": 8207,
      "bulgar": 8208,
      "ghost": 8209,
      "lavash": 8210,
      "hill": 8211,
      "pand": 8212,
      "##otash": 8213,
      "claf": 8214,
      "guar": 8215,
      "info": 8216,
      "##bake": 8217,
      "tarte": 8218,
      "##rif": 8219,
      "celtic": 8220,
      "possibly": 8221,
      "helpful": 8222,
      "harder": 8223,
      "##unken": 8224,
      "homogenous": 8225,
      "html": 8226,
      "kel": 8227,
      "mak": 8228,
      "1tbsp": 8229,
      "clafout": 8230,
      "maria": 8231,
      "fettuccini": 8232,
      "steadily": 8233,
      "sundaes": 8234,
      "succotash": 8235,
      "writ": 8236,
      "jud": 8237,
      "beefy": 8238,
      "europ": 8239,
      "es": 8240,
      "urad": 8241,
      "##ga": 8242,
      "##rox": 8243,
      "warning": 8244,
      "66": 8245,
      "qts": 8246,
      "##itter": 8247,
      "saltiness": 8248,
      "planks": 8249,
      "spaghettini": 8250,
      "somewhere": 8251,
      "rehydrated": 8252,
      "determine": 8253,
      "gut": 8254,
      "kent": 8255,
      "wouldn": 8256,
      "asafetida": 8257,
      "bother": 8258,
      "wond": 8259,
      "blint": 8260,
      "walls": 8261,
      "deboned": 8262,
      "47": 8263,
      "penn": 8264,
      "rush": 8265,
      "##olor": 8266,
      "convent": 8267,
      "glug": 8268,
      "accur": 8269,
      "packaging": 8270,
      "hat": 8271,
      "ovals": 8272,
      "fri": 8273,
      "spaces": 8274,
      "##remove": 8275,
      "european": 8276,
      "flourless": 8277,
      "##avas": 8278,
      "savour": 8279,
      "changing": 8280,
      "birth": 8281,
      "bladed": 8282,
      "cacciatore": 8283,
      "himalayan": 8284,
      "aim": 8285,
      "bomb": 8286,
      "canchopped": 8287,
      "amb": 8288,
      "tripe": 8289,
      "collected": 8290,
      "calzone": 8291,
      "mintues": 8292,
      "##ency": 8293,
      "patient": 8294,
      "chopstick": 8295,
      "kilo": 8296,
      "##anci": 8297,
      "00": 8298,
      "##kan": 8299,
      "##oma": 8300,
      "500g": 8301,
      "redist": 8302,
      "wondra": 8303,
      "10x1": 8304,
      "boys": 8305,
      "bison": 8306,
      "jerky": 8307,
      "brought": 8308,
      "spit": 8309,
      "##serve": 8310,
      "dehydr": 8311,
      "catalina": 8312,
      "grav": 8313,
      "poppyseed": 8314,
      "birthday": 8315,
      "##fill": 8316,
      "##tered": 8317,
      "16oz": 8318,
      "airy": 8319,
      "farenheit": 8320,
      "##ped": 8321,
      "pee": 8322,
      "undersides": 8323,
      "sprouted": 8324,
      "churning": 8325,
      "pay": 8326,
      "backs": 8327,
      "semif": 8328,
      "##x11": 8329,
      "auber": 8330,
      "converted": 8331,
      "oak": 8332,
      "##x4": 8333,
      "sheep": 8334,
      "##estyle": 8335,
      "enok": 8336,
      "smoothies": 8337,
      "triangular": 8338,
      "unbeaten": 8339,
      "shrivel": 8340,
      "##ogs": 8341,
      "margaritas": 8342,
      "##alem": 8343,
      "##oulet": 8344,
      "##ppies": 8345,
      "quin": 8346,
      "##gines": 8347,
      "brandied": 8348,
      "piles": 8349,
      "##frozen": 8350,
      "##verse": 8351,
      "##aper": 8352,
      "fac": 8353,
      "##lion": 8354,
      "parc": 8355,
      "##usalem": 8356,
      "130u00b0": 8357,
      "taro": 8358,
      "securing": 8359,
      "acting": 8360,
      "bodied": 8361,
      "mich": 8362,
      "##hand": 8363,
      "##rian": 8364,
      "frankfur": 8365,
      "cassoulet": 8366,
      "swell": 8367,
      "chach": 8368,
      "fragrance": 8369,
      "caramelizes": 8370,
      "tvp": 8371,
      "mineral": 8372,
      "maui": 8373,
      "bill": 8374,
      "sac": 8375,
      "##edients": 8376,
      "favorites": 8377,
      "pict": 8378,
      "penet": 8379,
      "dav": 8380,
      "##more": 8381,
      "##pic": 8382,
      "##ellos": 8383,
      "cong": 8384,
      "herbal": 8385,
      "avoiding": 8386,
      "bav": 8387,
      "##self": 8388,
      "##easpoon": 8389,
      "cardamon": 8390,
      "moments": 8391,
      "wearing": 8392,
      "boun": 8393,
      "##itzel": 8394,
      "jerusalem": 8395,
      "370": 8396,
      "description": 8397,
      "stickers": 8398,
      "experience": 8399,
      "deal": 8400,
      "toll": 8401,
      "spirals": 8402,
      "bursts": 8403,
      "##imeters": 8404,
      "frag": 8405,
      "pavlova": 8406,
      "##light": 8407,
      "supple": 8408,
      "crispier": 8409,
      "widest": 8410,
      "segmented": 8411,
      "jaggery": 8412,
      "daiquiri": 8413,
      "bom": 8414,
      "##sey": 8415,
      "philly": 8416,
      "##ombine": 8417,
      "dram": 8418,
      "mcintosh": 8419,
      "aubergines": 8420,
      "late": 8421,
      "spatulas": 8422,
      "veined": 8423,
      "susp": 8424,
      "canister": 8425,
      "fromage": 8426,
      "battered": 8427,
      "glutinous": 8428,
      "valve": 8429,
      "pencil": 8430,
      "microwaving": 8431,
      "deeper": 8432,
      "parcels": 8433,
      "parat": 8434,
      "degr": 8435,
      "occassionally": 8436,
      "225g": 8437,
      "sweetbreads": 8438,
      "shiso": 8439,
      "##uchen": 8440,
      "##eye": 8441,
      "crimping": 8442,
      "sultana": 8443,
      "##ashi": 8444,
      "tenderize": 8445,
      "poppers": 8446,
      "mochi": 8447,
      "mode": 8448,
      "entree": 8449,
      "390": 8450,
      "##rg": 8451,
      "whizz": 8452,
      "15g": 8453,
      "optionally": 8454,
      "mustards": 8455,
      "grained": 8456,
      "omitted": 8457,
      "cloud": 8458,
      "##stir": 8459,
      "mudd": 8460,
      "doughy": 8461,
      "object": 8462,
      "##preheat": 8463,
      "living": 8464,
      "150c": 8465,
      "provencal": 8466,
      "warmer": 8467,
      "tiger": 8468,
      "tighten": 8469,
      "shift": 8470,
      "supposed": 8471,
      "carnation": 8472,
      "49": 8473,
      "bing": 8474,
      "hush": 8475,
      "unav": 8476,
      "ridged": 8477,
      "empanada": 8478,
      "lus": 8479,
      "##pour": 8480,
      "anton": 8481,
      "mud": 8482,
      "joints": 8483,
      "pouches": 8484,
      "wrink": 8485,
      "mature": 8486,
      "seas": 8487,
      "##lection": 8488,
      "conventional": 8489,
      "arroz": 8490,
      "imper": 8491,
      "velvety": 8492,
      "caramelised": 8493,
      "kiwis": 8494,
      "hunt": 8495,
      "plumped": 8496,
      "chimichang": 8497,
      "stabil": 8498,
      "overflow": 8499,
      "##bbly": 8500,
      "melty": 8501,
      "monte": 8502,
      "taqu": 8503,
      "muscle": 8504,
      "crudites": 8505,
      "##pow": 8506,
      "culin": 8507,
      "15ml": 8508,
      "overbrown": 8509,
      "obv": 8510,
      "mutton": 8511,
      "##rets": 8512,
      "peppery": 8513,
      "vitamix": 8514,
      "craft": 8515,
      "enoki": 8516,
      "decorator": 8517,
      "napole": 8518,
      "smallest": 8519,
      "unavailable": 8520,
      "##nes": 8521,
      "##shine": 8522,
      "##ram": 8523,
      "aprox": 8524,
      "barb": 8525,
      "myself": 8526,
      "choux": 8527,
      "slender": 8528,
      "moo": 8529,
      "choosing": 8530,
      "##ayon": 8531,
      "mono": 8532,
      "##ington": 8533,
      "gra": 8534,
      "choco": 8535,
      "overs": 8536,
      "##imi": 8537,
      "10g": 8538,
      "gizzards": 8539,
      "icy": 8540,
      "stiring": 8541,
      "bowt": 8542,
      "calab": 8543,
      "cartons": 8544,
      "savoury": 8545,
      "lrg": 8546,
      "rash": 8547,
      "##enuts": 8548,
      "repeating": 8549,
      "adjusted": 8550,
      "parboiled": 8551,
      "fly": 8552,
      "nast": 8553,
      "ant": 8554,
      "breadstick": 8555,
      "25g": 8556,
      "walk": 8557,
      "redistribute": 8558,
      "dar": 8559,
      "##opp": 8560,
      "30ml": 8561,
      "moms": 8562,
      "oj": 8563,
      "##esca": 8564,
      "beign": 8565,
      "citric": 8566,
      "methi": 8567,
      "swirled": 8568,
      "silicon": 8569,
      "scho": 8570,
      "##eau": 8571,
      "kentucky": 8572,
      "93": 8573,
      "##fin": 8574,
      "balm": 8575,
      "promise": 8576,
      "##ences": 8577,
      "spinner": 8578,
      "##ega": 8579,
      "shortcrust": 8580,
      "products": 8581,
      "##riger": 8582,
      "appr": 8583,
      "arranged": 8584,
      "amongst": 8585,
      "compound": 8586,
      "releasing": 8587,
      "##cius": 8588,
      "tasso": 8589,
      "4th": 8590,
      "value": 8591,
      "tikka": 8592,
      "hits": 8593,
      "##atas": 8594,
      "##strap": 8595,
      "##dorf": 8596,
      "average": 8597,
      "mingle": 8598,
      "##rush": 8599,
      "icebox": 8600,
      "fritter": 8601,
      "gyoz": 8602,
      "dehydrator": 8603,
      "tm": 8604,
      "yucca": 8605,
      "##hr": 8606,
      "tob": 8607,
      "12oz": 8608,
      "mache": 8609,
      "homestyle": 8610,
      "farmers": 8611,
      "johnny": 8612,
      "roul": 8613,
      "refined": 8614,
      "unsliced": 8615,
      "112": 8616,
      "cordial": 8617,
      "racha": 8618,
      "##din": 8619,
      "const": 8620,
      "manag": 8621,
      "##amomile": 8622,
      "##atures": 8623,
      "sparingly": 8624,
      "cact": 8625,
      "chute": 8626,
      "letter": 8627,
      "quinces": 8628,
      "tape": 8629,
      "sucan": 8630,
      "carp": 8631,
      "liked": 8632,
      "celcius": 8633,
      "join": 8634,
      "culinary": 8635,
      "aper": 8636,
      "piri": 8637,
      "oiling": 8638,
      "floury": 8639,
      "swish": 8640,
      "pacific": 8641,
      "##vo": 8642,
      "blades": 8643,
      "slim": 8644,
      "diamonds": 8645,
      "semifredd": 8646,
      "fail": 8647,
      "chosen": 8648,
      "shows": 8649,
      "pulverized": 8650,
      "sucanat": 8651,
      "##gl": 8652,
      "##poss": 8653,
      "supp": 8654,
      "roset": 8655,
      "rutabagas": 8656,
      "##ering": 8657,
      "yuzu": 8658,
      "drawn": 8659,
      "pinwheel": 8660,
      "lychee": 8661,
      "school": 8662,
      "mem": 8663,
      "ot": 8664,
      "##mes": 8665,
      "thinn": 8666,
      "blackening": 8667,
      "skor": 8668,
      "campfire": 8669,
      "semifreddo": 8670,
      "fost": 8671,
      "##kka": 8672,
      "chart": 8673,
      "unl": 8674,
      "thought": 8675,
      "##pend": 8676,
      "spiked": 8677,
      "##leaf": 8678,
      "kelp": 8679,
      "cactus": 8680,
      "sieved": 8681,
      "tet": 8682,
      "##towel": 8683,
      "inject": 8684,
      "crme": 8685,
      "develops": 8686,
      "showing": 8687,
      "awhile": 8688,
      "##tm": 8689,
      "peices": 8690,
      "rhodes": 8691,
      "sin": 8692,
      "##bag": 8693,
      "nonpare": 8694,
      "##process": 8695,
      "streaky": 8696,
      "panzan": 8697,
      "##ques": 8698,
      "posole": 8699,
      "cloudy": 8700,
      "horm": 8701,
      "wak": 8702,
      "##ju": 8703,
      "spatter": 8704,
      "blank": 8705,
      "infus": 8706,
      "##regular": 8707,
      "rosettes": 8708,
      "bh": 8709,
      "mulled": 8710,
      "satin": 8711,
      "##got": 8712,
      "##itor": 8713,
      "alto": 8714,
      "potstick": 8715,
      "debone": 8716,
      "pulverize": 8717,
      "braggs": 8718,
      "panzanella": 8719,
      "5f": 8720,
      "sliding": 8721,
      "hammer": 8722,
      "frosty": 8723,
      "castor": 8724,
      "instructed": 8725,
      "schnitzel": 8726,
      "hors": 8727,
      "capsicums": 8728,
      "magaz": 8729,
      "rsc": 8730,
      "##fil": 8731,
      "##ddess": 8732,
      "touches": 8733,
      "goats": 8734,
      "dislo": 8735,
      "grandm": 8736,
      "carnitas": 8737,
      "gen": 8738,
      "##una": 8739,
      "##ibu": 8740,
      "scalopp": 8741,
      "99": 8742,
      "smallish": 8743,
      "roses": 8744,
      "necks": 8745,
      "cleanly": 8746,
      "capellini": 8747,
      "window": 8748,
      "ala": 8749,
      "##anti": 8750,
      "reverse": 8751,
      "##mont": 8752,
      "serranos": 8753,
      "gyoza": 8754,
      "hon": 8755,
      "pill": 8756,
      "##mic": 8757,
      "##car": 8758,
      "cul": 8759,
      "##ention": 8760,
      "shar": 8761,
      "paul": 8762,
      "malibu": 8763,
      "weather": 8764,
      "##apse": 8765,
      "lovers": 8766,
      "underdone": 8767,
      "rigate": 8768,
      "grow": 8769,
      "meals": 8770,
      "palmful": 8771,
      "170u00b0f": 8772,
      "drag": 8773,
      "5fix": 8774,
      "##otos": 8775,
      "##oute": 8776,
      "##ammon": 8777,
      "15oz": 8778,
      "imposs": 8779,
      "tartare": 8780,
      "picc": 8781,
      "kirby": 8782,
      "luscious": 8783,
      "noug": 8784,
      "##sy": 8785,
      "##sso": 8786,
      "corks": 8787,
      "recover": 8788,
      "##igns": 8789,
      "indones": 8790,
      "rnin": 8791,
      "gau": 8792,
      "fort": 8793,
      "cordon": 8794,
      "bunny": 8795,
      "goddess": 8796,
      "seals": 8797,
      "excessive": 8798,
      "brey": 8799,
      "##12": 8800,
      "1000": 8801,
      "acidic": 8802,
      "seen": 8803,
      "liquidy": 8804,
      "compon": 8805,
      "##balls": 8806,
      "liberal": 8807,
      "##ited": 8808,
      "kneed": 8809,
      "bisco": 8810,
      "manis": 8811,
      "paso": 8812,
      "braeb": 8813,
      "braeburn": 8814,
      "dung": 8815,
      "land": 8816,
      "ties": 8817,
      "##oons": 8818,
      "##anges": 8819,
      "fills": 8820,
      "decorated": 8821,
      "##ppe": 8822,
      "smoo": 8823,
      "mexicorn": 8824,
      "stoned": 8825,
      "wakame": 8826,
      "950": 8827,
      "##sed": 8828,
      "metallic": 8829,
      "subside": 8830,
      "brazil": 8831,
      "rachael": 8832,
      "##hell": 8833,
      "bittern": 8834,
      "jalape": 8835,
      "fermentation": 8836,
      "microwaved": 8837,
      "antonis": 8838,
      "cros": 8839,
      "##list": 8840,
      "blu": 8841,
      "garbanzos": 8842,
      "balan": 8843,
      "##qt": 8844,
      "##esse": 8845,
      "exotic": 8846,
      "##range": 8847,
      "waldorf": 8848,
      "kitten": 8849,
      "collapse": 8850,
      "ocean": 8851,
      "gizzard": 8852,
      "mentioned": 8853,
      "bitterness": 8854,
      "vio": 8855,
      "flamb": 8856,
      "shards": 8857,
      "expect": 8858,
      "balloon": 8859,
      "##inois": 8860,
      "napkin": 8861,
      "sabayon": 8862,
      "##test": 8863,
      "##ube": 8864,
      "classico": 8865,
      "affect": 8866,
      "bavarian": 8867,
      "click": 8868,
      "mediums": 8869,
      "170c": 8870,
      "fiddle": 8871,
      "pomegranates": 8872,
      "midway": 8873,
      "popover": 8874,
      "tobasco": 8875,
      "fibr": 8876,
      "todd": 8877,
      "loins": 8878,
      "magazine": 8879,
      "dungeness": 8880,
      "shop": 8881,
      "posted": 8882,
      "roni": 8883,
      "##ert": 8884,
      "##ayas": 8885,
      "pref": 8886,
      "parcel": 8887,
      "attem": 8888,
      "lear": 8889,
      "stoneware": 8890,
      "crostata": 8891,
      "nana": 8892,
      "yuca": 8893,
      "blackstrap": 8894,
      "450g": 8895,
      "##atappi": 8896,
      "pairs": 8897,
      "fibrous": 8898,
      "82": 8899,
      "ja": 8900,
      "frig": 8901,
      "returning": 8902,
      "helping": 8903,
      "indonesian": 8904,
      "##poll": 8905,
      "overheat": 8906,
      "overcooking": 8907,
      "evening": 8908,
      "grahams": 8909,
      "solidified": 8910,
      "##arby": 8911,
      "cavatappi": 8912,
      "chamomile": 8913,
      "abm": 8914,
      "shower": 8915,
      "ate": 8916,
      "355": 8917,
      "peachy": 8918,
      "newsp": 8919,
      "kikk": 8920,
      "achille": 8921,
      "portobellos": 8922,
      "kumquat": 8923,
      "consuming": 8924,
      "irregular": 8925,
      "84": 8926,
      "##iger": 8927,
      "##atile": 8928,
      "knots": 8929,
      "amish": 8930,
      "160u00b0c": 8931,
      "contrast": 8932,
      "beignets": 8933,
      "hormel": 8934,
      "achilleos": 8935,
      "##mar": 8936,
      "##52": 8937,
      "nearby": 8938,
      "##ellogg": 8939,
      "pho": 8940,
      "pralines": 8941,
      "wiping": 8942,
      "armagn": 8943,
      "george": 8944,
      "##van": 8945,
      "##arily": 8946,
      "spearm": 8947,
      "armagnac": 8948,
      "enhan": 8949,
      "impress": 8950,
      "clumping": 8951,
      "foster": 8952,
      "##film": 8953,
      "bang": 8954,
      "bah": 8955,
      "kellogg": 8956,
      "##ddles": 8957,
      "enh": 8958,
      "parmigiana": 8959,
      "strand": 8960,
      "spearmint": 8961,
      "greasy": 8962,
      "##burg": 8963,
      "clingfilm": 8964,
      "mouss": 8965,
      "chachere": 8966,
      "manageable": 8967,
      "##note": 8968,
      "plop": 8969,
      "hashbrowns": 8970,
      "dest": 8971,
      "station": 8972,
      "papayas": 8973,
      "occasional": 8974,
      "nutri": 8975,
      "floor": 8976,
      "brazilian": 8977,
      "52": 8978,
      "##ished": 8979,
      "attention": 8980,
      "fibers": 8981,
      "kittencal": 8982,
      "3cm": 8983,
      "##ias": 8984,
      "flouring": 8985,
      "##lettes": 8986,
      "outward": 8987,
      "pureeing": 8988,
      "ours": 8989,
      "johns": 8990,
      "##crew": 8991,
      "andes": 8992,
      "batons": 8993,
      "pistou": 8994,
      "175c": 8995,
      "pairing": 8996,
      "samosas": 8997,
      "godiva": 8998,
      "##anciale": 8999,
      "12x8": 9000,
      "conch": 9001,
      "meets": 9002,
      "60ml": 9003,
      "guanciale": 9004,
      "twisted": 9005,
      "enhance": 9006,
      "##bert": 9007,
      "finer": 9008,
      "enrich": 9009,
      "guest": 9010,
      "100u00b0": 9011,
      "zuch": 9012,
      "faces": 9013,
      "##elo": 9014,
      "300g": 9015,
      "blanching": 9016,
      "pricked": 9017,
      "sputter": 9018,
      "clings": 9019,
      "scott": 9020,
      "gluco": 9021,
      "wilton": 9022,
      "unmolding": 9023,
      "premade": 9024,
      "enclosing": 9025,
      "overbrowning": 9026,
      "apprx": 9027,
      "67": 9028,
      "bead": 9029,
      "jan": 9030,
      "wigg": 9031,
      "spong": 9032,
      "compl": 9033,
      "##aisse": 9034,
      "dillweed": 9035,
      "ribeye": 9036,
      "boboli": 9037,
      "ka": 9038,
      "lang": 9039,
      "lava": 9040,
      "glowing": 9041,
      "occasion": 9042,
      "peasant": 9043,
      "photos": 9044,
      "um": 9045,
      "went": 9046,
      "##ipane": 9047,
      "lotus": 9048,
      "actual": 9049,
      "sterile": 9050,
      "kikkoman": 9051,
      "##ilding": 9052,
      "##aci": 9053,
      "##chers": 9054,
      "reddish": 9055,
      "excl": 9056,
      "measurement": 9057,
      "krispie": 9058,
      "kam": 9059,
      "wines": 9060,
      "miz": 9061,
      "batters": 9062,
      "kneaded": 9063,
      "giard": 9064,
      "petal": 9065,
      "##piece": 9066,
      "dips": 9067,
      "quark": 9068,
      "boar": 9069,
      "##iere": 9070,
      "drunken": 9071,
      "cach": 9072,
      "sedi": 9073,
      "##ores": 9074,
      "lingon": 9075,
      "cipoll": 9076,
      "taw": 9077,
      "##lie": 9078,
      "cos": 9079,
      "##olis": 9080,
      "conven": 9081,
      "trea": 9082,
      "borsch": 9083,
      "glucose": 9084,
      "##ination": 9085,
      "stu": 9086,
      "napkins": 9087,
      "2tbsp": 9088,
      "ouzo": 9089,
      "##sti": 9090,
      "flare": 9091,
      "##oula": 9092,
      "flaxseeds": 9093,
      "delicately": 9094,
      "ie": 9095,
      "chat": 9096,
      "##ppin": 9097,
      "thour": 9098,
      "clock": 9099,
      "crisper": 9100,
      "dislodge": 9101,
      "lun": 9102,
      "jarls": 9103,
      "235": 9104,
      "milliliter": 9105,
      "maine": 9106,
      "attempt": 9107,
      "##tor": 9108,
      "overfill": 9109,
      "chipped": 9110,
      "bruise": 9111,
      "caponata": 9112,
      "biscoff": 9113,
      "##eshredded": 9114,
      "##oos": 9115,
      "piercing": 9116,
      "175u00b0c": 9117,
      "2tsp": 9118,
      "ladyfinger": 9119,
      "frangipane": 9120,
      "ooze": 9121,
      "treacle": 9122,
      "lily": 9123,
      "tiss": 9124,
      "loosened": 9125,
      "giblet": 9126,
      "bricks": 9127,
      "spiciness": 9128,
      "randomly": 9129,
      "fa": 9130,
      "lucky": 9131,
      "grounded": 9132,
      "powdery": 9133,
      "quaker": 9134,
      "central": 9135,
      "distin": 9136,
      "versatile": 9137,
      "planning": 9138,
      "portabello": 9139,
      "robust": 9140,
      "##ational": 9141,
      "bagged": 9142,
      "judg": 9143,
      "000": 9144,
      "lace": 9145,
      "##cur": 9146,
      "##ident": 9147,
      "hotd": 9148,
      "processer": 9149,
      "tspn": 9150,
      "ozs": 9151,
      "encour": 9152,
      "cheeks": 9153,
      "honeycrisp": 9154,
      "fiddlehead": 9155,
      "city": 9156,
      "ended": 9157,
      "cleanup": 9158,
      "cocktails": 9159,
      "preserving": 9160,
      "midori": 9161,
      "clip": 9162,
      "exchanges": 9163,
      "nearest": 9164,
      "richly": 9165,
      "collar": 9166,
      "drumettes": 9167,
      "digestive": 9168,
      "##genated": 9169,
      "knuckles": 9170,
      "genoa": 9171,
      "ive": 9172,
      "sq": 9173,
      "##lon": 9174,
      "stud": 9175,
      "##isions": 9176,
      "238": 9177,
      "weave": 9178,
      "##lione": 9179,
      "altogether": 9180,
      "##bbles": 9181,
[...]
