{
  "version": "1.0",
  "truncation": null,
  "padding": null,
  "added_tokens": [
    {
      "id": 0,
      "content": "[PAD]",
      "single_word": false,
      "lstrip": false,
      "rstrip": false,
      "normalized": false,
      "special": true
    },
    {
      "id": 1,
      "content": "[UNK]",
      "single_word": false,
      "lstrip": false,
      "rstrip": false,
      "normalized": false,
      "special": true
    },
    {
      "id": 2,
      "content": "<end_title>",
      "single_word": false,
      "lstrip": false,
      "rstrip": false,
      "normalized": false,
      "special": true
    },
    {
      "id": 3,
      "content": "<end>",
      "single_word": false,
      "lstrip": false,
      "rstrip": false,
      "normalized": false,
      "special": true
    }
  ],
  "normalizer": {
    "type": "Sequence",
    "normalizers": [
      {
        "type": "NFD"
      },
      {
        "type": "Lowercase"
      },
      {
        "type": "StripAccents"
      }
    ]
  },
  "pre_tokenizer": {
    "type": "Sequence",
    "pretokenizers": [
      {
        "type": "WhitespaceSplit"
      },
      {
        "type": "Punctuation",
        "behavior": "Isolated"
      }
    ]
  },
  "post_processor": null,
  "decoder": null,
  "model": {
    "type": "WordPiece",
    "unk_token": "[UNK]",
    "continuing_subword_prefix": "##",
    "max_input_chars_per_word": 100,
    "vocab": {
      "[PAD]": 0,
      "[UNK]": 1,
      "<end_title>": 2,
      "<end>": 3,
      "!": 4,
      "\"": 5,
      "'": 6,
      "(": 7,
      ")": 8,
      ",": 9,
      "-": 10,
      ".": 11,
      "0": 12,
      "1": 13,
      "2": 14,
      "3": 15,
      "4": 16,
      "5": 17,
      "6": 18,
      "7": 19,
      "8": 20,
      "9": 21,
      ":": 22,
      ";": 23,
      "<": 24,
      ">": 25,
      "?": 26,
      "_": 27,
      "a": 28,
      "b": 29,
      "c": 30,
      "d": 31,
      "e": 32,
      "f": 33,
      "g": 34,
      "h": 35,
      "i": 36,
      "j": 37,
      "k": 38,
      "l": 39,
      "m": 40,
      "n": 41,
      "o": 42,
      "p": 43,
      "q": 44,
      "r": 45,
      "s": 46,
      "t": 47,
      "u": 48,
      "v": 49,
      "w": 50,
      "x": 51,
      "y": 52,
      "z": 53,
      "##a": 54,
      "##n": 55,
      "##c": 56,
      "##k": 57,
      "##e": 58,
      "##s": 59,
      "##r": 60,
      "##o": 61,
      "##t": 62,
      "##d": 63,
      "##m": 64,
      "##p": 65,
      "##h": 66,
      "##i": 67,
      "##l": 68,
      "##g": 69,
      "##u": 70,
      "##z": 71,
      "##y": 72,
      "##w": 73,
      "##b": 74,
      "##f": 75,
      "##5": 76,
      "##4": 77,
      "##0": 78,
      "##x": 79,
      "##v": 80,
      "##3": 81,
      "##7": 82,
      "##q": 83,
      "##2": 84,
      "##j": 85,
      "##9": 86,
      "##1": 87,
      "##6": 88,
      "##8": 89,
      "##ed": 90,
      "##nd": 91,
      "##es": 92,
      "##on": 93,
      "##er": 94,
      "##ar": 95,
      "##in": 96,
      "##ea": 97,
      "end": 98,
      "cu": 99,
      "##sp": 100,
      "ch": 101,
      "##le": 102,
      "##ic": 103,
      "cup": 104,
      "12": 105,
      "##oon": 106,
      "##it": 107,
      "##al": 108,
      "##an": 109,
      "##pp": 110,
      "##il": 111,
      "##at": 112,
      "##ou": 113,
      "tit": 114,
      "title": 115,
      "##en": 116,
      "##ab": 117,
      "##les": 118,
      "tea": 119,
      "##spoon": 120,
      "teaspoon": 121,
      "##el": 122,
      "cho": 123,
      "gr": 124,
      "##ut": 125,
      "tab": 126,
      "14": 127,
      "##poon": 128,
      "##lespoon": 129,
      "tablespoon": 130,
      "##or": 131,
      "pe": 132,
      "sal": 133,
      "##gar": 134,
      "##ing": 135,
      "##as": 136,
      "cr": 137,
      "##pped": 138,
      "chopped": 139,
      "##ac": 140,
      "##ro": 141,
      "tsp": 142,
      "or": 143,
      "##nc": 144,
      "su": 145,
      "##lic": 146,
      "salt": 147,
      "##ge": 148,
      "to": 149,
      "##ion": 150,
      "##ter": 151,
      "and": 152,
      "##pper": 153,
      "sugar": 154,
      "pepper": 155,
      "fr": 156,
      "co": 157,
      "cups": 158,
      "tablespoons": 159,
      "##ick": 160,
      "can": 161,
      "##unc": 162,
      "##us": 163,
      "fl": 164,
      "on": 165,
      "but": 166,
      "##our": 167,
      "wh": 168,
      "##ak": 169,
      "##ound": 170,
      "po": 171,
      "butter": 172,
      "tb": 173,
      "##ese": 174,
      "##ri": 175,
      "ounc": 176,
      "##ee": 177,
      "tbsp": 178,
      "che": 179,
      "##gg": 180,
      "st": 181,
      "onion": 182,
      "cheese": 183,
      "##esh": 184,
      "egg": 185,
      "fresh": 186,
      "##ol": 187,
      "##am": 188,
      "##is": 189,
      "##lo": 190,
      "##ack": 191,
      "##um": 192,
      "##eam": 193,
      "##ice": 194,
      "##em": 195,
      "##uc": 196,
      "th": 197,
      "oil": 198,
      "##ine": 199,
      "slic": 200,
      "##ill": 201,
      "cream": 202,
      "##ato": 203,
      "sa": 204,
      "##ra": 205,
      "oz": 206,
      "##ast": 207,
      "flour": 208,
      "sh": 209,
      "gar": 210,
      "##ur": 211,
      "##iv": 212,
      "in": 213,
      "##icken": 214,
      "##ilk": 215,
      "##ch": 216,
      "ground": 217,
      "lb": 218,
      "##der": 219,
      "34": 220,
      "##uce": 221,
      "chicken": 222,
      "garlic": 223,
      "so": 224,
      "##ok": 225,
      "##ly": 226,
      "##ry": 227,
      "bro": 228,
      "##ater": 229,
      "water": 230,
      "sliced": 231,
      "milk": 232,
      "##wder": 233,
      "powder": 234,
      "##ves": 235,
      "##ated": 236,
      "sauce": 237,
      "lar": 238,
      "teaspoons": 239,
      "##ip": 240,
      "of": 241,
      "large": 242,
      "min": 243,
      "##ns": 244,
      "ju": 245,
      "##ten": 246,
      "eggs": 247,
      "##os": 248,
      "##rea": 249,
      "##ot": 250,
      "sp": 251,
      "##ad": 252,
      "##ec": 253,
      "tom": 254,
      "##illa": 255,
      "ounce": 256,
      "ol": 257,
      "tomato": 258,
      "ounces": 259,
      "##ts": 260,
      "pi": 261,
      "juice": 262,
      "##all": 263,
      "##ush": 264,
      "bak": 265,
      "van": 266,
      "vanilla": 267,
      "sm": 268,
      "##ted": 269,
      "bl": 270,
      "red": 271,
      "al": 272,
      "##gh": 273,
      "##ars": 274,
      "##een": 275,
      "cook": 276,
      "oliv": 277,
      "lem": 278,
      "lemon": 279,
      "##ole": 280,
      "##ite": 281,
      "##edd": 282,
      "##ely": 283,
      "bea": 284,
      "green": 285,
      "##om": 286,
      "brea": 287,
      "##col": 288,
      "clo": 289,
      "cor": 290,
      "##ced": 291,
      "##to": 292,
      "minced": 293,
      "cut": 294,
      "13": 295,
      "li": 296,
      "olive": 297,
      "##ith": 298,
      "##ium": 299,
      "##ate": 300,
      "##et": 301,
      "##ir": 302,
      "##ell": 303,
      "##ber": 304,
      "##iced": 305,
      "##ay": 306,
      "##aste": 307,
      "baking": 308,
      "##me": 309,
      "white": 310,
      "black": 311,
      "##ap": 312,
      "with": 313,
      "grated": 314,
      "for": 315,
      "med": 316,
      "##wn": 317,
      "small": 318,
      "pk": 319,
      "diced": 320,
      "pkg": 321,
      "##st": 322,
      "fin": 323,
      "finely": 324,
      "medium": 325,
      "brown": 326,
      "##one": 327,
      "pin": 328,
      "##age": 329,
      "##ash": 330,
      "ex": 331,
      "##ake": 332,
      "##colate": 333,
      "##wee": 334,
      "##eed": 335,
      "into": 336,
      "##tion": 337,
      "lea": 338,
      "pot": 339,
      "whole": 340,
      "##ined": 341,
      "mar": 342,
      "ext": 343,
      "pound": 344,
      "pack": 345,
      "##id": 346,
      "##nch": 347,
      "cloves": 348,
      "chocolate": 349,
      "taste": 350,
      "sou": 351,
      "fro": 352,
      "peel": 353,
      "##ried": 354,
      "potato": 355,
      "##th": 356,
      "##inn": 357,
      "##rained": 358,
      "##tar": 359,
      "car": 360,
      "##nut": 361,
      "pur": 362,
      "soup": 363,
      "ve": 364,
      "bread": 365,
      "bee": 366,
      "all": 367,
      "tomatoes": 368,
      "inch": 369,
      "dried": 370,
      "##ish": 371,
      "shr": 372,
      "##edded": 373,
      "##pple": 374,
      "shredded": 375,
      "corn": 376,
      "pea": 377,
      "peeled": 378,
      "10": 379,
      "##ght": 380,
      "##ix": 381,
      "##ach": 382,
      "beef": 383,
      "drained": 384,
      "sod": 385,
      "mix": 386,
      "##tab": 387,
      "op": 388,
      "##amon": 389,
      "vine": 390,
      "##tened": 391,
      "vege": 392,
      "cinn": 393,
      "vinegar": 394,
      "cinnamon": 395,
      "##ul": 396,
      "option": 397,
      "seed": 398,
      "nut": 399,
      "optional": 400,
      "##ff": 401,
      "cake": 402,
      "vegetab": 403,
      "salad": 404,
      "##ery": 405,
      "ro": 406,
      "##ve": 407,
      "coc": 408,
      "onions": 409,
      "##ant": 410,
      "pl": 411,
      "##ag": 412,
      "##arm": 413,
      "rice": 414,
      "##room": 415,
      "##low": 416,
      "bo": 417,
      "cooked": 418,
      "mush": 419,
      "##ose": 420,
      "hal": 421,
      "mushroom": 422,
      "swee": 423,
      "##ley": 424,
      "thin": 425,
      "purp": 426,
      "##ais": 427,
      "##qu": 428,
      "margar": 429,
      "crush": 430,
      "##zen": 431,
      "crushed": 432,
      "margarine": 433,
      "purpose": 434,
      "##umb": 435,
      "##ess": 436,
      "vegetable": 437,
      "frozen": 438,
      "sea": 439,
      "chil": 440,
      "oran": 441,
      "pars": 442,
      "soda": 443,
      "##ian": 444,
      "##ies": 445,
      "18": 446,
      "cel": 447,
      "##ers": 448,
      "celery": 449,
      "stick": 450,
      "##out": 451,
      "##od": 452,
      "parsley": 453,
      "pie": 454,
      "slices": 455,
      "lo": 456,
      "dry": 457,
      "##ipe": 458,
      "beans": 459,
      "sour": 460,
      "mel": 461,
      "uns": 462,
      "potatoes": 463,
      "##eat": 464,
      "sof": 465,
      "leaves": 466,
      "##ks": 467,
      "##ries": 468,
      "ab": 469,
      "the": 470,
      "sweet": 471,
      "##ins": 472,
      "##ey": 473,
      "piec": 474,
      "##ru": 475,
      "melted": 476,
      "orange": 477,
      "qu": 478,
      "##act": 479,
      "##less": 480,
      "carro": 481,
      "mus": 482,
      "extr": 483,
      "##ass": 484,
      "##ett": 485,
      "extract": 486,
      "cub": 487,
      "about": 488,
      "##ood": 489,
      "##and": 490,
      "hea": 491,
      "##av": 492,
      "beaten": 493,
      "##ps": 494,
      "##eddar": 495,
      "freshly": 496,
      "crumb": 497,
      "wine": 498,
      "cheddar": 499,
      "##tard": 500,
      "mustard": 501,
      "##oc": 502,
      "##berry": 503,
      "23": 504,
      "##aw": 505,
      "pieces": 506,
      "##asted": 507,
      "parm": 508,
      "chip": 509,
      "as": 510,
      "##inger": 511,
      "por": 512,
      "##ved": 513,
      "##can": 514,
      "light": 515,
      "##kin": 516,
      "si": 517,
      "pr": 518,
      "hot": 519,
      "cans": 520,
      "##eg": 521,
      "##ain": 522,
      "may": 523,
      "ginger": 524,
      "chili": 525,
      "thinly": 526,
      "softened": 527,
      "16": 528,
      "rec": 529,
      "##esan": 530,
      "##son": 531,
      "bas": 532,
      "##rim": 533,
      "##eapple": 534,
      "parmesan": 535,
      "pecan": 536,
      "##onut": 537,
      "##est": 538,
      "##un": 539,
      "##akes": 540,
      "broth": 541,
      "season": 542,
      "pineapple": 543,
      "fat": 544,
      "##ond": 545,
      "##berries": 546,
      "coconut": 547,
      "recipe": 548,
      "div": 549,
      "it": 550,
      "us": 551,
      "##ano": 552,
      "pork": 553,
      "##ided": 554,
      "##nuts": 555,
      "##ud": 556,
      "divided": 557,
      "##zz": 558,
      "##ini": 559,
      "15": 560,
      "##uff": 561,
      "extra": 562,
      "##eal": 563,
      "##ew": 564,
      "##ore": 565,
      "package": 566,
      "##onn": 567,
      "##ters": 568,
      "mushrooms": 569,
      "##led": 570,
      "alm": 571,
      "bac": 572,
      "##aise": 573,
      "dr": 574,
      "basil": 575,
      "bacon": 576,
      "pinch": 577,
      "##alted": 578,
      "##enn": 579,
      "unsalted": 580,
      "col": 581,
      "##onnaise": 582,
      "##ef": 583,
      "almond": 584,
      "mayonnaise": 585,
      "clove": 586,
      "con": 587,
      "lime": 588,
      "bell": 589,
      "##raw": 590,
      "##her": 591,
      "soy": 592,
      "##pping": 593,
      "past": 594,
      "plus": 595,
      "ic": 596,
      "chips": 597,
      "apple": 598,
      "##gin": 599,
      "##oney": 600,
      "honey": 601,
      "nuts": 602,
      "carrots": 603,
      "##ue": 604,
      "coars": 605,
      "each": 606,
      "dash": 607,
      "##alian": 608,
      "##uit": 609,
      "sc": 610,
      "##erry": 611,
      "box": 612,
      "gran": 613,
      "##ellow": 614,
      "an": 615,
      "yellow": 616,
      "pecans": 617,
      "packed": 618,
      "low": 619,
      "peppers": 620,
      "app": 621,
      "##avor": 622,
      "half": 623,
      "##meg": 624,
      "squ": 625,
      "##ib": 626,
      "bone": 627,
      "ham": 628,
      "crack": 629,
      "italian": 630,
      "cass": 631,
      "whi": 632,
      "tur": 633,
      "pounds": 634,
      "##oked": 635,
      "peanut": 636,
      "##erole": 637,
      "kos": 638,
      "straw": 639,
      "casserole": 640,
      "kosher": 641,
      "##unch": 642,
      "##ka": 643,
      "##ep": 644,
      "dress": 645,
      "##yme": 646,
      "sy": 647,
      "thyme": 648,
      "dressing": 649,
      "##rup": 650,
      "##ent": 651,
      "syrup": 652,
      "vir": 653,
      "wor": 654,
      "ban": 655,
      "virgin": 656,
      "##ock": 657,
      "cookies": 658,
      "oreg": 659,
      "##ams": 660,
      "ml": 661,
      "##ccol": 662,
      "nutmeg": 663,
      "oregano": 664,
      "banan": 665,
      "##min": 666,
      "##ccoli": 667,
      "seasoning": 668,
      "wal": 669,
      "##ding": 670,
      "pap": 671,
      "##ure": 672,
      "ar": 673,
      "shor": 674,
      "saus": 675,
      "##oa": 676,
      "##ich": 677,
      "seeds": 678,
      "##rimp": 679,
      "##ough": 680,
      "##ire": 681,
      "##ze": 682,
      "more": 683,
      "##ust": 684,
      "##antro": 685,
      "boneless": 686,
      "##ight": 687,
      "lbs": 688,
      "cil": 689,
      "cilantro": 690,
      "ice": 691,
      "di": 692,
      "##ta": 693,
      "boil": 694,
      "tor": 695,
      "##og": 696,
      "rais": 697,
      "rol": 698,
      "##per": 699,
      "##vy": 700,
      "powdered": 701,
      "##ned": 702,
      "quar": 703,
      "crumbs": 704,
      "use": 705,
      "broccoli": 706,
      "##ump": 707,
      "pud": 708,
      "pudding": 709,
      "##ashed": 710,
      "sausage": 711,
      "apples": 712,
      "oat": 713,
      "inst": 714,
      "cumin": 715,
      "jar": 716,
      "spin": 717,
      "garn": 718,
      "##ade": 719,
      "shrimp": 720,
      "spinach": 721,
      "pasta": 722,
      "##enne": 723,
      "##hire": 724,
      "##ger": 725,
      "meat": 726,
      "garnish": 727,
      "papri": 728,
      "##key": 729,
      "##ces": 730,
      "paprika": 731,
      "free": 732,
      "cool": 733,
      "##ie": 734,
      "##tershire": 735,
      "flakes": 736,
      "instant": 737,
      "grams": 738,
      "un": 739,
      "mo": 740,
      "coarsely": 741,
      "worces": 742,
      "##wis": 743,
      "worcestershire": 744,
      "cubed": 745,
      "##ame": 746,
      "##ature": 747,
      "heavy": 748,
      "thaw": 749,
      "stock": 750,
      "granul": 751,
      "cooking": 752,
      "toasted": 753,
      "##ella": 754,
      "whip": 755,
      "skin": 756,
      "thawed": 757,
      "cocoa": 758,
      "thick": 759,
      "##illed": 760,
      "granulated": 761,
      "##milk": 762,
      "##sts": 763,
      "breasts": 764,
      "##tening": 765,
      "flavor": 766,
      "halved": 767,
      "walnuts": 768,
      "shortening": 769,
      "cur": 770,
      "##ark": 771,
      "cubes": 772,
      "nood": 773,
      "ser": 774,
      "corns": 775,
      "##epar": 776,
      "##00": 777,
      "##tarch": 778,
      "cornstarch": 779,
      "if": 780,
      "seeded": 781,
      "sl": 782,
      "##chini": 783,
      "zest": 784,
      "none": 785,
      "paste": 786,
      "##ied": 787,
      "cold": 788,
      "##ah": 789,
      "leaf": 790,
      "##allo": 791,
      "sk": 792,
      "wheat": 793,
      "##ard": 794,
      "tar": 795,
      "buttermilk": 796,
      "roasted": 797,
      "##im": 798,
      "raisins": 799,
      "##urt": 800,
      "stea": 801,
      "fruit": 802,
      "##isc": 803,
      "roll": 804,
      "canned": 805,
      "stri": 806,
      "plain": 807,
      "zuc": 808,
      "##af": 809,
      "not": 810,
      "turkey": 811,
      "bag": 812,
      "mozz": 813,
      "##arella": 814,
      "##icot": 815,
      "tem": 816,
      "chun": 817,
      "blue": 818,
      "zucchini": 819,
      "en": 820,
      "size": 821,
      "crumbled": 822,
      "pan": 823,
      "mozzarella": 824,
      "##ous": 825,
      "cay": 826,
      "ses": 827,
      "sesame": 828,
      "cayenne": 829,
      "tort": 830,
      "yog": 831,
      "pump": 832,
      "##yle": 833,
      "yogurt": 834,
      "peas": 835,
      "##ges": 836,
      "##med": 837,
      "bay": 838,
      "rem": 839,
      "##ai": 840,
      "pumpkin": 841,
      "bunch": 842,
      "cherry": 843,
      "noodles": 844,
      "##mon": 845,
      "##zed": 846,
      "room": 847,
      "cl": 848,
      "style": 849,
      "##meal": 850,
      "##ola": 851,
      "shell": 852,
      "##ver": 853,
      "dark": 854,
      "almonds": 855,
      "strips": 856,
      "sticks": 857,
      "##abb": 858,
      "fine": 859,
      "##ille": 860,
      "de": 861,
      "cran": 862,
      "rins": 863,
      "remo": 864,
      "crust": 865,
      "carrot": 866,
      "yol": 867,
      "skinless": 868,
      "rinsed": 869,
      "br": 870,
      "head": 871,
      "olives": 872,
      "unc": 873,
      "temper": 874,
      "ripe": 875,
      "##apen": 876,
      "##mer": 877,
      "##read": 878,
      "##ia": 879,
      "##up": 880,
      "topping": 881,
      "temperature": 882,
      "bot": 883,
      "cabb": 884,
      "bar": 885,
      "cabbage": 886,
      "spr": 887,
      "##ection": 888,
      "##ooked": 889,
      "you": 890,
      "jal": 891,
      "##weetened": 892,
      "##ican": 893,
      "##tle": 894,
      "unsweetened": 895,
      "##ub": 896,
      "bean": 897,
      "jalapen": 898,
      "##ens": 899,
      "##bur": 900,
      "##umber": 901,
      "removed": 902,
      "sem": 903,
      "par": 904,
      "at": 905,
      "lett": 906,
      "ad": 907,
      "uncooked": 908,
      "##if": 909,
      "from": 910,
      "##oni": 911,
      "##cumber": 912,
      "##ench": 913,
      "##etti": 914,
      "lettuce": 915,
      "stuff": 916,
      "##ary": 917,
      "##ton": 918,
      "liqu": 919,
      "##east": 920,
      "dip": 921,
      "ci": 922,
      "##rig": 923,
      "up": 924,
      "yeast": 925,
      "sprig": 926,
      "squash": 927,
      "av": 928,
      "cucumber": 929,
      "dill": 930,
      "##ings": 931,
      "ac": 932,
      "bra": 933,
      "breast": 934,
      "baked": 935,
      "##mal": 936,
      "mac": 937,
      "stal": 938,
      "ros": 939,
      "whipped": 940,
      "##agh": 941,
      "##ss": 942,
      "warm": 943,
      "##ites": 944,
      "##aghetti": 945,
      "qt": 946,
      "pick": 947,
      "pit": 948,
      "strawberries": 949,
      "mint": 950,
      "french": 951,
      "fill": 952,
      "##els": 953,
      "##jon": 954,
      "bab": 955,
      "strawberry": 956,
      "cider": 957,
      "ra": 958,
      "dijon": 959,
      "mashed": 960,
      "20": 961,
      "banana": 962,
      "##emary": 963,
      "##ind": 964,
      "trim": 965,
      "##sa": 966,
      "baby": 967,
      "boiling": 968,
      "cond": 969,
      "gl": 970,
      "##arp": 971,
      "steak": 972,
      "##cor": 973,
      "##aked": 974,
      "ev": 975,
      "he": 976,
      "mars": 977,
      "peach": 978,
      "rosemary": 979,
      "##ensed": 980,
      "fry": 981,
      "filling": 982,
      "condensed": 983,
      "##pe": 984,
      "trimmed": 985,
      "##erries": 986,
      "te": 987,
      "spaghetti": 988,
      "shallo": 989,
      "##erb": 990,
      "##ther": 991,
      "sif": 992,
      "##ow": 993,
      "canola": 994,
      "##tered": 995,
      "pro": 996,
      "cracker": 997,
      "conf": 998,
      "jalapeno": 999,
      "mixed": 1000,
      "sifted": 1001,
      "your": 1002,
      "##lows": 1003,
      "##ffee": 1004,
      "##lower": 1005,
      "stew": 1006,
      "rib": 1007,
      "rasp": 1008,
      "bananas": 1009,
      "ca": 1010,
      "##ig": 1011,
      "food": 1012,
      "##aham": 1013,
      "rolls": 1014,
      "bou": 1015,
      "be": 1016,
      "whipping": 1017,
      "whites": 1018,
      "jel": 1019,
      "sodium": 1020,
      "chunks": 1021,
      "prepar": 1022,
      "quartered": 1023,
      "lightly": 1024,
      "curry": 1025,
      "##cr": 1026,
      "confection": 1027,
      "graham": 1028,
      "such": 1029,
      "salsa": 1030,
      "##ute": 1031,
      "grap": 1032,
      "oats": 1033,
      "fir": 1034,
      "##hmal": 1035,
      "##zza": 1036,
      "##mp": 1037,
      "##allion": 1038,
      "cand": 1039,
      "me": 1040,
      "##ages": 1041,
      "marshmal": 1042,
      "##old": 1043,
      "##als": 1044,
      "prepared": 1045,
      "well": 1046,
      "##ke": 1047,
      "salmon": 1048,
      "yolks": 1049,
      "brand": 1050,
      "##pr": 1051,
      "smoked": 1052,
      "##ocad": 1053,
      "confectioners": 1054,
      "roast": 1055,
      "scallion": 1056,
      "we": 1057,
      "ran": 1058,
      "sharp": 1059,
      "fille": 1060,
      "fish": 1061,
      "##wise": 1062,
      "##amb": 1063,
      "##ong": 1064,
      "sprigs": 1065,
      "firm": 1066,
      "##tt": 1067,
      "wed": 1068,
      "pizza": 1069,
      "crackers": 1070,
      "##ild": 1071,
      "stem": 1072,
      "##ang": 1073,
      "##burger": 1074,
      "avocad": 1075,
      "pref": 1076,
      "tac": 1077,
      "no": 1078,
      "und": 1079,
      "herb": 1080,
      "11": 1081,
      "chiv": 1082,
      "prefer": 1083,
      "kra": 1084,
      "lean": 1085,
      "coffee": 1086,
      "fried": 1087,
      "25": 1088,
      "##ray": 1089,
      "##gr": 1090,
      "pitted": 1091,
      "##illas": 1092,
      "ole": 1093,
      "##amic": 1094,
      "sn": 1095,
      "mini": 1096,
      "##eek": 1097,
      "is": 1098,
      "chi": 1099,
      "reduc": 1100,
      "raw": 1101,
      "crab": 1102,
      "##orated": 1103,
      "##ft": 1104,
      "bals": 1105,
      "evap": 1106,
      "##ander": 1107,
      "evaporated": 1108,
      "balsamic": 1109,
      "##uck": 1110,
      "##eng": 1111,
      "spray": 1112,
      "eas": 1113,
      "muff": 1114,
      "serv": 1115,
      "##tain": 1116,
      "kraft": 1117,
      "reduced": 1118,
      "add": 1119,
      "##eser": 1120,
      "oleo": 1121,
      "macar": 1122,
      "quick": 1123,
      "##icy": 1124,
      "##fat": 1125,
      "halves": 1126,
      "##iander": 1127,
      "ket": 1128,
      "map": 1129,
      "coriander": 1130,
      "chives": 1131,
      "##nder": 1132,
      "ris": 1133,
      "jack": 1134,
      "maple": 1135,
      "##ength": 1136,
      "##chup": 1137,
      "round": 1138,
      "ketchup": 1139,
      "##alls": 1140,
      "soft": 1141,
      "any": 1142,
      "packages": 1143,
      "need": 1144,
      "tortillas": 1145,
      "sweetened": 1146,
      "am": 1147,
      "stalks": 1148,
      "##isp": 1149,
      "##cent": 1150,
      "ho": 1151,
      "length": 1152,
      "cherries": 1153,
      "chops": 1154,
      "one": 1155,
      "rom": 1156,
      "bisc": 1157,
      "sub": 1158,
      "hamburger": 1159,
      "##sc": 1160,
      "contain": 1161,
      "##ney": 1162,
      "mex": 1163,
      "weight": 1164,
      "##atin": 1165,
      "boiled": 1166,
      "gold": 1167,
      "taco": 1168,
      "mon": 1169,
      "hicken": 1170,
      "other": 1171,
      "del": 1172,
      "wedges": 1173,
      "macaroni": 1174,
      "sel": 1175,
      "grain": 1176,
      "##co": 1177,
      "seasoned": 1178,
      "poss": 1179,
      "spice": 1180,
      "possib": 1181,
      "semi": 1182,
      "bottle": 1183,
      "non": 1184,
      "liquid": 1185,
      "loaf": 1186,
      "bars": 1187,
      "##bec": 1188,
      "apr": 1189,
      "asp": 1190,
      "##ive": 1191,
      "cored": 1192,
      "##amel": 1193,
      "serving": 1194,
      "pt": 1195,
      "##agn": 1196,
      "biscuit": 1197,
      "bit": 1198,
      "sand": 1199,
      "chilies": 1200,
      "fillets": 1201,
      "apricot": 1202,
      "dough": 1203,
      "crisp": 1204,
      "##stit": 1205,
      "scallions": 1206,
      "##una": 1207,
      "100": 1208,
      "bouill": 1209,
      "##wiss": 1210,
      "swiss": 1211,
      "cranberry": 1212,
      "easy": 1213,
      "##adish": 1214,
      "gel": 1215,
      "##arag": 1216,
      "des": 1217,
      "##aragus": 1218,
      "marshmallows": 1219,
      "container": 1220,
      "bouillon": 1221,
      "oatmeal": 1222,
      "ref": 1223,
      "##wich": 1224,
      "##ightly": 1225,
      "self": 1226,
      "##crumb": 1227,
      "tuna": 1228,
      "color": 1229,
      "like": 1230,
      "breadcrumb": 1231,
      "flat": 1232,
      "needed": 1233,
      "old": 1234,
      "substit": 1235,
      "##ired": 1236,
      "creamy": 1237,
      "rough": 1238,
      "##spice": 1239,
      "jello": 1240,
      "##ink": 1241,
      "##ilad": 1242,
      "##ern": 1243,
      "art": 1244,
      "hom": 1245,
      "sandwich": 1246,
      "##cake": 1247,
      "allspice": 1248,
      "##bl": 1249,
      "possibly": 1250,
      "##ulif": 1251,
      "24": 1252,
      "muffins": 1253,
      "sage": 1254,
      "##uliflower": 1255,
      "##ave": 1256,
      "##weet": 1257,
      "spl": 1258,
      "avocado": 1259,
      "sherry": 1260,
      "coarse": 1261,
      "long": 1262,
      "##asses": 1263,
      "pastry": 1264,
      "vegetables": 1265,
      "##eta": 1266,
      "##bread": 1267,
      "cap": 1268,
      "stuffed": 1269,
      "##ale": 1270,
      "do": 1271,
      "asparagus": 1272,
      "##erm": 1273,
      "very": 1274,
      "slightly": 1275,
      "breadcrumbs": 1276,
      "ribs": 1277,
      "##igh": 1278,
      "chile": 1279,
      "##ling": 1280,
      "pim": 1281,
      "marin": 1282,
      "hard": 1283,
      "mol": 1284,
      "lengthwise": 1285,
      "mexican": 1286,
      "##oke": 1287,
      "28": 1288,
      "rum": 1289,
      "kid": 1290,
      "cauliflower": 1291,
      "feta": 1292,
      "##lend": 1293,
      "##oul": 1294,
      "##gan": 1295,
      "separ": 1296,
      "##ist": 1297,
      "barbec": 1298,
      "rising": 1299,
      "desired": 1300,
      "##ors": 1301,
      "sun": 1302,
      "good": 1303,
      "go": 1304,
      "##loin": 1305,
      "##pl": 1306,
      "##eas": 1307,
      "##ette": 1308,
      "molasses": 1309,
      "spicy": 1310,
      "frying": 1311,
      "##nt": 1312,
      "oranges": 1313,
      "cranberries": 1314,
      "shallots": 1315,
      "skim": 1316,
      "chilled": 1317,
      "tender": 1318,
      "##emade": 1319,
      "used": 1320,
      "##ttage": 1321,
      "see": 1322,
      "gelatin": 1323,
      "roughly": 1324,
      "flavored": 1325,
      "rind": 1326,
      "##20": 1327,
      "##vel": 1328,
      "part": 1329,
      "raspberry": 1330,
      "kidney": 1331,
      "caramel": 1332,
      "cottage": 1333,
      "##gon": 1334,
      "lamb": 1335,
      "slice": 1336,
      "blueberries": 1337,
      "monter": 1338,
      "grilled": 1339,
      "peanuts": 1340,
      "pure": 1341,
      "separated": 1342,
      "jell": 1343,
      "##icotta": 1344,
      "##eme": 1345,
      "ricotta": 1346,
      "30": 1347,
      "substitute": 1348,
      "kern": 1349,
      "cornmeal": 1350,
      "##zo": 1351,
      "monterey": 1352,
      "plum": 1353,
      "##cakes": 1354,
      "##ered": 1355,
      "##elv": 1356,
      "gla": 1357,
      "##bon": 1358,
      "velv": 1359,
      "bake": 1360,
      "artich": 1361,
      "split": 1362,
      "##ino": 1363,
      "washed": 1364,
      "biscuits": 1365,
      "squar": 1366,
      "##li": 1367,
      "bur": 1368,
      "eggpl": 1369,
      "##isco": 1370,
      "stems": 1371,
      "mang": 1372,
      "ph": 1373,
      "dro": 1374,
      "undrained": 1375,
      "thru": 1376,
      "peaches": 1377,
      "frost": 1378,
      "fud": 1379,
      "barbecue": 1380,
      "##ched": 1381,
      "##ular": 1382,
      "cat": 1383,
      "carton": 1384,
      "##io": 1385,
      "020": 1386,
      "golden": 1387,
      "reg": 1388,
      "ranch": 1389,
      "greens": 1390,
      "hocolate": 1391,
      "frosting": 1392,
      "fenn": 1393,
      "fudge": 1394,
      "mango": 1395,
      "las": 1396,
      "fennel": 1397,
      "##ple": 1398,
      "spread": 1399,
      "mild": 1400,
      "crisco": 1401,
      "ang": 1402,
      "firmly": 1403,
      "##ys": 1404,
      "##velo": 1405,
      "lit": 1406,
      "envelo": 1407,
      "##ck": 1408,
      "lasagn": 1409,
      "bul": 1410,
      "tbs": 1411,
      "##ably": 1412,
      "##iss": 1413,
      "squee": 1414,
      "50": 1415,
      "bu": 1416,
      "jam": 1417,
      "##ful": 1418,
      "el": 1419,
      "stuffing": 1420,
      "##az": 1421,
      "re": 1422,
      "regular": 1423,
      "serve": 1424,
      "##ran": 1425,
      "##asco": 1426,
      "lim": 1427,
      "##meric": 1428,
      "flaked": 1429,
      "##riger": 1430,
      "##uss": 1431,
      "##auce": 1432,
      "##eeta": 1433,
      "##fl": 1434,
      "choice": 1435,
      "tabasco": 1436,
      "preferably": 1437,
      "candy": 1438,
      "##eet": 1439,
      "greek": 1440,
      "turmeric": 1441,
      "##ates": 1442,
      "##iano": 1443,
      "velveeta": 1444,
      "##ount": 1445,
      "hear": 1446,
      "sliv": 1447,
      "best": 1448,
      "hand": 1449,
      "homemade": 1450,
      "bite": 1451,
      "favor": 1452,
      "roma": 1453,
      "torn": 1454,
      "##ppy": 1455,
      "cal": 1456,
      "##arin": 1457,
      "##ked": 1458,
      "##ragon": 1459,
      "squares": 1460,
      "top": 1461,
      "##lish": 1462,
      "##ata": 1463,
      "refriger": 1464,
      "##ition": 1465,
      "reser": 1466,
      "##ce": 1467,
      "favorite": 1468,
      "##tail": 1469,
      "##ide": 1470,
      "beer": 1471,
      "200": 1472,
      "##ken": 1473,
      "pint": 1474,
      "applesauce": 1475,
      "tarragon": 1476,
      "lemons": 1477,
      "##ert": 1478,
      "pear": 1479,
      "less": 1480,
      "bott": 1481,
      "##oz": 1482,
      "deve": 1483,
      "tart": 1484,
      "squeezed": 1485,
      "deveined": 1486,
      "##ead": 1487,
      "##ail": 1488,
      "str": 1489,
      "mand": 1490,
      "chiles": 1491,
      "puree": 1492,
      "cer": 1493,
      "dice": 1494,
      "shallot": 1495,
      "##ation": 1496,
      "chest": 1497,
      "##ento": 1498,
      "##inese": 1499,
      "dates": 1500,
      "balls": 1501,
      "##ean": 1502,
      "hors": 1503,
      "##bo": 1504,
      "piece": 1505,
      "steaks": 1506,
      "##itional": 1507,
      "peppercor": 1508,
      "##kf": 1509,
      "eggplant": 1510,
      "mir": 1511,
      "lowfat": 1512,
      "bon": 1513,
      "slivered": 1514,
      "##ph": 1515,
      "thigh": 1516,
      "shells": 1517,
      "##ris": 1518,
      "broken": 1519,
      "blend": 1520,
      "lasagna": 1521,
      "cock": 1522,
      "salted": 1523,
      "##avy": 1524,
      "per": 1525,
      "drops": 1526,
      "##eradish": 1527,
      "artichoke": 1528,
      "ot": 1529,
      "##ally": 1530,
      "miniature": 1531,
      "creme": 1532,
      "cocktail": 1533,
      "eng": 1534,
      "tartar": 1535,
      "rolled": 1536,
      "##ven": 1537,
      "raspberries": 1538,
      "##uted": 1539,
      "tortilla": 1540,
      "##fu": 1541,
      "juli": 1542,
      "om": 1543,
      "chick": 1544,
      "##otle": 1545,
      "goat": 1546,
      "horseradish": 1547,
      "chunk": 1548,
      "cereal": 1549,
      "##dam": 1550,
      "##amp": 1551,
      "semis": 1552,
      "asy": 1553,
      "mas": 1554,
      "##kra": 1555,
      "act": 1556,
      "only": 1557,
      "semisweet": 1558,
      "cheesecake": 1559,
      "coloring": 1560,
      "flu": 1561,
      "tofu": 1562,
      "chuck": 1563,
      "##oot": 1564,
      "250": 1565,
      "lay": 1566,
      "quart": 1567,
      "mandarin": 1568,
      "##otch": 1569,
      "fluid": 1570,
      "puff": 1571,
      "envelope": 1572,
      "##eur": 1573,
      "ori": 1574,
      "blo": 1575,
      "grape": 1576,
      "scallo": 1577,
      "icing": 1578,
      "liqueur": 1579,
      "0209": 1580,
      "sprou": 1581,
      "##ye": 1582,
      "tw": 1583,
      "##ula": 1584,
      "chipotle": 1585,
      "sized": 1586,
      "sprink": 1587,
      "vin": 1588,
      "oys": 1589,
      "##50": 1590,
      "juiced": 1591,
      "##inned": 1592,
      "rel": 1593,
      "##kfast": 1594,
      "##bs": 1595,
      "english": 1596,
      "dess": 1597,
      "bis": 1598,
      "##uk": 1599,
      "chestnuts": 1600,
      "chinese": 1601,
      "##iche": 1602,
      "##mmer": 1603,
      "hash": 1604,
      "sprouts": 1605,
      "lent": 1606,
      "anch": 1607,
      "wra": 1608,
      "wild": 1609,
      "cats": 1610,
      "lentil": 1611,
      "flavoring": 1612,
      "inches": 1613,
      "rings": 1614,
      "catsup": 1615,
      "cucumbers": 1616,
      "thighs": 1617,
      "over": 1618,
      "##orets": 1619,
      "##red": 1620,
      "meal": 1621,
      "##ity": 1622,
      "florets": 1623,
      "##ny": 1624,
      "yolk": 1625,
      "peppercorns": 1626,
      "walnut": 1627,
      "nonfat": 1628,
      "dessert": 1629,
      "refrigerated": 1630,
      "short": 1631,
      "star": 1632,
      "cornbread": 1633,
      "clea": 1634,
      "germ": 1635,
      "bisqu": 1636,
      "meatb": 1637,
      "unb": 1638,
      "spring": 1639,
      "handful": 1640,
      "chickp": 1641,
      "blueberry": 1642,
      "cleaned": 1643,
      "skinned": 1644,
      "nec": 1645,
      "angel": 1646,
      "active": 1647,
      "pat": 1648,
      "##eep": 1649,
      "capers": 1650,
      "amer": 1651,
      "crus": 1652,
      "stalk": 1653,
      "ancho": 1654,
      "cookie": 1655,
      "american": 1656,
      "pes": 1657,
      "##grette": 1658,
      "waf": 1659,
      "##ble": 1660,
      "##ents": 1661,
      "dish": 1662,
      "vinai": 1663,
      "preser": 1664,
      "##stick": 1665,
      "pine": 1666,
      "##centr": 1667,
      "bow": 1668,
      "concentr": 1669,
      "##ax": 1670,
      "vinaigrette": 1671,
      "##row": 1672,
      "fol": 1673,
      "pesto": 1674,
      "seedless": 1675,
      "pist": 1676,
      "kn": 1677,
      "##phia": 1678,
      "grnd": 1679,
      "##ere": 1680,
      "##elphia": 1681,
      "cas": 1682,
      "##uten": 1683,
      "##arb": 1684,
      "tenderloin": 1685,
      "##iladelphia": 1686,
      "##cess": 1687,
      "punch": 1688,
      "##ial": 1689,
      "crunch": 1690,
      "brandy": 1691,
      "##oss": 1692,
      "thai": 1693,
      "relish": 1694,
      "32": 1695,
      "##ala": 1696,
      "cooled": 1697,
      "cracked": 1698,
      "##nip": 1699,
      "gravy": 1700,
      "pistach": 1701,
      "philadelphia": 1702,
      "buns": 1703,
      "out": 1704,
      "##ubarb": 1705,
      "##damom": 1706,
      "kernel": 1707,
      "ream": 1708,
      "new": 1709,
      "##itz": 1710,
      "##anish": 1711,
      "hearts": 1712,
      "glaze": 1713,
      "fash": 1714,
      "##ari": 1715,
      "fashion": 1716,
      "##gula": 1717,
      "cardamom": 1718,
      "appro": 1719,
      "blan": 1720,
      "##eled": 1721,
      "##oo": 1722,
      "##ise": 1723,
      "candied": 1724,
      "cash": 1725,
      "##ds": 1726,
      "aru": 1727,
      "approx": 1728,
      "dri": 1729,
      "tub": 1730,
      "concentrate": 1731,
      "rh": 1732,
      "cashew": 1733,
      "##ganic": 1734,
      "arugula": 1735,
      "brownies": 1736,
      "breakfast": 1737,
      "##dr": 1738,
      "lemonade": 1739,
      "bran": 1740,
      "##its": 1741,
      "ench": 1742,
      "##orn": 1743,
      "bisquick": 1744,
      "organic": 1745,
      "##ines": 1746,
      "meatballs": 1747,
      "quarts": 1748,
      "ag": 1749,
      "150": 1750,
      "##mple": 1751,
      "enchilad": 1752,
      "cube": 1753,
      "butternut": 1754,
      "##ped": 1755,
      "lef": 1756,
      "##peeled": 1757,
      "origin": 1758,
      "cres": 1759,
      "pickles": 1760,
      "##meat": 1761,
      "follows": 1762,
      "real": 1763,
      "stir": 1764,
      "##bed": 1765,
      "##ory": 1766,
      "count": 1767,
      "##ko": 1768,
      "bitters": 1769,
      "##iluted": 1770,
      "500": 1771,
      "smoot": 1772,
      "stewed": 1773,
      "smooth": 1774,
      "haz": 1775,
      "gluten": 1776,
      "aked": 1777,
      "shelled": 1778,
      "note": 1779,
      "##re": 1780,
      "##ana": 1781,
      "eag": 1782,
      "hazel": 1783,
      "jelly": 1784,
      "eagle": 1785,
      "##asch": 1786,
      "17": 1787,
      "fashioned": 1788,
      "original": 1789,
      "poppy": 1790,
      "root": 1791,
      "60": 1792,
      "unpeeled": 1793,
      "ale": 1794,
      "##aschino": 1795,
      "##ons": 1796,
      "cakes": 1797,
      "maraschino": 1798,
      "##esy": 1799,
      "##ty": 1800,
      "little": 1801,
      "vod": 1802,
      "##flower": 1803,
      "##ious": 1804,
      "vodka": 1805,
      "dou": 1806,
      "rot": 1807,
      "##bow": 1808,
      "toast": 1809,
      "##etz": 1810,
      "crabmeat": 1811,
      "make": 1812,
      "spanish": 1813,
      "##scotch": 1814,
      "butterscotch": 1815,
      "##inner": 1816,
      "gal": 1817,
      "bits": 1818,
      "minute": 1819,
      "125": 1820,
      "unbaked": 1821,
      "loin": 1822,
      "romaine": 1823,
      "pears": 1824,
      "boxes": 1825,
      "deep": 1826,
      "kale": 1827,
      "parts": 1828,
      "rhubarb": 1829,
      "##ron": 1830,
      "additional": 1831,
      "preserves": 1832,
      "##ina": 1833,
      "##ellini": 1834,
      "weed": 1835,
      "dai": 1836,
      "cross": 1837,
      "grapes": 1838,
      "cob": 1839,
      "##fish": 1840,
      "pancakes": 1841,
      "##ality": 1842,
      "layer": 1843,
      "crescent": 1844,
      "two": 1845,
      "##ank": 1846,
      "russ": 1847,
      "quality": 1848,
      "undiluted": 1849,
      "radish": 1850,
      "##den": 1851,
      "pimento": 1852,
      "by": 1853,
      "bel": 1854,
      "tri": 1855,
      "dust": 1856,
      "sir": 1857,
      "herbs": 1858,
      "granny": 1859,
      "##ti": 1860,
      "##omme": 1861,
      "ean": 1862,
      "##illet": 1863,
      "##acle": 1864,
      "raisin": 1865,
      "gu": 1866,
      "bour": 1867,
      "double": 1868,
      "ritz": 1869,
      "smith": 1870,
      "dinner": 1871,
      "made": 1872,
      "wings": 1873,
      "burg": 1874,
      "22": 1875,
      "##anese": 1876,
      "chickpeas": 1877,
      "er": 1878,
      "ki": 1879,
      "weet": 1880,
      "##enned": 1881,
      "com": 1882,
      "asian": 1883,
      "unbl": 1884,
      "sunflower": 1885,
      "ful": 1886,
      "##man": 1887,
      "quin": 1888,
      "##eached": 1889,
      "##atch": 1890,
      "julienned": 1891,
      "99": 1892,
      "sirloin": 1893,
      "##gred": 1894,
      "miracle": 1895,
      "read": 1896,
      "limes": 1897,
      "##jor": 1898,
      "equ": 1899,
      "ingred": 1900,
      "et": 1901,
      "ingredi": 1902,
      "##able": 1903,
      "pple": 1904,
      "pickle": 1905,
      "lee": 1906,
      "emon": 1907,
      "pretz": 1908,
      "berries": 1909,
      "crosswise": 1910,
      "reserved": 1911,
      "oyster": 1912,
      "unbleached": 1913,
      "ur": 1914,
      "process": 1915,
      "ore": 1916,
      "crusts": 1917,
      "this": 1918,
      "parmig": 1919,
      "super": 1920,
      "press": 1921,
      "sau": 1922,
      "##ping": 1923,
      "leg": 1924,
      "marshmallow": 1925,
      "ut": 1926,
      "bowl": 1927,
      "##ara": 1928,
      "rub": 1929,
      "marinated": 1930,
      "300": 1931,
      "penne": 1932,
      "leek": 1933,
      "stemmed": 1934,
      "##tal": 1935,
      "##oli": 1936,
      "##joram": 1937,
      "saff": 1938,
      "heaping": 1939,
      "75": 1940,
      "romano": 1941,
      "veal": 1942,
      "marjoram": 1943,
      "crock": 1944,
      "nat": 1945,
      "lentils": 1946,
      "##se": 1947,
      "scallops": 1948,
      "pw": 1949,
      "pickled": 1950,
      "soaked": 1951,
      "pinto": 1952,
      "##ized": 1953,
      "quinoa": 1954,
      "vegg": 1955,
      "packet": 1956,
      "sandwiches": 1957,
      "sw": 1958,
      "pwdr": 1959,
      "man": 1960,
      "leeks": 1961,
      "farm": 1962,
      "##mel": 1963,
      "blanched": 1964,
      "##iut": 1965,
      "lg": 1966,
      "##ingu": 1967,
      "##aff": 1968,
      "wafers": 1969,
      "chunky": 1970,
      "nectar": 1971,
      "##iutto": 1972,
      "dog": 1973,
      "tam": 1974,
      "##rowave": 1975,
      "beets": 1976,
      "##te": 1977,
      "boned": 1978,
      "prosc": 1979,
      "bourbon": 1980,
      "dusting": 1981,
      "store": 1982,
      "ball": 1983,
      "shi": 1984,
      "jo": 1985,
      "noodle": 1986,
      "king": 1987,
      "40": 1988,
      "##agon": 1989,
      "unt": 1990,
      "pop": 1991,
      "vegan": 1992,
      "##ipped": 1993,
      "summer": 1994,
      "kar": 1995,
      "dump": 1996,
      "se": 1997,
      "spiced": 1998,
      "##jun": 1999,
      "##etta": 2000,
      "##ma": 2001,
      "parmigiano": 2002,
      "##root": 2003,
      "bittersweet": 2004,
      "marinade": 2005,
      "fig": 2006,
      "cous": 2007,
      "frit": 2008,
      "prosciutto": 2009,
      "mic": 2010,
      "##lets": 2011,
      "ass": 2012,
      "elbow": 2013,
      "creamed": 2014,
      "kernels": 2015,
      "oven": 2016,
      "grand": 2017,
      "berry": 2018,
      "apricots": 2019,
      "##ggiano": 2020,
      "##kraut": 2021,
      "cann": 2022,
      "natur": 2023,
      "german": 2024,
      "shoul": 2025,
      "##aki": 2026,
      "##eri": 2027,
      "##cous": 2028,
      "##ately": 2029,
      "##erkraut": 2030,
      "slaw": 2031,
      "reggiano": 2032,
      "##vil": 2033,
      "400": 2034,
      "avocados": 2035,
      "##ucc": 2036,
      "eanut": 2037,
      "lingu": 2038,
      "##uy": 2039,
      "##itake": 2040,
      "##bq": 2041,
      "cupcakes": 2042,
      "##len": 2043,
      "dec": 2044,
      "mayo": 2045,
      "enough": 2046,
      "ed": 2047,
      "granu": 2048,
      "##iz": 2049,
      "##land": 2050,
      "country": 2051,
      "##ruit": 2052,
      "traw": 2053,
      "##stard": 2054,
      "jap": 2055,
      "rilled": 2056,
      "##bler": 2057,
      "ado": 2058,
      "bunches": 2059,
      "diagon": 2060,
      "few": 2061,
      "pic": 2062,
      "##illi": 2063,
      "bbq": 2064,
      "dashes": 2065,
      "nor": 2066,
      "##iff": 2067,
      "karo": 2068,
      "##ices": 2069,
      "clams": 2070,
      "approxim": 2071,
      "couscous": 2072,
      "anana": 2073,
      "##ating": 2074,
      "pepperoni": 2075,
      "##orted": 2076,
      "##ost": 2077,
      "##eets": 2078,
      "etc": 2079,
      "tops": 2080,
      "saf": 2081,
      "##risp": 2082,
      "fett": 2083,
      "##eseed": 2084,
      "japanese": 2085,
      "simple": 2086,
      "natural": 2087,
      "sav": 2088,
      "glazed": 2089,
      "steam": 2090,
      "##corn": 2091,
      "kg": 2092,
      "sheets": 2093,
      "##hey": 2094,
      "cover": 2095,
      "dir": 2096,
      "granules": 2097,
      "ingredients": 2098,
      "adobo": 2099,
      "trawberry": 2100,
      "##ket": 2101,
      "delic": 2102,
      "shav": 2103,
      "rounds": 2104,
      "panko": 2105,
      "##entos": 2106,
      "spec": 2107,
      "##ouse": 2108,
      "my": 2109,
      "sauerkraut": 2110,
      "##thern": 2111,
      "ump": 2112,
      "##assic": 2113,
      "##ban": 2114,
      "kind": 2115,
      "burgers": 2116,
      "ne": 2117,
      "##ence": 2118,
      "hers": 2119,
      "##eway": 2120,
      "##ulled": 2121,
      "roccoli": 2122,
      "drizz": 2123,
      "barley": 2124,
      "jalapenos": 2125,
      "unfl": 2126,
      "off": 2127,
      "##umbo": 2128,
      "heads": 2129,
      "safeway": 2130,
      "are": 2131,
      "bri": 2132,
      "skillet": 2133,
      "snow": 2134,
      "als": 2135,
      "hershey": 2136,
      "delight": 2137,
      "##avored": 2138,
      "##try": 2139,
      "then": 2140,
      "##rain": 2141,
      "snipped": 2142,
      "day": 2143,
      "##ills": 2144,
      "au": 2145,
      "krisp": 2146,
      "approximately": 2147,
      "smashed": 2148,
      "fi": 2149,
      "##megran": 2150,
      "pink": 2151,
      "unflavored": 2152,
      "cashews": 2153,
      "##thy": 2154,
      "##end": 2155,
      "deli": 2156,
      "saffron": 2157,
      "##let": 2158,
      "rye": 2159,
      "bought": 2160,
      "bags": 2161,
      "whis": 2162,
      "heese": 2163,
      "added": 2164,
      "dairy": 2165,
      "oc": 2166,
      "21": 2167,
      "tap": 2168,
      "la": 2169,
      "cajun": 2170,
      "oreo": 2171,
      "##bury": 2172,
      "great": 2173,
      "splend": 2174,
      "custard": 2175,
      "##esso": 2176,
      "shiitake": 2177,
      "crispy": 2178,
      "##illo": 2179,
      "delicious": 2180,
      "pressed": 2181,
      "##ita": 2182,
      "##olid": 2183,
      "ind": 2184,
      "splenda": 2185,
      "ears": 2186,
      "##megranate": 2187,
      "orn": 2188,
      "mer": 2189,
      "##rano": 2190,
      "button": 2191,
      "##sh": 2192,
      "bottled": 2193,
      "##ello": 2194,
      "ear": 2195,
      "##mint": 2196,
      "le": 2197,
      "pistachio": 2198,
      "ready": 2199,
      "ven": 2200,
      "cobbler": 2201,
      "grapef": 2202,
      "bagu": 2203,
      "reamy": 2204,
      "##ree": 2205,
      "browned": 2206,
      "will": 2207,
      "chowder": 2208,
      "##yaki": 2209,
      "some": 2210,
      "fillet": 2211,
      "steamed": 2212,
      "just": 2213,
      "verm": 2214,
      "range": 2215,
      "crout": 2216,
      "caster": 2217,
      "##ets": 2218,
      "dep": 2219,
      "##by": 2220,
      "##umm": 2221,
      "pimi": 2222,
      "strong": 2223,
      "esp": 2224,
      "mill": 2225,
      "serrano": 2226,
      "inc": 2227,
      "tex": 2228,
      "cheesy": 2229,
      "##iso": 2230,
      "kal": 2231,
      "##chi": 2232,
      "crunchy": 2233,
      "##scar": 2234,
      "until": 2235,
      "##mas": 2236,
      "russet": 2237,
      "popcorn": 2238,
      "refried": 2239,
      "00": 2240,
      "pomegranate": 2241,
      "19": 2242,
      "rock": 2243,
      "eef": 2244,
      "##rus": 2245,
      "il": 2246,
      "shoulder": 2247,
      "##lings": 2248,
      "lite": 2249,
      "cit": 2250,
      "lefto": 2251,
      "have": 2252,
      "##food": 2253,
      "chori": 2254,
      "hun": 2255,
      "gruy": 2256,
      "##ove": 2257,
      "##ommend": 2258,
      "##utes": 2259,
      "recommend": 2260,
      "mor": 2261,
      "##iny": 2262,
      "oasted": 2263,
      "##ested": 2264,
      "heal": 2265,
      "chorizo": 2266,
      "krispies": 2267,
      "anise": 2268,
      "microwave": 2269,
      "linguine": 2270,
      "masala": 2271,
      "depend": 2272,
      "umpkin": 2273,
      "##ffle": 2274,
      "also": 2275,
      "##rist": 2276,
      "##ections": 2277,
      "greas": 2278,
      "wide": 2279,
      "##melon": 2280,
      "225": 2281,
      "##ao": 2282,
      "##amata": 2283,
      "cooker": 2284,
      "camp": 2285,
      "##air": 2286,
      "##away": 2287,
      "gruyere": 2288,
      "flax": 2289,
      "pita": 2290,
      "fra": 2291,
      "##sticks": 2292,
      "##uteed": 2293,
      "hazelnuts": 2294,
      "##rub": 2295,
      "##berg": 2296,
      "##ture": 2297,
      "peppermint": 2298,
      "seafood": 2299,
      "calor": 2300,
      "scrub": 2301,
      "uick": 2302,
      "cod": 2303,
      "grapefruit": 2304,
      "enchilada": 2305,
      "##ier": 2306,
      "jars": 2307,
      "sheet": 2308,
      "reserve": 2309,
      "assorted": 2310,
      "decor": 2311,
      "clam": 2312,
      "##bin": 2313,
      "##ioli": 2314,
      "big": 2315,
      "bruss": 2316,
      "mc": 2317,
      "quiche": 2318,
      "chop": 2319,
      "smoke": 2320,
      "devil": 2321,
      "##nips": 2322,
      "radishes": 2323,
      "scrubbed": 2324,
      "sake": 2325,
      "fettucc": 2326,
      "##run": 2327,
      "##agne": 2328,
      "kalamata": 2329,
      "cre": 2330,
      "eye": 2331,
      "special": 2332,
      "caraway": 2333,
      "baguette": 2334,
      "garban": 2335,
      "fam": 2336,
      "spe": 2337,
      "four": 2338,
      "pet": 2339,
      "ques": 2340,
      "pre": 2341,
      "creole": 2342,
      "##ace": 2343,
      "##dough": 2344,
      "lobs": 2345,
      "##uch": 2346,
      "##tarian": 2347,
      "flow": 2348,
      "##ment": 2349,
      "##ioc": 2350,
      "baker": 2351,
      "prov": 2352,
      "##ila": 2353,
      "flank": 2354,
      "poul": 2355,
      "dumplings": 2356,
      "otato": 2357,
      "classic": 2358,
      "okra": 2359,
      "using": 2360,
      "poultry": 2361,
      "##ls": 2362,
      "picy": 2363,
      "##utney": 2364,
      "luk": 2365,
      "##illsbury": 2366,
      "anchovy": 2367,
      "##ug": 2368,
      "##ewarm": 2369,
      "lukewarm": 2370,
      "espr": 2371,
      "exican": 2372,
      "##yst": 2373,
      "drink": 2374,
      "##ristmas": 2375,
      "table": 2376,
      "too": 2377,
      "espresso": 2378,
      "leftover": 2379,
      "##int": 2380,
      "amount": 2381,
      "pods": 2382,
      "veggie": 2383,
      "croutons": 2384,
      "##isin": 2385,
      "brow": 2386,
      "smoothie": 2387,
      "chutney": 2388,
      "bat": 2389,
      "##tern": 2390,
      "browns": 2391,
      "tail": 2392,
      "##ioca": 2393,
      "##yl": 2394,
      "shaved": 2395,
      "ey": 2396,
      "warmed": 2397,
      "tru": 2398,
      "pillsbury": 2399,
      "loos": 2400,
      "champ": 2401,
      "##idge": 2402,
      "##ily": 2403,
      "beet": 2404,
      "yuk": 2405,
      "##alia": 2406,
      "##ingers": 2407,
      "80": 2408,
      "gingerroot": 2409,
      "duck": 2410,
      "78": 2411,
      "tapioca": 2412,
      "garbanzo": 2413,
      "uc": 2414,
      "##malade": 2415,
      "har": 2416,
      "fraiche": 2417,
      "page": 2418,
      "38": 2419,
      "yukon": 2420,
      "cornfl": 2421,
      "alf": 2422,
      "cryst": 2423,
      "lima": 2424,
      "calorie": 2425,
      "our": 2426,
      "marmalade": 2427,
      "##wh": 2428,
      "panc": 2429,
      "minutes": 2430,
      "paper": 2431,
      "ess": 2432,
      "tip": 2433,
      "loosely": 2434,
      "fettuccine": 2435,
      "##ml": 2436,
      "##ool": 2437,
      "brownie": 2438,
      "tr": 2439,
      "watermelon": 2440,
      "##olone": 2441,
      "brush": 2442,
      "lard": 2443,
      "##eez": 2444,
      "supr": 2445,
      "##ones": 2446,
      "hrimp": 2447,
      "##acha": 2448,
      "dipping": 2449,
      "provolone": 2450,
      "##ailable": 2451,
      "mous": 2452,
      "teri": 2453,
      "mors": 2454,
      "ty": 2455,
      "amar": 2456,
      "sprinkling": 2457,
      "##elli": 2458,
      "bulb": 2459,
      "arb": 2460,
      "sourdough": 2461,
      "don": 2462,
      "##rish": 2463,
      "ruit": 2464,
      "bulk": 2465,
      "ups": 2466,
      "##ald": 2467,
      "total": 2468,
      "match": 2469,
      "chard": 2470,
      "brussels": 2471,
      "muffin": 2472,
      "##ised": 2473,
      "teriyaki": 2474,
      "pers": 2475,
      "##oper": 2476,
      "pancetta": 2477,
      "##na": 2478,
      "lue": 2479,
      "##lud": 2480,
      "mirin": 2481,
      "depending": 2482,
      "irish": 2483,
      "##ppers": 2484,
      "##other": 2485,
      "cons": 2486,
      "zested": 2487,
      "savory": 2488,
      "diss": 2489,
      "##ios": 2490,
      "champagne": 2491,
      "##cha": 2492,
      "bris": 2493,
      "sausages": 2494,
      "dissol": 2495,
      "liv": 2496,
      "utter": 2497,
      "broil": 2498,
      "##ator": 2499,
      "sooper": 2500,
      "dream": 2501,
      "caps": 2502,
      "recommended": 2503,
      "includ": 2504,
      "that": 2505,
      "party": 2506,
      "agave": 2507,
      "tel": 2508,
      "supreme": 2509,
      "bet": 2510,
      "gen": 2511,
      "blackberries": 2512,
      "curd": 2513,
      "skew": 2514,
      "block": 2515,
      "vid": 2516,
      "vari": 2517,
      "eat": 2518,
      "tah": 2519,
      "work": 2520,
      "drain": 2521,
      "miso": 2522,
      "diagonally": 2523,
      "tra": 2524,
      "brew": 2525,
      "##arpone": 2526,
      "sauteed": 2527,
      "quarters": 2528,
      "##carpone": 2529,
      "figs": 2530,
      "##law": 2531,
      "snack": 2532,
      "morsels": 2533,
      "ti": 2534,
      "lip": 2535,
      "chow": 2536,
      "pistachios": 2537,
      "pimentos": 2538,
      "##ito": 2539,
      "sq": 2540,
      "crem": 2541,
      "##ati": 2542,
      "disc": 2543,
      "spears": 2544,
      "val": 2545,
      "club": 2546,
      "without": 2547,
      "available": 2548,
      "##leslaw": 2549,
      "110": 2550,
      "chilli": 2551,
      "mixture": 2552,
      "cannellini": 2553,
      "##ants": 2554,
      "pretzels": 2555,
      "##elle": 2556,
      "##okes": 2557,
      "im": 2558,
      "lin": 2559,
      "##cress": 2560,
      "mascarpone": 2561,
      "##rg": 2562,
      "healthy": 2563,
      "##ami": 2564,
      "mousse": 2565,
      "##alo": 2566,
      "than": 2567,
      "vidalia": 2568,
      "##itos": 2569,
      "ver": 2570,
      "##b0": 2571,
      "brisket": 2572,
      "##00b0": 2573,
      "citrus": 2574,
      "ege": 2575,
      "pinches": 2576,
      "##ky": 2577,
      "starch": 2578,
      "##u00b0": 2579,
      "prun": 2580,
      "##ante": 2581,
      "ranberry": 2582,
      "ucchini": 2583,
      "lipton": 2584,
      "pobl": 2585,
      "##ison": 2586,
      "polen": 2587,
      "polenta": 2588,
      "coleslaw": 2589,
      "flake": 2590,
      "##amole": 2591,
      "house": 2592,
      "whiz": 2593,
      "spices": 2594,
      "lrg": 2595,
      "lobster": 2596,
      "cheez": 2597,
      "sri": 2598,
      "pepperidge": 2599,
      "reen": 2600,
      "lack": 2601,
      "enchiladas": 2602,
      "##ached": 2603,
      "tahini": 2604,
      "slow": 2605,
      "##acamole": 2606,
      "watercress": 2607,
      "oscar": 2608,
      "dissolved": 2609,
      "##bell": 2610,
      "pearl": 2611,
      "tequ": 2612,
      "##otto": 2613,
      "port": 2614,
      "##ties": 2615,
      "ork": 2616,
      "sec": 2617,
      "pinach": 2618,
      "liter": 2619,
      "##outh": 2620,
      "vegetarian": 2621,
      "tequila": 2622,
      "inn": 2623,
      "##aj": 2624,
      "ast": 2625,
      "##arded": 2626,
      "land": 2627,
      "##aya": 2628,
      "whiskey": 2629,
      "##corino": 2630,
      "sho": 2631,
      "aid": 2632,
      "mayer": 2633,
      "##rants": 2634,
      "##loaf": 2635,
      "srir": 2636,
      "garam": 2637,
      "below": 2638,
      "fully": 2639,
      "full": 2640,
      "sor": 2641,
      "picked": 2642,
      "pecorino": 2643,
      "jumbo": 2644,
      "down": 2645,
      "spoon": 2646,
      "gall": 2647,
      "sriracha": 2648,
      "115": 2649,
      "fryer": 2650,
      "accor": 2651,
      "artichokes": 2652,
      "lakes": 2653,
      "58": 2654,
      "hulled": 2655,
      "##pes": 2656,
      "##redo": 2657,
      "currants": 2658,
      "according": 2659,
      "gratin": 2660,
      "##ingue": 2661,
      "##ont": 2662,
      "poblano": 2663,
      "ram": 2664,
      "##mick": 2665,
      "veg": 2666,
      "##ros": 2667,
      "corned": 2668,
      "marinara": 2669,
      "ineapple": 2670,
      "zesty": 2671,
      "makes": 2672,
      "sweeten": 2673,
      "##cormick": 2674,
      "hoisin": 2675,
      "purple": 2676,
      "drizzling": 2677,
      "bottles": 2678,
      "campbell": 2679,
      "eyed": 2680,
      "granola": 2681,
      "dogs": 2682,
      "cac": 2683,
      "##acho": 2684,
      "##table": 2685,
      "ma": 2686,
      "750": 2687,
      "##ero": 2688,
      "##rog": 2689,
      "mccormick": 2690,
      "##cini": 2691,
      "orzo": 2692,
      "id": 2693,
      "talian": 2694,
      "ever": 2695,
      "pul": 2696,
      "ends": 2697,
      "alfredo": 2698,
      "##ilit": 2699,
      "toffee": 2700,
      "coating": 2701,
      "want": 2702,
      "sherb": 2703,
      "##75": 2704,
      "buttered": 2705,
      "##ado": 2706,
      "##uri": 2707,
      "sherbet": 2708,
      "ow": 2709,
      "equal": 2710,
      "##aiian": 2711,
      "pancake": 2712,
      "##adam": 2713,
      "##bas": 2714,
      "patties": 2715,
      "hell": 2716,
      "gg": 2717,
      "tacos": 2718,
      "##ua": 2719,
      "candies": 2720,
      "##16": 2721,
      "dut": 2722,
      "skewers": 2723,
      "jiff": 2724,
      "brushing": 2725,
      "gh": 2726,
      "risotto": 2727,
      "left": 2728,
      "meringue": 2729,
      "jiffy": 2730,
      "temp": 2731,
      "millilit": 2732,
      "essence": 2733,
      "valley": 2734,
      "##ued": 2735,
      "meatloaf": 2736,
      "save": 2737,
      "pickling": 2738,
      "gor": 2739,
      "julienne": 2740,
      "brewed": 2741,
      "pints": 2742,
      "rab": 2743,
      "pimiento": 2744,
      "##ect": 2745,
      "muss": 2746,
      "appet": 2747,
      "basic": 2748,
      "##ibut": 2749,
      "est": 2750,
      "guacamole": 2751,
      "##amels": 2752,
      "waff": 2753,
      "bottom": 2754,
      "five": 2755,
      "type": 2756,
      "pureed": 2757,
      "oysters": 2758,
      "won": 2759,
      "scoo": 2760,
      "nonstick": 2761,
      "resh": 2762,
      "hazelnut": 2763,
      "mom": 2764,
      "colby": 2765,
      "picante": 2766,
      "##adamia": 2767,
      "sweetener": 2768,
      "back": 2769,
      "##ama": 2770,
      "carn": 2771,
      "##uffed": 2772,
      "three": 2773,
      "aus": 2774,
      "links": 2775,
      "##enter": 2776,
      "grill": 2777,
      "caramels": 2778,
      "##esson": 2779,
      "wesson": 2780,
      "legs": 2781,
      "29": 2782,
      "##ico": 2783,
      "##zn": 2784,
      "grits": 2785,
      "oconut": 2786,
      "scant": 2787,
      "blackberry": 2788,
      "hellman": 2789,
      "frzn": 2790,
      "own": 2791,
      "##che": 2792,
      "date": 2793,
      "christmas": 2794,
      "##night": 2795,
      "##elbas": 2796,
      "cutlets": 2797,
      "mein": 2798,
      "ausage": 2799,
      "shap": 2800,
      "pretzel": 2801,
      "twis": 2802,
      "hines": 2803,
      "batter": 2804,
      "hor": 2805,
      "bones": 2806,
      "##mati": 2807,
      "##uncan": 2808,
      "burger": 2809,
      "better": 2810,
      "rose": 2811,
      "omemade": 2812,
      "arm": 2813,
      "duncan": 2814,
      "wood": 2815,
      "herry": 2816,
      "##idden": 2817,
      "##alm": 2818,
      "family": 2819,
      "appetiz": 2820,
      "works": 2821,
      "brie": 2822,
      "lueberry": 2823,
      "south": 2824,
      "directions": 2825,
      "##elbasa": 2826,
      "##etto": 2827,
      "rag": 2828,
      "halibut": 2829,
      "ap": 2830,
      "macadamia": 2831,
      "bos": 2832,
      "braised": 2833,
      "##yllo": 2834,
      "##met": 2835,
      "snap": 2836,
      "##grass": 2837,
      "tang": 2838,
      "46": 2839,
      "##zola": 2840,
      "venison": 2841,
      "kiw": 2842,
      "mussels": 2843,
      "##tob": 2844,
      "##ote": 2845,
      "dutch": 2846,
      "base": 2847,
      "ble": 2848,
      "hidden": 2849,
      "basmati": 2850,
      "preferred": 2851,
      "##und": 2852,
      "tuffed": 2853,
      "bites": 2854,
      "120": 2855,
      "stove": 2856,
      "##ifted": 2857,
      "andor": 2858,
      "##ada": 2859,
      "48": 2860,
      "##gonzola": 2861,
      "center": 2862,
      "much": 2863,
      "phyllo": 2864,
      "choy": 2865,
      "deseed": 2866,
      "high": 2867,
      "tamari": 2868,
      "##be": 2869,
      "sna": 2870,
      "##ava": 2871,
      "crusty": 2872,
      "packets": 2873,
      "pass": 2874,
      "pies": 2875,
      "northern": 2876,
      "kit": 2877,
      "##lt": 2878,
      "lump": 2879,
      "texas": 2880,
      "sprinkles": 2881,
      "discarded": 2882,
      "iceberg": 2883,
      "vermouth": 2884,
      "foods": 2885,
      "deseeded": 2886,
      "gener": 2887,
      "##ical": 2888,
      "amp": 2889,
      "##tobello": 2890,
      "heat": 2891,
      "##ental": 2892,
      "garden": 2893,
      "cro": 2894,
      "drop": 2895,
      "sing": 2896,
      "##itas": 2897,
      "lemongrass": 2898,
      "tortellini": 2899,
      "comp": 2900,
      "36": 2901,
      "filled": 2902,
      "eggplants": 2903,
      "kielbasa": 2904,
      "splash": 2905,
      "sur": 2906,
      "wafer": 2907,
      "unsifted": 2908,
      "##ettes": 2909,
      "##ible": 2910,
      "##atillo": 2911,
      "450": 2912,
      "0206": 2913,
      "gorgonzola": 2914,
      "##anks": 2915,
      "deg": 2916,
      "tails": 2917,
      "triple": 2918,
      "mal": 2919,
      "combin": 2920,
      "wax": 2921,
      "wedge": 2922,
      "spark": 2923,
      "tid": 2924,
      "aramel": 2925,
      "how": 2926,
      "island": 2927,
      "45": 2928,
      "arro": 2929,
      "combination": 2930,
      "wrappers": 2931,
      "egetable": 2932,
      "rand": 2933,
      "##aves": 2934,
      "solid": 2935,
      "buff": 2936,
      "kab": 2937,
      "sund": 2938,
      "mm": 2939,
      "variet": 2940,
      "burr": 2941,
      "sch": 2942,
      "scald": 2943,
      "fluff": 2944,
      "70": 2945,
      "##ago": 2946,
      "##esar": 2947,
      "sprinkle": 2948,
      "rich": 2949,
      "scr": 2950,
      "popped": 2951,
      "tomatillo": 2952,
      "tidb": 2953,
      "##uds": 2954,
      "##rogano": 2955,
      "dripping": 2956,
      "chex": 2957,
      "rea": 2958,
      "aw": 2959,
      "portobello": 2960,
      "drum": 2961,
      "scalded": 2962,
      "##roganoff": 2963,
      "hair": 2964,
      "overnight": 2965,
      "envelopes": 2966,
      "pc": 2967,
      "##fect": 2968,
      "scra": 2969,
      "was": 2970,
      "gm": 2971,
      "cm": 2972,
      "##ould": 2973,
      "##gn": 2974,
      "rotel": 2975,
      "section": 2976,
      "tidbits": 2977,
      "##burg": 2978,
      "salami": 2979,
      "ramen": 2980,
      "oney": 2981,
      "##ct": 2982,
      "patted": 2983,
      "heesy": 2984,
      "plan": 2985,
      "time": 2986,
      "##orio": 2987,
      "stroganoff": 2988,
      "cremini": 2989,
      "##de": 2990,
      "um": 2991,
      "fo": 2992,
      "tiny": 2993,
      "ton": 2994,
      "them": 2995,
      "pil": 2996,
      "ome": 2997,
      "##iforn": 2998,
      "##fine": 2999,
      "amaretto": 3000,
      "spar": 3001,
      "##rel": 3002,
      "kiwi": 3003,
      "##ord": 3004,
      "pa": 3005,
      "arborio": 3006,
      "##ifornia": 3007,
      "cane": 3008,
      "superfine": 3009,
      "tbl": 3010,
      "##lua": 3011,
      "far": 3012,
      "melon": 3013,
      "gin": 3014,
      "including": 3015,
      "lengths": 3016,
      "arbec": 3017,
      "buffalo": 3018,
      "##abi": 3019,
      "##rees": 3020,
      "kabo": 3021,
      "wraps": 3022,
      "shortbread": 3023,
      "gallon": 3024,
      "##rop": 3025,
      "urkey": 3026,
      "kno": 3027,
      "drippings": 3028,
      "pou": 3029,
      "thickly": 3030,
      "26": 3031,
      "plums": 3032,
      "##ili": 3033,
      "til": 3034,
      "mul": 3035,
      "##oll": 3036,
      "##tions": 3037,
      "accent": 3038,
      "##apia": 3039,
      "grapeseed": 3040,
      "marsala": 3041,
      "scones": 3042,
      "hellmann": 3043,
      "90": 3044,
      "pcs": 3045,
      "trea": 3046,
      "bok": 3047,
      "colored": 3048,
      "haw": 3049,
      "souffle": 3050,
      "loaves": 3051,
      "smok": 3052,
      "##oud": 3053,
      "tast": 3054,
      "hour": 3055,
      "southern": 3056,
      "##ux": 3057,
      "milliliters": 3058,
      "caramelized": 3059,
      "greasing": 3060,
      "ok": 3061,
      "moist": 3062,
      "hite": 3063,
      "fries": 3064,
      "##tte": 3065,
      "prunes": 3066,
      "humm": 3067,
      "##ened": 3068,
      "sparkling": 3069,
      "def": 3070,
      "350": 3071,
      "##ik": 3072,
      "omato": 3073,
      "hus": 3074,
      "##iter": 3075,
      "##tein": 3076,
      "##ign": 3077,
      "servings": 3078,
      "ud": 3079,
      "ea": 3080,
      "puffs": 3081,
      "ried": 3082,
      "##ibs": 3083,
      "af": 3084,
      "palm": 3085,
      "nap": 3086,
      "##chen": 3087,
      "crusted": 3088,
      "##ambal": 3089,
      "##ified": 3090,
      "protein": 3091,
      "shake": 3092,
      "generous": 3093,
      "degrees": 3094,
      "whate": 3095,
      "variety": 3096,
      "##ba": 3097,
      "whatever": 3098,
      "bir": 3099,
      "tater": 3100,
      "##rant": 3101,
      "##ouille": 3102,
      "parsnips": 3103,
      "kah": 3104,
      "kool": 3105,
      "chiff": 3106,
      "flor": 3107,
      "##rise": 3108,
      "##my": 3109,
      "##art": 3110,
      "rig": 3111,
      "hick": 3112,
      "ecan": 3113,
      "queso": 3114,
      "##iana": 3115,
      "nest": 3116,
      "saltine": 3117,
      "##iterran": 3118,
      "dist": 3119,
      "hawaiian": 3120,
      "caesar": 3121,
      "tilapia": 3122,
      "##pan": 3123,
      "##iterranean": 3124,
      "hab": 3125,
      "##get": 3126,
      "poached": 3127,
      "toppings": 3128,
      "blood": 3129,
      "rotini": 3130,
      "rad": 3131,
      "##efore": 3132,
      "##oons": 3133,
      "##boned": 3134,
      "chiffon": 3135,
      "##ort": 3136,
      "fritters": 3137,
      "skins": 3138,
      "herbed": 3139,
      "meas": 3140,
      "remove": 3141,
      "processed": 3142,
      "thread": 3143,
      "kahlua": 3144,
      "##zer": 3145,
      "ste": 3146,
      "wrapped": 3147,
      "rack": 3148,
      "gum": 3149,
      "scalloped": 3150,
      "##ura": 3151,
      "distilled": 3152,
      "rown": 3153,
      "##ji": 3154,
      "deboned": 3155,
      "cle": 3156,
      "##nier": 3157,
      "win": 3158,
      "indian": 3159,
      "dozen": 3160,
      "35": 3161,
      "##ats": 3162,
      "dor": 3163,
      "snapper": 3164,
      "cacao": 3165,
      "consomme": 3166,
      "liver": 3167,
      "ah": 3168,
      "##talou": 3169,
      "marnier": 3170,
      "wonton": 3171,
      "waffles": 3172,
      "trad": 3173,
      "law": 3174,
      "chickens": 3175,
      "refrigerator": 3176,
      "holid": 3177,
      "holiday": 3178,
      "chickpea": 3179,
      "##ness": 3180,
      "bund": 3181,
      "jer": 3182,
      "crep": 3183,
      "trout": 3184,
      "scraped": 3185,
      "ii": 3186,
      "##ots": 3187,
      "ones": 3188,
      "##rawns": 3189,
      "before": 3190,
      "##garian": 3191,
      "grandma": 3192,
      "prawns": 3193,
      "curried": 3194,
      "tips": 3195,
      "lad": 3196,
      "kitchen": 3197,
      "hummus": 3198,
      "silk": 3199,
      "torte": 3200,
      "planters": 3201,
      "portab": 3202,
      "mold": 3203,
      "eal": 3204,
      "chew": 3205,
      "hili": 3206,
      "yams": 3207,
      "rubbed": 3208,
      "pared": 3209,
      "diet": 3210,
      "asi": 3211,
      "rav": 3212,
      "barbecued": 3213,
      "brit": 3214,
      "doz": 3215,
      "ragu": 3216,
      "haban": 3217,
      "raising": 3218,
      "font": 3219,
      "pulp": 3220,
      "##iled": 3221,
      "##fa": 3222,
      "cav": 3223,
      "cola": 3224,
      "melt": 3225,
      "grind": 3226,
      "fres": 3227,
      "asiago": 3228,
      "kiss": 3229,
      "grey": 3230,
      "covered": 3231,
      "imp": 3232,
      "##ays": 3233,
      "tube": 3234,
      "traditional": 3235,
      "key": 3236,
      "navy": 3237,
      "stiff": 3238,
      "string": 3239,
      "##vers": 3240,
      "grm": 3241,
      "##acc": 3242,
      "saute": 3243,
      "winter": 3244,
      "##taloupe": 3245,
      "fontina": 3246,
      "##avour": 3247,
      "mace": 3248,
      "california": 3249,
      "arrot": 3250,
      "##iel": 3251,
      "both": 3252,
      "##kets": 3253,
      "##of": 3254,
      "##ibb": 3255,
      "##inz": 3256,
      "acorn": 3257,
      "##nog": 3258,
      "aco": 3259,
      "mr": 3260,
      "call": 3261,
      "##olina": 3262,
      "ld": 3263,
      "##etty": 3264,
      "mat": 3265,
      "tend": 3266,
      "asta": 3267,
      "spir": 3268,
      "faj": 3269,
      "bass": 3270,
      "##cy": 3271,
      "aged": 3272,
      "1t": 3273,
      "##atoni": 3274,
      "veggies": 3275,
      "inger": 3276,
      "una": 3277,
      "lou": 3278,
      "kor": 3279,
      "char": 3280,
      "##icelli": 3281,
      "##itation": 3282,
      "175": 3283,
      "##eribs": 3284,
      "boston": 3285,
      "wash": 3286,
      "drumsticks": 3287,
      "heinz": 3288,
      "cour": 3289,
      "##gnac": 3290,
      "bi": 3291,
      "pkt": 3292,
      "##estern": 3293,
      "deviled": 3294,
      "oriental": 3295,
      "acon": 3296,
      "cured": 3297,
      "ravioli": 3298,
      "rench": 3299,
      "##ths": 3300,
      "cognac": 3301,
      "truffle": 3302,
      "habanero": 3303,
      "bamb": 3304,
      "pilaf": 3305,
      "112": 3306,
      "##bet": 3307,
      "##rosted": 3308,
      "##ssom": 3309,
      "spareribs": 3310,
      "blossom": 3311,
      "almon": 3312,
      "home": 3313,
      "lasagne": 3314,
      "cantaloupe": 3315,
      "nacho": 3316,
      "8oz": 3317,
      "bamboo": 3318,
      "vermicelli": 3319,
      "imitation": 3320,
      "##cream": 3321,
      "serves": 3322,
      "side": 3323,
      "fire": 3324,
      "ghee": 3325,
      "gi": 3326,
      "atmeal": 3327,
      "square": 3328,
      "heart": 3329,
      "brick": 3330,
      "paghetti": 3331,
      "##orr": 3332,
      "brittle": 3333,
      "mach": 3334,
      "barrel": 3335,
      "defrosted": 3336,
      "fil": 3337,
      "nestle": 3338,
      "tarts": 3339,
      "break": 3340,
      "##abet": 3341,
      "buck": 3342,
      "##erie": 3343,
      "shaped": 3344,
      "proven": 3345,
      "arlic": 3346,
      "stone": 3347,
      "catfish": 3348,
      "yo": 3349,
      "##aky": 3350,
      "turnips": 3351,
      "sorbet": 3352,
      "ush": 3353,
      "##ouda": 3354,
      "southw": 3355,
      "lady": 3356,
      "glass": 3357,
      "vi": 3358,
      "even": 3359,
      "gouda": 3360,
      "arin": 3361,
      "ort": 3362,
      "ribbon": 3363,
      "##ca": 3364,
      "##wheat": 3365,
      "##ific": 3366,
      "upside": 3367,
      "wasabi": 3368,
      "int": 3369,
      "ir": 3370,
      "casings": 3371,
      "seg": 3372,
      "##ne": 3373,
      "hominy": 3374,
      "##anger": 3375,
      "##ured": 3376,
      "alum": 3377,
      "bark": 3378,
      "##que": 3379,
      "##prise": 3380,
      "pops": 3381,
      "diagonal": 3382,
      "##nap": 3383,
      "##ially": 3384,
      "soymilk": 3385,
      "foil": 3386,
      "mu": 3387,
      "##aker": 3388,
      "perfect": 3389,
      "##irl": 3390,
      "rigatoni": 3391,
      "mrs": 3392,
      "pale": 3393,
      "lawry": 3394,
      "##dle": 3395,
      "ring": 3396,
      "fritt": 3397,
      "appetizer": 3398,
      "##chio": 3399,
      "scramb": 3400,
      "prod": 3401,
      "grease": 3402,
      "crepes": 3403,
      "shoot": 3404,
      "target": 3405,
      "knorr": 3406,
      "nav": 3407,
      "##usel": 3408,
      "innamon": 3409,
      "verde": 3410,
      "es": 3411,
      "gingerbread": 3412,
      "quesad": 3413,
      "finger": 3414,
      "##isserie": 3415,
      "##ually": 3416,
      "##lee": 3417,
      "gumbo": 3418,
      "called": 3419,
      "kat": 3420,
      "layered": 3421,
      "heated": 3422,
      "##via": 3423,
      "##alent": 3424,
      "strained": 3425,
      "coll": 3426,
      "butt": 3427,
      "strip": 3428,
      "carbon": 3429,
      "possible": 3430,
      "get": 3431,
      "crumble": 3432,
      "tenders": 3433,
      "edam": 3434,
      "papaya": 3435,
      "flaky": 3436,
      "acc": 3437,
      "lm": 3438,
      "risp": 3439,
      "velvet": 3440,
      "bol": 3441,
      "##ignon": 3442,
      "leave": 3443,
      "segm": 3444,
      "bulg": 3445,
      "##ork": 3446,
      "hickory": 3447,
      "##iti": 3448,
      "level": 3449,
      "mangoes": 3450,
      "##icchio": 3451,
      "tie": 3452,
      "portabella": 3453,
      "ce": 3454,
      "stre": 3455,
      "eggnog": 3456,
      "ay": 3457,
      "rotisserie": 3458,
      "tamar": 3459,
      "##ffles": 3460,
      "russian": 3461,
      "porcini": 3462,
      "##uxe": 3463,
      "processor": 3464,
      "way": 3465,
      "pounded": 3466,
      "scotch": 3467,
      "amb": 3468,
      "##ung": 3469,
      "thr": 3470,
      "##loins": 3471,
      "600": 3472,
      "hungarian": 3473,
      "containers": 3474,
      "##anth": 3475,
      "wrap": 3476,
      "hamburg": 3477,
      "##weed": 3478,
      "turnip": 3479,
      "##ummy": 3480,
      "chive": 3481,
      "piced": 3482,
      "currant": 3483,
      "chill": 3484,
      "cornflakes": 3485,
      "napa": 3486,
      "slo": 3487,
      "##vies": 3488,
      "streusel": 3489,
      "tenderloins": 3490,
      "person": 3491,
      "packag": 3492,
      "##era": 3493,
      "dashi": 3494,
      "tamarind": 3495,
      "##uct": 3496,
      "carb": 3497,
      "##oy": 3498,
      "hearty": 3499,
      "##hy": 3500,
      "##ual": 3501,
      "radicchio": 3502,
      "louis": 3503,
      "korean": 3504,
      "endive": 3505,
      "jas": 3506,
      "through": 3507,
      "##atta": 3508,
      "##loom": 3509,
      "anchovies": 3510,
      "handfuls": 3511,
      "frittata": 3512,
      "##irloom": 3513,
      "rolling": 3514,
      "##mine": 3515,
      "pect": 3516,
      "##ared": 3517,
      "buttercream": 3518,
      "ash": 3519,
      "imple": 3520,
      "##ball": 3521,
      "drizzle": 3522,
      "##op": 3523,
      "mocha": 3524,
      "randma": 3525,
      "find": 3526,
      "matchsticks": 3527,
      "lave": 3528,
      "nutella": 3529,
      "##shi": 3530,
      "##adian": 3531,
      "brine": 3532,
      "##ghurt": 3533,
      "ziti": 3534,
      "most": 3535,
      "doritos": 3536,
      "##ented": 3537,
      "craw": 3538,
      "had": 3539,
      "pectin": 3540,
      "fruits": 3541,
      "lavender": 3542,
      "gour": 3543,
      "##estr": 3544,
      "clean": 3545,
      "surprise": 3546,
      "notes": 3547,
      "fond": 3548,
      "navel": 3549,
      "##cho": 3550,
      "mah": 3551,
      "##stone": 3552,
      "pral": 3553,
      "crystall": 3554,
      "gingers": 3555,
      "##ivid": 3556,
      "##onge": 3557,
      "##no": 3558,
      "##chetta": 3559,
      "bru": 3560,
      "their": 3561,
      "above": 3562,
      "yoghurt": 3563,
      "##eats": 3564,
      "rip": 3565,
      "gingersnap": 3566,
      "scoops": 3567,
      "simp": 3568,
      "ct": 3569,
      "##ane": 3570,
      "bulgur": 3571,
      "epper": 3572,
      "jasmine": 3573,
      "##eb": 3574,
      "twist": 3575,
      "tanger": 3576,
      "##ains": 3577,
      "reakfast": 3578,
      "cornflour": 3579,
      "edamame": 3580,
      "omit": 3581,
      "tots": 3582,
      "threads": 3583,
      "crawfish": 3584,
      "ugar": 3585,
      "sushi": 3586,
      "crystallized": 3587,
      "sever": 3588,
      "arinated": 3589,
      "trop": 3590,
      "put": 3591,
      "##pot": 3592,
      "##ien": 3593,
      "pimientos": 3594,
      "topped": 3595,
      "ng": 3596,
      "quash": 3597,
      "chia": 3598,
      "##12": 3599,
      "passion": 3600,
      "collard": 3601,
      "hol": 3602,
      "##house": 3603,
      "several": 3604,
      "joh": 3605,
      "uncle": 3606,
      "lmond": 3607,
      "machine": 3608,
      "jarred": 3609,
      "##unt": 3610,
      "tomatillos": 3611,
      "aspberry": 3612,
      "single": 3613,
      "betty": 3614,
      "##uf": 3615,
      "log": 3616,
      "vers": 3617,
      "kisses": 3618,
      "heirloom": 3619,
      "they": 3620,
      "##undy": 3621,
      "plant": 3622,
      "ben": 3623,
      "stale": 3624,
      "sponge": 3625,
      "roasting": 3626,
      "carnation": 3627,
      "decoration": 3628,
      "##kon": 3629,
      "##ll": 3630,
      "pu": 3631,
      "partially": 3632,
      "##cup": 3633,
      "sections": 3634,
      "nutr": 3635,
      "broiler": 3636,
      "buckwheat": 3637,
      "##ori": 3638,
      "necess": 3639,
      "arbecue": 3640,
      "##uschetta": 3641,
      "diame": 3642,
      "polish": 3643,
      "##abetic": 3644,
      "diameter": 3645,
      "another": 3646,
      "doll": 3647,
      "icrowave": 3648,
      "deluxe": 3649,
      "peppercorn": 3650,
      "##eaten": 3651,
      "##eyer": 3652,
      "##ego": 3653,
      "##abatta": 3654,
      "bulbs": 3655,
      "necessary": 3656,
      "trif": 3657,
      "pricot": 3658,
      "toss": 3659,
      "bun": 3660,
      "mediterranean": 3661,
      "simply": 3662,
      "squid": 3663,
      "##box": 3664,
      "andouille": 3665,
      "##erets": 3666,
      "cou": 3667,
      "creamer": 3668,
      "##occhi": 3669,
      "flowerets": 3670,
      "85": 3671,
      "tropical": 3672,
      "least": 3673,
      "inf": 3674,
      "daikon": 3675,
      "burgundy": 3676,
      "pas": 3677,
      "unbeaten": 3678,
      "rozen": 3679,
      "izza": 3680,
      "equiv": 3681,
      "##ucked": 3682,
      "ick": 3683,
      "ciabatta": 3684,
      "ill": 3685,
      "compote": 3686,
      "##ng": 3687,
      "##icum": 3688,
      "sloppy": 3689,
      "cole": 3690,
      "##chu": 3691,
      "##gy": 3692,
      "shoots": 3693,
      "heath": 3694,
      "##aking": 3695,
      "##gether": 3696,
      "##ving": 3697,
      "##immon": 3698,
      "clear": 3699,
      "excess": 3700,
      "##cl": 3701,
      "iced": 3702,
      "pod": 3703,
      "joes": 3704,
      "##ral": 3705,
      "meyer": 3706,
      "seasonings": 3707,
      "jic": 3708,
      "##ome": 3709,
      "malt": 3710,
      "pol": 3711,
      "semolina": 3712,
      "thir": 3713,
      "capsicum": 3714,
      "rap": 3715,
      "##dock": 3716,
      "mag": 3717,
      "cher": 3718,
      "crystal": 3719,
      "##cal": 3720,
      "amburger": 3721,
      "jicama": 3722,
      "accom": 3723,
      "##osh": 3724,
      "gn": 3725,
      "starter": 3726,
      "juices": 3727,
      "##ya": 3728,
      "##ache": 3729,
      "together": 3730,
      "##iddle": 3731,
      "seaweed": 3732,
      "stack": 3733,
      "pulled": 3734,
      "##cial": 3735,
      "ushroom": 3736,
      "##eel": 3737,
      "clar": 3738,
      "accompan": 3739,
      "rain": 3740,
      "##kins": 3741,
      "breakstone": 3742,
      "substituted": 3743,
      "##otti": 3744,
      "tir": 3745,
      "ater": 3746,
      "spiral": 3747,
      "blender": 3748,
      "ini": 3749,
      "##iment": 3750,
      "##ividual": 3751,
      "would": 3752,
      "##ches": 3753,
      "callo": 3754,
      "puffed": 3755,
      "##illy": 3756,
      "tough": 3757,
      "trifle": 3758,
      "rust": 3759,
      "mary": 3760,
      "##ounder": 3761,
      "##nds": 3762,
      "##ance": 3763,
      "version": 3764,
      "chewy": 3765,
      "san": 3766,
      "fus": 3767,
      "equivalent": 3768,
      "oe": 3769,
      "filet": 3770,
      "jim": 3771,
      "equip": 3772,
      "parfa": 3773,
      "canadian": 3774,
      "equipment": 3775,
      "105": 3776,
      "hai": 3777,
      "marz": 3778,
      "omelet": 3779,
      "treats": 3780,
      "tasty": 3781,
      "gourmet": 3782,
      "##quet": 3783,
      "rispy": 3784,
      "product": 3785,
      "mart": 3786,
      "##pon": 3787,
      "shucked": 3788,
      "##iar": 3789,
      "aunt": 3790,
      "ll": 3791,
      "knuds": 3792,
      "knudsen": 3793,
      "truffles": 3794,
      "wooden": 3795,
      "##reau": 3796,
      "rounded": 3797,
      "hens": 3798,
      "fast": 3799,
      "##irt": 3800,
      "abb": 3801,
      "##cm": 3802,
      "sticky": 3803,
      "hole": 3804,
      "coint": 3805,
      "swed": 3806,
      "stewing": 3807,
      "sure": 3808,
      "evoo": 3809,
      "bolog": 3810,
      "ig": 3811,
      "lower": 3812,
      "preference": 3813,
      "uttermilk": 3814,
      "##affin": 3815,
      "##icotti": 3816,
      "cointreau": 3817,
      "##isten": 3818,
      "seasons": 3819,
      "joe": 3820,
      "after": 3821,
      "yiel": 3822,
      "paraffin": 3823,
      "mil": 3824,
      "chan": 3825,
      "tbls": 3826,
      "##ither": 3827,
      "lat": 3828,
      "bob": 3829,
      "pizz": 3830,
      "found": 3831,
      "adj": 3832,
      "nd": 3833,
      "outh": 3834,
      "granular": 3835,
      "flounder": 3836,
      "gnocchi": 3837,
      "bruschetta": 3838,
      "catal": 3839,
      "kabobs": 3840,
      "wish": 3841,
      "poupon": 3842,
      "acar": 3843,
      "erman": 3844,
      "farf": 3845,
      "buttery": 3846,
      "wien": 3847,
      "prec": 3848,
      "##alle": 3849,
      "##eels": 3850,
      "young": 3851,
      "##eason": 3852,
      "##binado": 3853,
      "chervil": 3854,
      "beaters": 3855,
      "fingers": 3856,
      "flowers": 3857,
      "clarified": 3858,
      "either": 3859,
      "rep": 3860,
      "turbinado": 3861,
      "##liced": 3862,
      "reek": 3863,
      "##vest": 3864,
      "tus": 3865,
      "provence": 3866,
      "stevia": 3867,
      "bleu": 3868,
      "silken": 3869,
      "##ans": 3870,
      "sim": 3871,
      "ummer": 3872,
      "flavour": 3873,
      "ing": 3874,
      "seared": 3875,
      "##omb": 3876,
      "##ores": 3877,
      "matzo": 3878,
      "nori": 3879,
      "dollar": 3880,
      "##akuri": 3881,
      "tuscan": 3882,
      "2t": 3883,
      "katakuri": 3884,
      "scallop": 3885,
      "chef": 3886,
      "gram": 3887,
      "love": 3888,
      "katakuriko": 3889,
      "em": 3890,
      "chestnut": 3891,
      "##imes": 3892,
      "quesadillas": 3893,
      "##atine": 3894,
      "bouquet": 3895,
      "crost": 3896,
      "preserved": 3897,
      "requ": 3898,
      "##easoned": 3899,
      "caviar": 3900,
      "parsnip": 3901,
      "yum": 3902,
      "##nam": 3903,
      "##pps": 3904,
      "broiled": 3905,
      "##ida": 3906,
      "grass": 3907,
      "##ider": 3908,
      "prem": 3909,
      "knox": 3910,
      "fran": 3911,
      "medley": 3912,
      "##ways": 3913,
      "cornish": 3914,
      "scrambled": 3915,
      "##oth": 3916,
      "frank": 3917,
      "116": 3918,
      "##adine": 3919,
      "really": 3920,
      "##imate": 3921,
      "buy": 3922,
      "rabb": 3923,
      "##dy": 3924,
      "##zu": 3925,
      "garnishes": 3926,
      "##elt": 3927,
      "hinese": 3928,
      "fluffy": 3929,
      "segments": 3930,
      "##gian": 3931,
      "tangy": 3932,
      "##napps": 3933,
      "flower": 3934,
      "belly": 3935,
      "manicotti": 3936,
      "fles": 3937,
      "rut": 3938,
      "urried": 3939,
      "schnapps": 3940,
      "sambal": 3941,
      "sparagus": 3942,
      "bal": 3943,
      "unseasoned": 3944,
      "##ho": 3945,
      "usually": 3946,
      "pam": 3947,
      "catalina": 3948,
      "wing": 3949,
      "infus": 3950,
      "##ja": 3951,
      "thicken": 3952,
      "##verage": 3953,
      "york": 3954,
      "aioli": 3955,
      "##epher": 3956,
      "artific": 3957,
      "rump": 3958,
      "##ousand": 3959,
      "##ffer": 3960,
      "chess": 3961,
      "tin": 3962,
      "gan": 3963,
      "swirl": 3964,
      "chipped": 3965,
      "famous": 3966,
      "persimmon": 3967,
      "xanth": 3968,
      "##eck": 3969,
      "fail": 3970,
      "biscotti": 3971,
      "squeeze": 3972,
      "dur": 3973,
      "##eade": 3974,
      "##ints": 3975,
      "packaged": 3976,
      "gren": 3977,
      "moked": 3978,
      "##ci": 3979,
      "##abs": 3980,
      "##iblets": 3981,
      "ult": 3982,
      "gelatine": 3983,
      "snick": 3984,
      "six": 3985,
      "acaroni": 3986,
      "safflower": 3987,
      "runch": 3988,
      "swedish": 3989,
      "flesh": 3990,
      "men": 3991,
      "##the": 3992,
      "thirds": 3993,
      "pate": 3994,
      "shanks": 3995,
      "raised": 3996,
      "##lb": 3997,
      "##ected": 3998,
      "kir": 3999,
      "sil": 4000,
      "##ani": 4001,
      "crumbles": 4002,
      "ele": 4003,
      "ingredient": 4004,
      "##etnam": 4005,
      "slush": 4006,
      "chiffonade": 4007,
      "liters": 4008,
      "ann": 4009,
      "dem": 4010,
      "##ira": 4011,
      "##cat": 4012,
      "burritos": 4013,
      "rainbow": 4014,
      "artificial": 4015,
      "sauc": 4016,
      "##astic": 4017,
      "smoky": 4018,
      "##eans": 4019,
      "fondue": 4020,
      "aple": 4021,
      "##iday": 4022,
      "louisiana": 4023,
      "##0g": 4024,
      "##hydr": 4025,
      "##ld": 4026,
      "set": 4027,
      "dred": 4028,
      "##aho": 4029,
      "meatball": 4030,
      "##etnamese": 4031,
      "finish": 4032,
      "ww": 4033,
      "fruity": 4034,
      "crocker": 4035,
      "petite": 4036,
      "##ruc": 4037,
      "##oncini": 4038,
      "mahi": 4039,
      "yummy": 4040,
      "tag": 4041,
      "##issa": 4042,
      "##iend": 4043,
      "##ilar": 4044,
      "oast": 4045,
      "margarita": 4046,
      "farfalle": 4047,
      "neut": 4048,
      "supper": 4049,
      "herbes": 4050,
      "fle": 4051,
      "az": 4052,
      "tied": 4053,
      "sword": 4054,
      "aut": 4055,
      "cow": 4056,
      "ri": 4057,
      "similar": 4058,
      "curly": 4059,
      "link": 4060,
      "precooked": 4061,
      "bias": 4062,
      "##ilian": 4063,
      "adjust": 4064,
      "ew": 4065,
      "grenadine": 4066,
      "kim": 4067,
      "neutral": 4068,
      "##oche": 4069,
      "ock": 4070,
      "john": 4071,
      "xanthan": 4072,
      "##estrone": 4073,
      "escar": 4074,
      "swordfish": 4075,
      "doughnuts": 4076,
      "##25": 4077,
      "chees": 4078,
      "uper": 4079,
      "sole": 4080,
      "##chas": 4081,
      "chunked": 4082,
      "thousand": 4083,
      "accompaniment": 4084,
      "##jo": 4085,
      "freezer": 4086,
      "liquor": 4087,
      "limeade": 4088,
      "fusilli": 4089,
      "sian": 4090,
      "abbage": 4091,
      "infused": 4092,
      "haddock": 4093,
      "sunda": 4094,
      "bird": 4095,
      "tangerine": 4096,
      "idaho": 4097,
      "miss": 4098,
      "rest": 4099,
      "moroc": 4100,
      "met": 4101,
      "##atel": 4102,
      "purchas": 4103,
      "10x": 4104,
      "110u00b0": 4105,
      "neuf": 4106,
      "magic": 4107,
      "individual": 4108,
      "ganache": 4109,
      "nutritional": 4110,
      "##side": 4111,
      "hristmas": 4112,
      "premium": 4113,
      "when": 4114,
      "chillies": 4115,
      "##wood": 4116,
      "directed": 4117,
      "##adas": 4118,
      "##ife": 4119,
      "##dew": 4120,
      "brunch": 4121,
      "475": 4122,
      "brioche": 4123,
      "neufch": 4124,
      "hubarb": 4125,
      "##pacho": 4126,
      "pad": 4127,
      "percent": 4128,
      "asic": 4129,
      "filets": 4130,
      "pinwh": 4131,
      "run": 4132,
      "same": 4133,
      "franks": 4134,
      "bor": 4135,
      "mes": 4136,
      "375": 4137,
      "os": 4138,
      "nug": 4139,
      "##emb": 4140,
      "slivers": 4141,
      "diabetic": 4142,
      "hen": 4143,
      "crisps": 4144,
      "fresco": 4145,
      "arrow": 4146,
      "decorating": 4147,
      "could": 4148,
      "moroccan": 4149,
      "bisque": 4150,
      "neufchatel": 4151,
      "dal": 4152,
      "many": 4153,
      "what": 4154,
      "livers": 4155,
      "oub": 4156,
      "spelt": 4157,
      "coat": 4158,
      "shavings": 4159,
      "intact": 4160,
      "att": 4161,
      "fettuc": 4162,
      "try": 4163,
      "##any": 4164,
      "wond": 4165,
      "somet": 4166,
      "should": 4167,
      "its": 4168,
      "tightly": 4169,
      "ent": 4170,
      "##achos": 4171,
      "open": 4172,
      "180": 4173,
      "belgian": 4174,
      "emp": 4175,
      "pri": 4176,
      "ouble": 4177,
      "freeze": 4178,
      "dredg": 4179,
      "seven": 4180,
      "na": 4181,
      "goul": 4182,
      "##cher": 4183,
      "bitter": 4184,
      "glo": 4185,
      "couple": 4186,
      "mash": 4187,
      "oliday": 4188,
      "##ile": 4189,
      "jambal": 4190,
      "morn": 4191,
      "butterfl": 4192,
      "step": 4193,
      "colada": 4194,
      "bibb": 4195,
      "##hydrated": 4196,
      "honeydew": 4197,
      "##bergine": 4198,
      "goulash": 4199,
      "prune": 4200,
      "live": 4201,
      "soya": 4202,
      "##kee": 4203,
      "tow": 4204,
      "soba": 4205,
      "burrito": 4206,
      "escarole": 4207,
      "icebox": 4208,
      "nachos": 4209,
      "sam": 4210,
      "bundt": 4211,
      "anilla": 4212,
      "jambalaya": 4213,
      "##thing": 4214,
      "breads": 4215,
      "hunt": 4216,
      "##oun": 4217,
      "instruc": 4218,
      "meats": 4219,
      "ate": 4220,
      "mont": 4221,
      "##eak": 4222,
      "##ria": 4223,
      "115u00b0": 4224,
      "crostini": 4225,
      "neck": 4226,
      "ealthy": 4227,
      "commer": 4228,
      "arrowroot": 4229,
      "macaroons": 4230,
      "sectioned": 4231,
      "martini": 4232,
      "##day": 4233,
      "tot": 4234,
      "avory": 4235,
      "dredging": 4236,
      "##ppi": 4237,
      "appetizers": 4238,
      "fun": 4239,
      "##accia": 4240,
      "harissa": 4241,
      "offee": 4242,
      "foc": 4243,
      "##ster": 4244,
      "skirt": 4245,
      "##icc": 4246,
      "##avar": 4247,
      "eigh": 4248,
      "t1": 4249,
      "##emeat": 4250,
      "twists": 4251,
      "stores": 4252,
      "pp": 4253,
      "canning": 4254,
      "##iesta": 4255,
      "maz": 4256,
      "lassic": 4257,
      "blanc": 4258,
      "##orough": 4259,
      "cast": 4260,
      "##wur": 4261,
      "friend": 4262,
      "egan": 4263,
      "ladyf": 4264,
      "calloped": 4265,
      "flatbread": 4266,
      "pans": 4267,
      "lon": 4268,
      "prim": 4269,
      "unw": 4270,
      "mother": 4271,
      "differ": 4272,
      "##hern": 4273,
      "pum": 4274,
      "casing": 4275,
      "exas": 4276,
      "fu": 4277,
      "fiesta": 4278,
      "mad": 4279,
      "##ically": 4280,
      "mince": 4281,
      "comb": 4282,
      "##urized": 4283,
      "##abag": 4284,
      "superm": 4285,
      "fava": 4286,
      "simmer": 4287,
      "butterflied": 4288,
      "keb": 4289,
      "stand": 4290,
      "nice": 4291,
      "##azy": 4292,
      "grade": 4293,
      "pep": 4294,
      "purchased": 4295,
      "sult": 4296,
      "horiz": 4297,
      "##eim": 4298,
      "fritos": 4299,
      "classico": 4300,
      "##iki": 4301,
      "under": 4302,
      "916": 4303,
      "outhern": 4304,
      "eight": 4305,
      "ucumber": 4306,
      "##ente": 4307,
      "##over": 4308,
      "fajita": 4309,
      "ahead": 4310,
      "##chment": 4311,
      "first": 4312,
      "kaff": 4313,
      "##epherd": 4314,
      "thorough": 4315,
      "ribbons": 4316,
      "mud": 4317,
      "arty": 4318,
      "ish": 4319,
      "husks": 4320,
      "instructions": 4321,
      "##ickel": 4322,
      "commercial": 4323,
      "beverage": 4324,
      "pen": 4325,
      "swan": 4326,
      "nectarines": 4327,
      "sprite": 4328,
      "harvest": 4329,
      "cot": 4330,
      "thoroughly": 4331,
      "ts": 4332,
      "coated": 4333,
      "##ica": 4334,
      "roqu": 4335,
      "parchment": 4336,
      "sugg": 4337,
      "which": 4338,
      "praline": 4339,
      "##40": 4340,
      "dean": 4341,
      "blended": 4342,
      "ruby": 4343,
      "watch": 4344,
      "skimmed": 4345,
      "bai": 4346,
      "lunch": 4347,
      "##rom": 4348,
      "##eer": 4349,
      "rat": 4350,
      "##kes": 4351,
      "##use": 4352,
      "##ugu": 4353,
      "##ossible": 4354,
      "##bb": 4355,
      "wil": 4356,
      "700": 4357,
      "##king": 4358,
      "##kish": 4359,
      "##lette": 4360,
      "tooth": 4361,
      "ef": 4362,
      "confectioner": 4363,
      "rabbit": 4364,
      "anah": 4365,
      "bonn": 4366,
      "world": 4367,
      "carbonated": 4368,
      "singles": 4369,
      "jimmy": 4370,
      "groc": 4371,
      "masa": 4372,
      "keep": 4373,
      "##res": 4374,
      "minestrone": 4375,
      "##gets": 4376,
      "##pern": 4377,
      "##arina": 4378,
      "knife": 4379,
      "ix": 4380,
      "##plant": 4381,
      "fajitas": 4382,
      "tou": 4383,
      "hoc": 4384,
      "uff": 4385,
      "alumin": 4386,
      "anaheim": 4387,
      "##ipes": 4388,
      "jerk": 4389,
      "##entine": 4390,
      "scoop": 4391,
      "every": 4392,
      "silver": 4393,
      "shakes": 4394,
      "multi": 4395,
      "##seed": 4396,
      "her": 4397,
      "##efort": 4398,
      "swanson": 4399,
      "nuggets": 4400,
      "kaffir": 4401,
      "pizzas": 4402,
      "##angles": 4403,
      "instead": 4404,
      "oun": 4405,
      "ant": 4406,
      "runchy": 4407,
      "fen": 4408,
      "ko": 4409,
      "rt": 4410,
      "ood": 4411,
      "lond": 4412,
      "focaccia": 4413,
      "stout": 4414,
      "tost": 4415,
      "eaf": 4416,
      "hormel": 4417,
      "pom": 4418,
      "husked": 4419,
      "durkee": 4420,
      "##dor": 4421,
      "shortcake": 4422,
      "sang": 4423,
      "fronds": 4424,
      "##pernickel": 4425,
      "ggplant": 4426,
      "consisten": 4427,
      "##cks": 4428,
      "horizont": 4429,
      "gaz": 4430,
      "outhw": 4431,
      "horizontally": 4432,
      "peg": 4433,
      "##uguese": 4434,
      "loose": 4435,
      "ake": 4436,
      "gallo": 4437,
      "##airy": 4438,
      "pkgs": 4439,
      "pig": 4440,
      "buds": 4441,
      "moons": 4442,
      "portions": 4443,
      "southwestern": 4444,
      "smaller": 4445,
      "aubergine": 4446,
      "armesan": 4447,
      "goya": 4448,
      "bailey": 4449,
      "cab": 4450,
      "has": 4451,
      "ou": 4452,
      "5oz": 4453,
      "55": 4454,
      "crockpot": 4455,
      "health": 4456,
      "gazpacho": 4457,
      "park": 4458,
      "consistency": 4459,
      "##ital": 4460,
      "yield": 4461,
      "ha": 4462,
      "hass": 4463,
      "game": 4464,
      "quaker": 4465,
      "##greek": 4466,
      "6oz": 4467,
      "##dorf": 4468,
      "meaty": 4469,
      "800": 4470,
      "based": 4471,
      "heaven": 4472,
      "##neck": 4473,
      "minc": 4474,
      "kabocha": 4475,
      "aluminum": 4476,
      "##iccated": 4477,
      "batch": 4478,
      "bull": 4479,
      "eighths": 4480,
      "##py": 4481,
      "##boy": 4482,
      "measure": 4483,
      "##ugreek": 4484,
      "desiccated": 4485,
      "##aican": 4486,
      "##umn": 4487,
      "cartons": 4488,
      "ngel": 4489,
      "##ocado": 4490,
      "ul": 4491,
      "curls": 4492,
      "gala": 4493,
      "nam": 4494,
      "fenugreek": 4495,
      "pres": 4496,
      "vietnamese": 4497,
      "##ppies": 4498,
      "pumpernickel": 4499,
      "##licious": 4500,
      "unp": 4501,
      "whisked": 4502,
      "##sch": 4503,
      "##iest": 4504,
      "reese": 4505,
      "##ona": 4506,
      "##bert": 4507,
      "luten": 4508,
      "thumb": 4509,
      "##ucky": 4510,
      "southwest": 4511,
      "##resh": 4512,
      "savoy": 4513,
      "##etra": 4514,
      "##boiled": 4515,
      "fan": 4516,
      "decorate": 4517,
      "inner": 4518,
      "res": 4519,
      "rabe": 4520,
      "manch": 4521,
      "vert": 4522,
      "##pick": 4523,
      "monkey": 4524,
      "hours": 4525,
      "rtich": 4526,
      "flaxseed": 4527,
      "dente": 4528,
      "ild": 4529,
      "arbecued": 4530,
      "lots": 4531,
      "##iri": 4532,
      "wieners": 4533,
      "cord": 4534,
      "coca": 4535,
      "##anas": 4536,
      "##inness": 4537,
      "buc": 4538,
      "olden": 4539,
      "rutabag": 4540,
      "mincemeat": 4541,
      "madeira": 4542,
      "sum": 4543,
      "##andel": 4544,
      "blossoms": 4545,
      "mock": 4546,
      "roquefort": 4547,
      "fingerling": 4548,
      "pinwheels": 4549,
      "ye": 4550,
      "ango": 4551,
      "vocado": 4552,
      "dul": 4553,
      "md": 4554,
      "required": 4555,
      "butterf": 4556,
      "these": 4557,
      "slider": 4558,
      "giant": 4559,
      "flan": 4560,
      "forest": 4561,
      "snacks": 4562,
      "##chopped": 4563,
      "##erd": 4564,
      "ook": 4565,
      "##itan": 4566,
      "measur": 4567,
      "ultimate": 4568,
      "barbe": 4569,
      "mult": 4570,
      "##lek": 4571,
      "around": 4572,
      "morning": 4573,
      "##aur": 4574,
      "tblsp": 4575,
      "##tha": 4576,
      "##cotch": 4577,
      "danish": 4578,
      "sprout": 4579,
      "micro": 4580,
      "holland": 4581,
      "carne": 4582,
      "croiss": 4583,
      "leche": 4584,
      "roy": 4585,
      "sard": 4586,
      "easter": 4587,
      "balance": 4588,
      "##ict": 4589,
      "stiffly": 4590,
      "pples": 4591,
      "##edding": 4592,
      "##top": 4593,
      "ayered": 4594,
      "toothpick": 4595,
      "##uben": 4596,
      "##erios": 4597,
      "earth": 4598,
      "cont": 4599,
      "pasteurized": 4600,
      "##ki": 4601,
      "rustic": 4602,
      "lor": 4603,
      "eafood": 4604,
      "still": 4605,
      "##igg": 4606,
      "junip": 4607,
      "clus": 4608,
      "edible": 4609,
      "caper": 4610,
      "bush": 4611,
      "##ghorn": 4612,
      "##avera": 4613,
      "spreadable": 4614,
      "kimchi": 4615,
      "cheeseburger": 4616,
      "bud": 4617,
      "matchstick": 4618,
      "manchego": 4619,
      "shoe": 4620,
      "nion": 4621,
      "kebabs": 4622,
      "juniper": 4623,
      "jet": 4624,
      "larger": 4625,
      "nond": 4626,
      "##terscotch": 4627,
      "tubes": 4628,
      "chai": 4629,
      "##isu": 4630,
      "different": 4631,
      "##balls": 4632,
      "nondairy": 4633,
      "panish": 4634,
      "elicious": 4635,
      "cheerios": 4636,
      "ripened": 4637,
      "dol": 4638,
      "kum": 4639,
      "thickness": 4640,
      "lot": 4641,
      "##allions": 4642,
      "130": 4643,
      "divan": 4644,
      "ickled": 4645,
      "kais": 4646,
      "alco": 4647,
      "oreos": 4648,
      "utterscotch": 4649,
      "oelek": 4650,
      "tony": 4651,
      "chanter": 4652,
      "##acker": 4653,
      "menthe": 4654,
      "longhorn": 4655,
      "grainy": 4656,
      "pico": 4657,
      "sangria": 4658,
      "##ric": 4659,
      "##oey": 4660,
      "chim": 4661,
      "markets": 4662,
      "ladyfingers": 4663,
      "##ha": 4664,
      "primavera": 4665,
      "##wurst": 4666,
      "aka": 4667,
      "eer": 4668,
      "tetra": 4669,
      "racks": 4670,
      "##cc": 4671,
      "lazed": 4672,
      "ajun": 4673,
      "mexico": 4674,
      "auliflower": 4675,
      "rite": 4676,
      "spam": 4677,
      "middle": 4678,
      "croqu": 4679,
      "glace": 4680,
      "coke": 4681,
      "linguini": 4682,
      "##erdood": 4683,
      "farro": 4684,
      "ountry": 4685,
      "wedding": 4686,
      "quarter": 4687,
      "yam": 4688,
      "touch": 4689,
      "33": 4690,
      "100g": 4691,
      "twice": 4692,
      "erb": 4693,
      "31": 4694,
      "puppies": 4695,
      "mung": 4696,
      "4oz": 4697,
      "quail": 4698,
      "unwra": 4699,
      "##ting": 4700,
      "kaiser": 4701,
      "##zzini": 4702,
      "##atore": 4703,
      "rop": 4704,
      "##allah": 4705,
      "rise": 4706,
      "cuban": 4707,
      "blond": 4708,
      "##amisu": 4709,
      "ox": 4710,
      "170": 4711,
      "##ales": 4712,
      "copy": 4713,
      "awaiian": 4714,
      "giblets": 4715,
      "aside": 4716,
      "##enster": 4717,
      "alla": 4718,
      "angost": 4719,
      "bonnet": 4720,
      "hree": 4721,
      "road": 4722,
      "turkish": 4723,
      "##bsp": 4724,
      "rtichoke": 4725,
      "##ega": 4726,
      "guinness": 4727,
      "##giv": 4728,
      "dehydrated": 4729,
      "follow": 4730,
      "crim": 4731,
      "earty": 4732,
      "angostura": 4733,
      "plastic": 4734,
      "almost": 4735,
      "##ampi": 4736,
      "bec": 4737,
      "##aded": 4738,
      "erbed": 4739,
      "muenster": 4740,
      "tetrazzini": 4741,
      "unwrapped": 4742,
      "##vre": 4743,
      "##ados": 4744,
      "deer": 4745,
      "pitas": 4746,
      "teak": 4747,
      "ist": 4748,
      "##real": 4749,
      "crystals": 4750,
      "fork": 4751,
      "##va": 4752,
      "##ils": 4753,
      "supermark": 4754,
      "wiss": 4755,
      "##well": 4756,
      "cheeses": 4757,
      "wise": 4758,
      "hoag": 4759,
      "strata": 4760,
      "pplesauce": 4761,
      "scampi": 4762,
      "##ret": 4763,
      "1oz": 4764,
      "uss": 4765,
      "patty": 4766,
      "donut": 4767,
      "mama": 4768,
      "##are": 4769,
      "##rosia": 4770,
      "emer": 4771,
      "crabs": 4772,
      "repl": 4773,
      "farms": 4774,
      "waffle": 4775,
      "medallions": 4776,
      "cooler": 4777,
      "sze": 4778,
      "##gate": 4779,
      "27": 4780,
      "arbol": 4781,
      "surf": 4782,
      "##ights": 4783,
      "crais": 4784,
      "bosc": 4785,
      "sundried": 4786,
      "melts": 4787,
      "crema": 4788,
      "ett": 4789,
      "specialty": 4790,
      "matcha": 4791,
      "hock": 4792,
      "slab": 4793,
      "cam": 4794,
      "##sted": 4795,
      "pina": 4796,
      "##ager": 4797,
      "opt": 4798,
      "moisture": 4799,
      "shao": 4800,
      "imported": 4801,
      "hip": 4802,
      "garnishing": 4803,
      "killet": 4804,
      "grocery": 4805,
      "poc": 4806,
      "env": 4807,
      "bic": 4808,
      "nico": 4809,
      "##ington": 4810,
      "croquettes": 4811,
      "ge": 4812,
      "bagel": 4813,
      "challah": 4814,
      "##oulade": 4815,
      "clusters": 4816,
      "bowls": 4817,
      "market": 4818,
      "soyb": 4819,
      "acid": 4820,
      "calam": 4821,
      "plantains": 4822,
      "kick": 4823,
      "lab": 4824,
      "take": 4825,
      "barbeque": 4826,
      "sat": 4827,
      "florentine": 4828,
      "##oise": 4829,
      "##ards": 4830,
      "##ob": 4831,
      "ime": 4832,
      "saltines": 4833,
      "##ibbean": 4834,
      "##cle": 4835,
      "dipped": 4836,
      "slee": 4837,
      "goose": 4838,
      "##uccino": 4839,
      "nicoise": 4840,
      "pockets": 4841,
      "brat": 4842,
      "outer": 4843,
      "here": 4844,
      "breaded": 4845,
      "dulce": 4846,
      "##rid": 4847,
      "##afe": 4848,
      "shepherd": 4849,
      "dis": 4850,
      "lt": 4851,
      "ink": 4852,
      "sundae": 4853,
      "caribbean": 4854,
      "160": 4855,
      "england": 4856,
      "pepitas": 4857,
      "udge": 4858,
      "yu": 4859,
      "gingersnaps": 4860,
      "watchers": 4861,
      "##ross": 4862,
      "ich": 4863,
      "parfait": 4864,
      "ly": 4865,
      "##ek": 4866,
      "must": 4867,
      "editerranean": 4868,
      "london": 4869,
      "never": 4870,
      "cacci": 4871,
      "ight": 4872,
      "##lemon": 4873,
      "fe": 4874,
      "core": 4875,
      "millet": 4876,
      "melting": 4877,
      "tall": 4878,
      "jigg": 4879,
      "philly": 4880,
      "ecl": 4881,
      "##rud": 4882,
      "##loween": 4883,
      "shred": 4884,
      "crow": 4885,
      "fruitcake": 4886,
      "pepperoncini": 4887,
      "pch": 4888,
      "##ative": 4889,
      "peeler": 4890,
      "book": 4891,
      "slc": 4892,
      "salty": 4893,
      "wedish": 4894,
      "course": 4895,
      "bonito": 4896,
      "##jack": 4897,
      "pleas": 4898,
      "cuts": 4899,
      "kraut": 4900,
      "chilis": 4901,
      "egetarian": 4902,
      "hocks": 4903,
      "god": 4904,
      "sauv": 4905,
      "nutty": 4906,
      "auteed": 4907,
      "chimich": 4908,
      "crimini": 4909,
      "##agna": 4910,
      "braz": 4911,
      "bub": 4912,
      "grains": 4913,
      "ener": 4914,
      "triangles": 4915,
      "##tzer": 4916,
      "##bi": 4917,
      "##chiette": 4918,
      "esame": 4919,
      "seltzer": 4920,
      "attached": 4921,
      "eclair": 4922,
      "paso": 4923,
      "##steak": 4924,
      "bologn": 4925,
      "heddar": 4926,
      "kirsch": 4927,
      "lic": 4928,
      "colors": 4929,
      "200g": 4930,
      "##chuan": 4931,
      "jellied": 4932,
      "fuji": 4933,
      "unch": 4934,
      "sauvignon": 4935,
      "oro": 4936,
      "tapen": 4937,
      "##nic": 4938,
      "##hine": 4939,
      "wonder": 4940,
      "trader": 4941,
      "anc": 4942,
      "udon": 4943,
      "##ghum": 4944,
      "kee": 4945,
      "hollandaise": 4946,
      "tapenade": 4947,
      "hel": 4948,
      "mignon": 4949,
      "##imi": 4950,
      "rish": 4951,
      "hy": 4952,
      "portuguese": 4953,
      "komb": 4954,
      "##giving": 4955,
      "jamaican": 4956,
      "erry": 4957,
      "erfect": 4958,
      "haricot": 4959,
      "layers": 4960,
      "craisins": 4961,
      "64": 4962,
      "##ept": 4963,
      "marzano": 4964,
      "place": 4965,
      "rellen": 4966,
      "stra": 4967,
      "cacciatore": 4968,
      "##mar": 4969,
      "form": 4970,
      "iron": 4971,
      "turtle": 4972,
      "ound": 4973,
      "making": 4974,
      "##ras": 4975,
      "140": 4976,
      "bq": 4977,
      "card": 4978,
      "##atz": 4979,
      "lobsters": 4980,
      "##oman": 4981,
      "##jool": 4982,
      "##ealed": 4983,
      "##inis": 4984,
      "smuck": 4985,
      "##arbon": 4986,
      "citron": 4987,
      "##sin": 4988,
      "sometimes": 4989,
      "carbonara": 4990,
      "##lester": 4991,
      "colour": 4992,
      "da": 4993,
      "exc": 4994,
      "##issi": 4995,
      "##entic": 4996,
      "##nel": 4997,
      "##lesterol": 4998,
      "##go": 4999,
      "monte": 5000,
      "moon": 5001,
      "rou": 5002,
      "##arbonate": 5003,
      "bartle": 5004,
      "lackberry": 5005,
      "vertically": 5006,
      "##ring": 5007,
      "pow": 5008,
      "hoagie": 5009,
      "grou": 5010,
      "tossed": 5011,
      "pollo": 5012,
      "demer": 5013,
      "sorghum": 5014,
      "omelette": 5015,
      "##oned": 5016,
      "bolognese": 5017,
      "beefsteak": 5018,
      "bicarbonate": 5019,
      "saut": 5020,
      "shot": 5021,
      "montreal": 5022,
      "fris": 5023,
      "fleur": 5024,
      "chea": 5025,
      "meatless": 5026,
      "acting": 5027,
      "blade": 5028,
      "does": 5029,
      "##inity": 5030,
      "mald": 5031,
      "recipes": 5032,
      "ari": 5033,
      "##clo": 5034,
      "cholesterol": 5035,
      "wall": 5036,
      "medjool": 5037,
      "##ttes": 5038,
      "included": 5039,
      "apart": 5040,
      "##gealed": 5041,
      "##oori": 5042,
      "steel": 5043,
      "##ppa": 5044,
      "panini": 5045,
      "oppy": 5046,
      "waldorf": 5047,
      "points": 5048,
      "max": 5049,
      "pier": 5050,
      "##ieve": 5051,
      "fit": 5052,
      "ter": 5053,
      "##esome": 5054,
      "again": 5055,
      "persian": 5056,
      "worth": 5057,
      "pouch": 5058,
      "##issippi": 5059,
      "bartlett": 5060,
      "maldon": 5061,
      "toll": 5062,
      "separate": 5063,
      "##kfur": 5064,
      "250g": 5065,
      "concentrated": 5066,
      "spoons": 5067,
      "glut": 5068,
      "wheel": 5069,
      "##icle": 5070,
      "##aced": 5071,
      "dirt": 5072,
      "##ready": 5073,
      "demerara": 5074,
      "##verted": 5075,
      "frosted": 5076,
      "cir": 5077,
      "900": 5078,
      "hi": 5079,
      "coti": 5080,
      "remain": 5081,
      "roni": 5082,
      "eyeball": 5083,
      "han": 5084,
      "##redded": 5085,
      "ars": 5086,
      "utternut": 5087,
      "chevre": 5088,
      "##achio": 5089,
      "plump": 5090,
      "courge": 5091,
      "measuring": 5092,
      "cotija": 5093,
      "##ler": 5094,
      "##lot": 5095,
      "frisee": 5096,
      "##igrain": 5097,
      "tagli": 5098,
      "##ountain": 5099,
      "across": 5100,
      "surface": 5101,
      "aisin": 5102,
      "##ardi": 5103,
      "nu": 5104,
      "comple": 5105,
      "ath": 5106,
      "##fruit": 5107,
      "calamari": 5108,
      "##izer": 5109,
      "##ives": 5110,
      "asagna": 5111,
      "##estyle": 5112,
      "bagels": 5113,
      "##14": 5114,
      "kids": 5115,
      "##pa": 5116,
      "kombu": 5117,
      "suns": 5118,
      "##peh": 5119,
      "shiso": 5120,
      "blocks": 5121,
      "toasts": 5122,
      "##ople": 5123,
      "##ored": 5124,
      "##aurant": 5125,
      "0207": 5126,
      "harina": 5127,
      "mine": 5128,
      "variation": 5129,
      "##eli": 5130,
      "clement": 5131,
      "cafe": 5132,
      "sic": 5133,
      "##intosh": 5134,
      "istachio": 5135,
      "ta": 5136,
      "alas": 5137,
      "wip": 5138,
      "donuts": 5139,
      "choose": 5140,
      "##han": 5141,
      "##ides": 5142,
      "floret": 5143,
      "sumac": 5144,
      "emeril": 5145,
      "remaining": 5146,
      "##gry": 5147,
      "##ugel": 5148,
      "mazola": 5149,
      "itrus": 5150,
      "ixed": 5151,
      "flo": 5152,
      "birds": 5153,
      "alb": 5154,
      "let": 5155,
      "grater": 5156,
      "tiramisu": 5157,
      "##acao": 5158,
      "oh": 5159,
      "ortega": 5160,
      "##time": 5161,
      "boys": 5162,
      "##aven": 5163,
      "mores": 5164,
      "pinot": 5165,
      "##onnay": 5166,
      "eggie": 5167,
      "juicy": 5168,
      "roots": 5169,
      "shank": 5170,
      "frankfur": 5171,
      "mountain": 5172,
      "spritz": 5173,
      "##atelle": 5174,
      "depends": 5175,
      "beau": 5176,
      "ello": 5177,
      "now": 5178,
      "licor": 5179,
      "realemon": 5180,
      "##ause": 5181,
      "suit": 5182,
      "already": 5183,
      "plate": 5184,
      "mond": 5185,
      "curacao": 5186,
      "rutabaga": 5187,
      "##atouille": 5188,
      "converted": 5189,
      "heavenly": 5190,
      "##aken": 5191,
      "frang": 5192,
      "##estive": 5193,
      "tartle": 5194,
      "royal": 5195,
      "altern": 5196,
      "garni": 5197,
      "malted": 5198,
      "##uan": 5199,
      "coarsley": 5200,
      "gy": 5201,
      "pon": 5202,
      "andy": 5203,
      "##imal": 5204,
      "chardonnay": 5205,
      "secret": 5206,
      "##holic": 5207,
      "##rich": 5208,
      "##men": 5209,
      "last": 5210,
      "toothpicks": 5211,
      "paella": 5212,
      "ool": 5213,
      "eg": 5214,
      "##ape": 5215,
      "ustard": 5216,
      "##ville": 5217,
      "people": 5218,
      "303": 5219,
      "ms": 5220,
      "##epeg": 5221,
      "ropical": 5222,
      "parfaits": 5223,
      "sultanas": 5224,
      "##icles": 5225,
      "##ipast": 5226,
      "littleneck": 5227,
      "macker": 5228,
      "diluted": 5229,
      "multigrain": 5230,
      "arth": 5231,
      "amaz": 5232,
      "confit": 5233,
      "favour": 5234,
      "shots": 5235,
      "##apeno": 5236,
      "crisply": 5237,
      "##mi": 5238,
      "##emp": 5239,
      "##ott": 5240,
      "knob": 5241,
      "fancy": 5242,
      "east": 5243,
      "packs": 5244,
      "capp": 5245,
      "copycat": 5246,
      "ferm": 5247,
      "##inny": 5248,
      "##erdoodles": 5249,
      "grilling": 5250,
      "tand": 5251,
      "reserving": 5252,
      "gochu": 5253,
      "believe": 5254,
      "tamale": 5255,
      "113": 5256,
      "##ernet": 5257,
      "alsa": 5258,
      "pra": 5259,
      "ummy": 5260,
      "tz": 5261,
      "##lin": 5262,
      "##xing": 5263,
      "naan": 5264,
      "39": 5265,
      "mints": 5266,
      "##hal": 5267,
      "breadsticks": 5268,
      "##atziki": 5269,
      "##jang": 5270,
      "##eriac": 5271,
      "soak": 5272,
      "240": 5273,
      "bologna": 5274,
      "sliders": 5275,
      "##ms": 5276,
      "tempeh": 5277,
      "dan": 5278,
      "kello": 5279,
      "wet": 5280,
      "mackerel": 5281,
      "##uv": 5282,
      "##ena": 5283,
      "pralines": 5284,
      "eastern": 5285,
      "reamed": 5286,
      "portion": 5287,
      "##atini": 5288,
      "beetroot": 5289,
      "##yu": 5290,
      "oft": 5291,
      "mexic": 5292,
      "milksh": 5293,
      "favourite": 5294,
      "reuben": 5295,
      "rim": 5296,
      "browning": 5297,
      "dumpling": 5298,
      "shape": 5299,
      "brulee": 5300,
      "shaoxing": 5301,
      "##irard": 5302,
      "pla": 5303,
      "65": 5304,
      "##fort": 5305,
      "italiano": 5306,
      "##pie": 5307,
      "striped": 5308,
      "##rican": 5309,
      "shoepeg": 5310,
      "cordon": 5311,
      "56": 5312,
      "##not": 5313,
      "martha": 5314,
      "tonight": 5315,
      "okay": 5316,
      "restaurant": 5317,
      "gumd": 5318,
      "orec": 5319,
      "rocket": 5320,
      "pour": 5321,
      "ala": 5322,
      "ers": 5323,
      "meth": 5324,
      "425": 5325,
      "##urri": 5326,
      "##oline": 5327,
      "memb": 5328,
      "stripped": 5329,
      "croissants": 5330,
      "pith": 5331,
      "piqu": 5332,
      "sunday": 5333,
      "##cloth": 5334,
      "mochi": 5335,
      "##enos": 5336,
      "##back": 5337,
      "##utter": 5338,
      "##otic": 5339,
      "##ution": 5340,
      "suey": 5341,
      "##amond": 5342,
      "sardines": 5343,
      "night": 5344,
      "cheesecakes": 5345,
      "kellogg": 5346,
      "ligh": 5347,
      "cornflake": 5348,
      "ie": 5349,
      "strud": 5350,
      "simmered": 5351,
      "##ridge": 5352,
      "penn": 5353,
      "orl": 5354,
      "alapeno": 5355,
      "second": 5356,
      "dsh": 5357,
      "cresc": 5358,
      "chic": 5359,
      "licorice": 5360,
      "##zy": 5361,
      "gallons": 5362,
      "orecchiette": 5363,
      "##eye": 5364,
      "cones": 5365,
      "empan": 5366,
      "papp": 5367,
      "celeriac": 5368,
      "##ripe": 5369,
      "cheesecloth": 5370,
      "filtered": 5371,
      "hush": 5372,
      "ec": 5373,
      "gra": 5374,
      "fettucine": 5375,
      "##tan": 5376,
      "heaped": 5377,
      "turno": 5378,
      "szechuan": 5379,
      "mid": 5380,
      "##bou": 5381,
      "##uda": 5382,
      "supermarkets": 5383,
      "sleeve": 5384,
      "osemary": 5385,
      "og": 5386,
      "guava": 5387,
      "ornbread": 5388,
      "##accioli": 5389,
      "##zan": 5390,
      "progr": 5391,
      "roughy": 5392,
      "autumn": 5393,
      "guaj": 5394,
      "##irardelli": 5395,
      "bing": 5396,
      "therm": 5397,
      "soften": 5398,
      "esty": 5399,
      "coco": 5400,
      "##ups": 5401,
      "##eld": 5402,
      "hungry": 5403,
      "friendly": 5404,
      "3oz": 5405,
      "eri": 5406,
      "##do": 5407,
      "fermented": 5408,
      "crescents": 5409,
      "crustless": 5410,
      "havar": 5411,
      "substitutes": 5412,
      "smucker": 5413,
      "marc": 5414,
      "limon": 5415,
      "diamond": 5416,
      "because": 5417,
      "monde": 5418,
      "##pro": 5419,
      "havarti": 5420,
      "pull": 5421,
      "dom": 5422,
      "crispix": 5423,
      "##ilton": 5424,
      "halloween": 5425,
      "butterfinger": 5426,
      "hew": 5427,
      "od": 5428,
      "##10": 5429,
      "marble": 5430,
      "quik": 5431,
      "tagliatelle": 5432,
      "guajillo": 5433,
      "dad": 5434,
      "##ker": 5435,
      "inter": 5436,
      "sant": 5437,
      "lind": 5438,
      "company": 5439,
      "bundles": 5440,
      "##kg": 5441,
      "##inning": 5442,
      "gem": 5443,
      "ray": 5444,
      "##baked": 5445,
      "##ref": 5446,
      "ber": 5447,
      "##ween": 5448,
      "roiled": 5449,
      "##raeli": 5450,
      "##crew": 5451,
      "cabernet": 5452,
      "mam": 5453,
      "alfal": 5454,
      "lemony": 5455,
      "look": 5456,
      "butcher": 5457,
      "ida": 5458,
      "ambrosia": 5459,
      "##kscrew": 5460,
      "##allow": 5461,
      "ndian": 5462,
      "lager": 5463,
      "bruised": 5464,
      "uffalo": 5465,
      "orleans": 5466,
      "v8": 5467,
      "pring": 5468,
      "thanks": 5469,
      "membran": 5470,
      "wo": 5471,
      "ine": 5472,
      "amber": 5473,
      "verts": 5474,
      "alfalfa": 5475,
      "mok": 5476,
      "pain": 5477,
      "walla": 5478,
      "pace": 5479,
      "##ardelle": 5480,
      "1lb": 5481,
      "lengthways": 5482,
      "between": 5483,
      "prime": 5484,
      "ras": 5485,
      "nectarine": 5486,
      "##rins": 5487,
      "spun": 5488,
      "calv": 5489,
      "iss": 5490,
      "smother": 5491,
      "corkscrew": 5492,
      "bella": 5493,
      "applewood": 5494,
      "gooey": 5495,
      "been": 5496,
      "##oumi": 5497,
      "lazy": 5498,
      "haricots": 5499,
      "500g": 5500,
      "gale": 5501,
      "times": 5502,
      "ghirardelli": 5503,
      "pasilla": 5504,
      "ost": 5505,
      "smart": 5506,
      "liking": 5507,
      "treat": 5508,
      "grouper": 5509,
      "beefy": 5510,
      "tartlets": 5511,
      "pressure": 5512,
      "smothered": 5513,
      "ust": 5514,
      "gher": 5515,
      "##ccan": 5516,
      "##hing": 5517,
      "wiped": 5518,
      "##nold": 5519,
      "##etida": 5520,
      "tzatziki": 5521,
      "sicilian": 5522,
      "eaven": 5523,
      "eep": 5524,
      "rapid": 5525,
      "gloves": 5526,
      "##ako": 5527,
      "##stant": 5528,
      "homestyle": 5529,
      "combined": 5530,
      "mole": 5531,
      "chocol": 5532,
      "##ipasto": 5533,
      "asaf": 5534,
      "fiber": 5535,
      "filo": 5536,
      "strudel": 5537,
      "broad": 5538,
      "proof": 5539,
      "stilton": 5540,
      "maid": 5541,
      "calvados": 5542,
      "##cello": 5543,
      "madras": 5544,
      "broccol": 5545,
      "mi": 5546,
      "outhwestern": 5547,
      "kugel": 5548,
      "##ress": 5549,
      "always": 5550,
      "oroccan": 5551,
      "unsliced": 5552,
      "lam": 5553,
      "##elles": 5554,
      "maxwell": 5555,
      "lum": 5556,
      "congealed": 5557,
      "prego": 5558,
      "##ulous": 5559,
      "tamales": 5560,
      "crowd": 5561,
      "2oz": 5562,
      "mexicorn": 5563,
      "cowboy": 5564,
      "milkshake": 5565,
      "impossible": 5566,
      "uin": 5567,
      "##eno": 5568,
      "beat": 5569,
      "tray": 5570,
      "##kk": 5571,
      "think": 5572,
      "##uel": 5573,
      "ba": 5574,
      "latte": 5575,
      "ponzu": 5576,
      "oy": 5577,
      "thanksgiving": 5578,
      "coins": 5579,
      "unsul": 5580,
      "finishing": 5581,
      "shoyu": 5582,
      "ob": 5583,
      "ark": 5584,
      "till": 5585,
      "hewy": 5586,
      "##uchen": 5587,
      "snickers": 5588,
      "##mother": 5589,
      "##chamel": 5590,
      "baguettes": 5591,
      "amazing": 5592,
      "##cut": 5593,
      "progresso": 5594,
      "auth": 5595,
      "##la": 5596,
      "eavenly": 5597,
      "sar": 5598,
      "50g": 5599,
      "##uyu": 5600,
      "african": 5601,
      "atermelon": 5602,
      "##viche": 5603,
      "##clun": 5604,
      "iv": 5605,
      "cappuccino": 5606,
      "bloody": 5607,
      "turnovers": 5608,
      "blt": 5609,
      "boy": 5610,
      "ussian": 5611,
      "satay": 5612,
      "west": 5613,
      "alnut": 5614,
      "bear": 5615,
      "mesclun": 5616,
      "sie": 5617,
      "angy": 5618,
      "za": 5619,
      "12oz": 5620,
      "150g": 5621,
      "picnic": 5622,
      "year": 5623,
      "dital": 5624,
      "ep": 5625,
      "joy": 5626,
      "aramelized": 5627,
      "merlot": 5628,
      "##ni": 5629,
      "##uns": 5630,
      "circ": 5631,
      "sich": 5632,
      "teamed": 5633,
      "##ner": 5634,
      "fresno": 5635,
      "ingerbread": 5636,
      "chimichurri": 5637,
      "ced": 5638,
      "ingu": 5639,
      "pock": 5640,
      "##erated": 5641,
      "mostaccioli": 5642,
      "million": 5643,
      "morton": 5644,
      "mangos": 5645,
      "milnot": 5646,
      "geor": 5647,
      "frankfurters": 5648,
      "shir": 5649,
      "ina": 5650,
      "##acore": 5651,
      "alsamic": 5652,
      "saucy": 5653,
      "replac": 5654,
      "andied": 5655,
      "##ecco": 5656,
      "rellenos": 5657,
      "##lent": 5658,
      "##embert": 5659,
      "1116": 5660,
      "delights": 5661,
      "tempura": 5662,
      "##reg": 5663,
      "ragout": 5664,
      "tandoori": 5665,
      "shallow": 5666,
      "scal": 5667,
      "comfort": 5668,
      "1c": 5669,
      "amin": 5670,
      "##ppo": 5671,
      "wonderful": 5672,
      "rinse": 5673,
      "perrins": 5674,
      "msg": 5675,
      "kumqu": 5676,
      "cupcake": 5677,
      "hall": 5678,
      "57": 5679,
      "ama": 5680,
      "cart": 5681,
      "farmer": 5682,
      "santa": 5683,
      "##garine": 5684,
      "##olli": 5685,
      "pac": 5686,
      "choc": 5687,
      "mouth": 5688,
      "##butter": 5689,
      "##green": 5690,
      "fettucini": 5691,
      "leafy": 5692,
      "chanterelle": 5693,
      "arden": 5694,
      "jerky": 5695,
      "play": 5696,
      "98": 5697,
      "hamburgers": 5698,
      "hipotle": 5699,
      "broccolini": 5700,
      "400g": 5701,
      "ashed": 5702,
      "carob": 5703,
      "riple": 5704,
      "##atic": 5705,
      "pocket": 5706,
      "bert": 5707,
      "##ogi": 5708,
      "##eness": 5709,
      "ries": 5710,
      "##apes": 5711,
      "albacore": 5712,
      "jew": 5713,
      "uck": 5714,
      "sep": 5715,
      "pete": 5716,
      "scented": 5717,
      "field": 5718,
      "ratatouille": 5719,
      "hemp": 5720,
      "##rese": 5721,
      "mcintosh": 5722,
      "sichuan": 5723,
      "utt": 5724,
      "carolina": 5725,
      "aff": 5726,
      "kent": 5727,
      "eviled": 5728,
      "israeli": 5729,
      "please": 5730,
      "luff": 5731,
      "nick": 5732,
      "peppered": 5733,
      "galang": 5734,
      "##topus": 5735,
      "##ipan": 5736,
      "start": 5737,
      "lan": 5738,
      "piment": 5739,
      "nglish": 5740,
      "rey": 5741,
      "andarin": 5742,
      "aj": 5743,
      "mp": 5744,
      "##atter": 5745,
      "##ship": 5746,
      "vern": 5747,
      "##br": 5748,
      "file": 5749,
      "##lec": 5750,
      "roe": 5751,
      "tenderizer": 5752,
      "chach": 5753,
      "224": 5754,
      "##urry": 5755,
      "bacardi": 5756,
      "prawn": 5757,
      "salata": 5758,
      "dole": 5759,
      "flavoured": 5760,
      "ais": 5761,
      "eet": 5762,
      "##ird": 5763,
      "bod": 5764,
      "##quite": 5765,
      "riental": 5766,
      "boysen": 5767,
      "urry": 5768,
      "entil": 5769,
      "combo": 5770,
      "agar": 5771,
      "authentic": 5772,
      "reduction": 5773,
      "##rogen": 5774,
      "peper": 5775,
      "kef": 5776,
      "nog": 5777,
      "canes": 5778,
      "brined": 5779,
      "grinder": 5780,
      "pappardelle": 5781,
      "riesling": 5782,
      "##oki": 5783,
      "anj": 5784,
      "dressed": 5785,
      "efriger": 5786,
      "anis": 5787,
      "rhod": 5788,
      "sin": 5789,
      "##we": 5790,
      "suet": 5791,
      "reo": 5792,
      "kikk": 5793,
      "ary": 5794,
      "##meats": 5795,
      "granita": 5796,
      "moj": 5797,
      "nan": 5798,
      "##banese": 5799,
      "chamb": 5800,
      "##fro": 5801,
      "##iang": 5802,
      "pros": 5803,
      "##ational": 5804,
      "##drogen": 5805,
      "parboiled": 5806,
      "bechamel": 5807,
      "##zes": 5808,
      "##olo": 5809,
      "ins": 5810,
      "ahi": 5811,
      "gro": 5812,
      "clover": 5813,
      "frangel": 5814,
      "rocky": 5815,
      "bratwurst": 5816,
      "##ku": 5817,
      "##zon": 5818,
      "##isbury": 5819,
      "board": 5820,
      "jus": 5821,
      "paneer": 5822,
      "ortilla": 5823,
      "##ucks": 5824,
      "power": 5825,
      "du": 5826,
      "enrich": 5827,
      "esto": 5828,
      "onkey": 5829,
      "nutmeats": 5830,
      "quesadilla": 5831,
      "camembert": 5832,
      "##leh": 5833,
      "skor": 5834,
      "ditalini": 5835,
      "tostadas": 5836,
      "chambord": 5837,
      "##oster": 5838,
      "parmigiana": 5839,
      "gochujang": 5840,
      "kh": 5841,
      "kash": 5842,
      "sauteing": 5843,
      "baileys": 5844,
      "ai": 5845,
      "##lie": 5846,
      "mayon": 5847,
      "oxtail": 5848,
      "towel": 5849,
      "crink": 5850,
      "master": 5851,
      "islands": 5852,
      "did": 5853,
      "enne": 5854,
      "##pepper": 5855,
      "fair": 5856,
      "debe": 5857,
      "segmented": 5858,
      "##van": 5859,
      "ceviche": 5860,
      "energy": 5861,
      "smokies": 5862,
      "athenos": 5863,
      "calz": 5864,
      "apanese": 5865,
      "flavors": 5866,
      "kikkoman": 5867,
      "enriched": 5868,
      "ive": 5869,
      "##ppin": 5870,
      "galangal": 5871,
      "##inia": 5872,
      "hots": 5873,
      "essent": 5874,
      "uinoa": 5875,
      "##ming": 5876,
      "##ppe": 5877,
      "prepare": 5878,
      "daiqu": 5879,
      "##hol": 5880,
      "anything": 5881,
      "bottoms": 5882,
      "cornich": 5883,
      "wilted": 5884,
      "tum": 5885,
      "pal": 5886,
      "##fe": 5887,
      "whey": 5888,
      "octopus": 5889,
      "##proof": 5890,
      "nch": 5891,
      "##lbs": 5892,
      "debearded": 5893,
      "##fin": 5894,
      "##inf": 5895,
      "awesome": 5896,
      "anjou": 5897,
      "##wa": 5898,
      "whl": 5899,
      "bundle": 5900,
      "isc": 5901,
      "picc": 5902,
      "divinity": 5903,
      "paleo": 5904,
      "medal": 5905,
      "brussel": 5906,
      "cotta": 5907,
      "yster": 5908,
      "right": 5909,
      "prosecco": 5910,
      "##perial": 5911,
      "towels": 5912,
      "##andelion": 5913,
      "tass": 5914,
      "dandelion": 5915,
      "jud": 5916,
      "abs": 5917,
      "##kan": 5918,
      "sazon": 5919,
      "luffy": 5920,
      "kentucky": 5921,
      "frangelico": 5922,
      "##rito": 5923,
      "12t": 5924,
      "alt": 5925,
      "efrigerator": 5926,
      "##rops": 5927,
      "asil": 5928,
      "rect": 5929,
      "straws": 5930,
      "scramble": 5931,
      "inside": 5932,
      "les": 5933,
      "musco": 5934,
      "plantain": 5935,
      "220": 5936,
      "assemb": 5937,
      "fleshed": 5938,
      "roux": 5939,
      "cheap": 5940,
      "sunshine": 5941,
      "cardamon": 5942,
      "mesquite": 5943,
      "basket": 5944,
      "##za": 5945,
      "12c": 5946,
      "##iva": 5947,
      "##mont": 5948,
      "elder": 5949,
      "leftovers": 5950,
      "angle": 5951,
      "##drogenated": 5952,
      "t2": 5953,
      "mission": 5954,
      "porridge": 5955,
      "brickle": 5956,
      "9oz": 5957,
      "pern": 5958,
      "bertolli": 5959,
      "##frozen": 5960,
      "eriyaki": 5961,
      "aro": 5962,
      "minus": 5963,
      "sweeter": 5964,
      "panna": 5965,
      "blanco": 5966,
      "olasses": 5967,
      "##ayan": 5968,
      "wholemeal": 5969,
      "easiest": 5970,
      "refresh": 5971,
      "caprese": 5972,
      "yuzu": 5973,
      "blackened": 5974,
      "##inch": 5975,
      "125g": 5976,
      "boursin": 5977,
      "jigger": 5978,
      "limoncello": 5979,
      "bavar": 5980,
      "tbsps": 5981,
      "rownies": 5982,
      "##refined": 5983,
      "honeyc": 5984,
      "eu": 5985,
      "chipot": 5986,
      "discard": 5987,
      "##ometer": 5988,
      "shitake": 5989,
      "sides": 5990,
      "thermometer": 5991,
      "jale": 5992,
      "##aka": 5993,
      "assembly": 5994,
      "there": 5995,
      "blondies": 5996,
      "stoned": 5997,
      "earl": 5998,
      "shaken": 5999,
      "##umet": 6000,
      "confetti": 6001,
      "aleppo": 6002,
      "42": 6003,
      "lac": 6004,
      "##ram": 6005,
      "##overs": 6006,
      "frag": 6007,
      "fizz": 6008,
      "metal": 6009,
      "galette": 6010,
      "extrav": 6011,
      "ery": 6012,
      "16oz": 6013,
      "fant": 6014,
      "##nce": 6015,
      "##eric": 6016,
      "unrefined": 6017,
      "milliliter": 6018,
      "passover": 6019,
      "scaled": 6020,
      "chachere": 6021,
      "##cious": 6022,
      "milky": 6023,
      "carc": 6024,
      "##ui": 6025,
      "amaretti": 6026,
      "prebaked": 6027,
      "holes": 6028,
      "vol": 6029,
      "aby": 6030,
      "ocha": 6031,
      "##wick": 6032,
      "tastes": 6033,
      "##water": 6034,
      "fourths": 6035,
      "insp": 6036,
      "tree": 6037,
      "340": 6038,
      "mem": 6039,
      "bragg": 6040,
      "mortar": 6041,
      "beach": 6042,
      "##ruits": 6043,
      "nchilad": 6044,
      "bliss": 6045,
      "waxy": 6046,
      "mpossible": 6047,
      "garlicky": 6048,
      "79": 6049,
      "nstant": 6050,
      "marzipan": 6051,
      "ourbon": 6052,
      "fool": 6053,
      "crazy": 6054,
      "bened": 6055,
      "iii": 6056,
      "amish": 6057,
      "strings": 6058,
      "##nie": 6059,
      "##thday": 6060,
      "stirred": 6061,
      "crouton": 6062,
      "##zing": 6063,
      "jalep": 6064,
      "##cer": 6065,
      "thumbpr": 6066,
      "alcohol": 6067,
      "parma": 6068,
      "campari": 6069,
      "petals": 6070,
      "##rowav": 6071,
      "micropl": 6072,
      "kept": 6073,
      "##icol": 6074,
      "chipotles": 6075,
      "##elloni": 6076,
      "local": 6077,
      "remoulade": 6078,
      "cloud": 6079,
      "irt": 6080,
      "##otta": 6081,
      "##easpoon": 6082,
      "enoki": 6083,
      "paul": 6084,
      "##bby": 6085,
      "##rap": 6086,
      "tagine": 6087,
      "tumeric": 6088,
      "##ene": 6089,
      "standard": 6090,
      "aminos": 6091,
      "##lis": 6092,
      "cult": 6093,
      "sauted": 6094,
      "##bone": 6095,
      "##eros": 6096,
      "alic": 6097,
      "auerkraut": 6098,
      "include": 6099,
      "worches": 6100,
      "arom": 6101,
      "##ilage": 6102,
      "##nolds": 6103,
      "obs": 6104,
      "maybe": 6105,
      "cha": 6106,
      "1tsp": 6107,
      "sugges": 6108,
      "cartilage": 6109,
      "benedict": 6110,
      "keebler": 6111,
      "##ades": 6112,
      "week": 6113,
      "barb": 6114,
      "##ellent": 6115,
      "tangerines": 6116,
      "##kfish": 6117,
      "away": 6118,
      "brazil": 6119,
      "substitution": 6120,
      "##vado": 6121,
      "known": 6122,
      "nab": 6123,
      "rame": 6124,
      "kil": 6125,
      "abt": 6126,
      "##nitz": 6127,
      "certo": 6128,
      "##ingues": 6129,
      "achi": 6130,
      "##iments": 6131,
      "arthur": 6132,
      "hills": 6133,
      "##ela": 6134,
      "##irgin": 6135,
      "mich": 6136,
      "thickened": 6137,
      "nes": 6138,
      "bavarian": 6139,
      "##orm": 6140,
      "pats": 6141,
      "rash": 6142,
      "spare": 6143,
      "reynolds": 6144,
      "extravirgin": 6145,
      "alifornia": 6146,
      "charred": 6147,
      "retz": 6148,
      "bakery": 6149,
      "##meji": 6150,
      "render": 6151,
      "north": 6152,
      "latkes": 6153,
      "fal": 6154,
      "lush": 6155,
      "number": 6156,
      "##esli": 6157,
      "reat": 6158,
      "net": 6159,
      "grah": 6160,
      "scratch": 6161,
      "##pea": 6162,
      "utty": 6163,
      "reduce": 6164,
      "moky": 6165,
      "cobs": 6166,
      "gumdrops": 6167,
      "zinf": 6168,
      "72": 6169,
      "fall": 6170,
      "achiote": 6171,
      "himal": 6172,
      "bubble": 6173,
      "imperial": 6174,
      "piccata": 6175,
      "##bro": 6176,
      "everything": 6177,
      "oam": 6178,
      "##onstit": 6179,
      "unf": 6180,
      "strength": 6181,
      "rhodes": 6182,
      "gf": 6183,
      "1516": 6184,
      "aisle": 6185,
      "oiled": 6186,
      "loppy": 6187,
      "bn": 6188,
      "inspired": 6189,
      "##head": 6190,
      "circles": 6191,
      "##aca": 6192,
      "sprinkled": 6193,
      "##gu": 6194,
      "88": 6195,
      "hilled": 6196,
      "grinds": 6197,
      "alo": 6198,
      "rs": 6199,
      "parkay": 6200,
      "##ged": 6201,
      "choco": 6202,
      "##rad": 6203,
      "reole": 6204,
      "pest": 6205,
      "prep": 6206,
      "virg": 6207,
      "jon": 6208,
      "##oro": 6209,
      "muscovado": 6210,
      "pheas": 6211,
      "text": 6212,
      "3t": 6213,
      "chur": 6214,
      "sugared": 6215,
      "pernod": 6216,
      "shimeji": 6217,
      "tod": 6218,
      "##estring": 6219,
      "49": 6220,
      "later": 6221,
      "loaded": 6222,
      "44": 6223,
      "western": 6224,
      "reconstit": 6225,
      "fa": 6226,
      "##rian": 6227,
      "tran": 6228,
      "##elf": 6229,
      "alad": 6230,
      "meringues": 6231,
      "mayonaise": 6232,
      "tiger": 6233,
      "mojito": 6234,
      "enison": 6235,
      "following": 6236,
      "##weg": 6237,
      "zucch": 6238,
      "##bird": 6239,
      "who": 6240,
      "pots": 6241,
      "nuoc": 6242,
      "tt": 6243,
      "blu": 6244,
      "measured": 6245,
      "daiquiri": 6246,
      "griddle": 6247,
      "inguine": 6248,
      "oamc": 6249,
      "empanadas": 6250,
      "##eeze": 6251,
      "porter": 6252,
      "alcoholic": 6253,
      "##eon": 6254,
      "zinfandel": 6255,
      "himalayan": 6256,
      "strea": 6257,
      "##isch": 6258,
      "ofu": 6259,
      "##wegian": 6260,
      "gent": 6261,
      "##ippy": 6262,
      "orned": 6263,
      "sab": 6264,
      "##olata": 6265,
      "ellow": 6266,
      "snickerdoodles": 6267,
      "gummy": 6268,
      "##eading": 6269,
      "teas": 6270,
      "15oz": 6271,
      "lebanese": 6272,
      "obster": 6273,
      "##ume": 6274,
      "suggested": 6275,
      "boats": 6276,
      "knead": 6277,
      "ottage": 6278,
      "##zarella": 6279,
      "subs": 6280,
      "vernight": 6281,
      "##kka": 6282,
      "##di": 6283,
      "kneading": 6284,
      "alternative": 6285,
      "claw": 6286,
      "magg": 6287,
      "ogurt": 6288,
      "hay": 6289,
      "##tti": 6290,
      "drinking": 6291,
      "hardboiled": 6292,
      "grapefruits": 6293,
      "##ister": 6294,
      "##ucy": 6295,
      "##tic": 6296,
      "##got": 6297,
      "calumet": 6298,
      "platter": 6299,
      "##uki": 6300,
      "halloumi": 6301,
      "##bled": 6302,
      "skinny": 6303,
      "combine": 6304,
      "raham": 6305,
      "##tablespoon": 6306,
      "##ropean": 6307,
      "##mann": 6308,
      "whisky": 6309,
      "retzel": 6310,
      "aust": 6311,
      "faced": 6312,
      "ke": 6313,
      "##fry": 6314,
      "##achet": 6315,
      "rendered": 6316,
      "##tie": 6317,
      "esc": 6318,
      "crown": 6319,
      "illion": 6320,
      "milled": 6321,
      "niblets": 6322,
      "iabetic": 6323,
      "hunky": 6324,
      "seperated": 6325,
      "macaroon": 6326,
      "ov": 6327,
      "##iscus": 6328,
      "mandoline": 6329,
      "outhwest": 6330,
      "peels": 6331,
      "calories": 6332,
      "antipasto": 6333,
      "grana": 6334,
      "lu": 6335,
      "done": 6336,
      "eating": 6337,
      "cham": 6338,
      "##15": 6339,
      "padano": 6340,
      "succ": 6341,
      "chews": 6342,
      "##ults": 6343,
      "##burgers": 6344,
      "addition": 6345,
      "loll": 6346,
      "trail": 6347,
      "yields": 6348,
      "soybeans": 6349,
      "##imb": 6350,
      "monkfish": 6351,
      "shrim": 6352,
      "wiener": 6353,
      "hillshire": 6354,
      "deen": 6355,
      "##olitan": 6356,
      "twink": 6357,
      "grahams": 6358,
      "canchopped": 6359,
      "heesecake": 6360,
      "shops": 6361,
      "sundaes": 6362,
      "coul": 6363,
      "adding": 6364,
      "##eath": 6365,
      "shoestring": 6366,
      "##ettini": 6367,
      "280": 6368,
      "##onesian": 6369,
      "aromatic": 6370,
      "festive": 6371,
      "virginia": 6372,
      "##rami": 6373,
      "mate": 6374,
      "##nes": 6375,
      "ocean": 6376,
      "##aster": 6377,
      "cornichons": 6378,
      "hold": 6379,
      "ib": 6380,
      "soybean": 6381,
      "grained": 6382,
      "cassis": 6383,
      "swir": 6384,
      "shreds": 6385,
      "##afel": 6386,
      "float": 6387,
      "cent": 6388,
      "fridge": 6389,
      "##rease": 6390,
      "melba": 6391,
      "rockpot": 6392,
      "##ning": 6393,
      "##uckle": 6394,
      "jif": 6395,
      "##rabi": 6396,
      "moisten": 6397,
      "separately": 6398,
      "sorrel": 6399,
      "sweetness": 6400,
      "eleph": 6401,
      "girl": 6402,
      "barilla": 6403,
      "passionfruit": 6404,
      "whitefish": 6405,
      "european": 6406,
      "muesli": 6407,
      "lily": 6408,
      "roman": 6409,
      "ramekins": 6410,
      "tomatoe": 6411,
      "utch": 6412,
      "krispie": 6413,
      "birthday": 6414,
      "pacific": 6415,
      "poor": 6416,
      "##dess": 6417,
      "microplane": 6418,
      "dirty": 6419,
      "something": 6420,
      "feel": 6421,
      "buttermar": 6422,
      "eared": 6423,
      "mississippi": 6424,
      "fudgy": 6425,
      "##grain": 6426,
      "snapped": 6427,
      "azy": 6428,
      "##onom": 6429,
      "carp": 6430,
      "absol": 6431,
      "winning": 6432,
      "bast": 6433,
      "kings": 6434,
      "mod": 6435,
      "spi": 6436,
      "mai": 6437,
      "##atar": 6438,
      "gizz": 6439,
      "maker": 6440,
      "soaking": 6441,
      "hib": 6442,
      "##ever": 6443,
      "cello": 6444,
      "prev": 6445,
      "shrimps": 6446,
      "htt": 6447,
      "##strap": 6448,
      "maui": 6449,
      "elephant": 6450,
      "reconstituted": 6451,
      "berm": 6452,
      "##gia": 6453,
      "eleg": 6454,
      "##orite": 6455,
      "essential": 6456,
      "43": 6457,
      "gras": 6458,
      "##ement": 6459,
      "celtic": 6460,
      "etou": 6461,
      "personal": 6462,
      "pimenton": 6463,
      "coulis": 6464,
      "oached": 6465,
      "##otash": 6466,
      "texture": 6467,
      "##lea": 6468,
      "hands": 6469,
      "complet": 6470,
      "grem": 6471,
      "##eller": 6472,
      "veined": 6473,
      "approximate": 6474,
      "fab": 6475,
      "gul": 6476,
      "mut": 6477,
      "##eral": 6478,
      "30g": 6479,
      "popp": 6480,
      "while": 6481,
      "johns": 6482,
      "avorite": 6483,
      "miz": 6484,
      "##quake": 6485,
      "tsps": 6486,
      "boca": 6487,
      "omp": 6488,
      "wheels": 6489,
      "##ueur": 6490,
      "frito": 6491,
      "tonic": 6492,
      "sultana": 6493,
      "doesn": 6494,
      "completely": 6495,
      "##phane": 6496,
      "##entsuyu": 6497,
      "decorator": 6498,
      "pak": 6499,
      "creams": 6500,
      "samuel": 6501,
      "sautern": 6502,
      "bermuda": 6503,
      "grate": 6504,
      "main": 6505,
      "cla": 6506,
      "otatoes": 6507,
      "tasting": 6508,
      "herring": 6509,
      "served": 6510,
      "genoa": 6511,
      "decorations": 6512,
      "streaky": 6513,
      "kel": 6514,
      "method": 6515,
      "feet": 6516,
      "ru": 6517,
      "pastries": 6518,
      "asty": 6519,
      "tomatos": 6520,
      "ranny": 6521,
      "buttermargarine": 6522,
      "vital": 6523,
      "##burn": 6524,
      "sift": 6525,
      "elv": 6526,
      "goddess": 6527,
      "lesueur": 6528,
      "sofrito": 6529,
      "ral": 6530,
      "vis": 6531,
      "maria": 6532,
      "hort": 6533,
      "mentsuyu": 6534,
      "uacamole": 6535,
      "lighter": 6536,
      "nabisco": 6537,
      "riv": 6538,
      "sheep": 6539,
      "ain": 6540,
      "mug": 6541,
      "microwav": 6542,
      "ume": 6543,
      "crme": 6544,
      "whoo": 6545,
      "300g": 6546,
      "quant": 6547,
      "overripe": 6548,
      "wontons": 6549,
      "arshmal": 6550,
      "##hl": 6551,
      "scooped": 6552,
      "hydrogenated": 6553,
      "excellent": 6554,
      "fly": 6555,
      "dig": 6556,
      "cellophane": 6557,
      "stk": 6558,
      "##yseed": 6559,
      "##esco": 6560,
      "watergate": 6561,
      "pastrami": 6562,
      "nibs": 6563,
      "tick": 6564,
      "vit": 6565,
      "##non": 6566,
      "##ali": 6567,
      "##crust": 6568,
      "##romb": 6569,
      "ettucc": 6570,
      "eppermint": 6571,
      "foster": 6572,
      "##eful": 6573,
      "logs": 6574,
      "give": 6575,
      "might": 6576,
      "hess": 6577,
      "##oza": 6578,
      "225g": 6579,
      "ric": 6580,
      "##zos": 6581,
      "##adent": 6582,
      "rownie": 6583,
      "point": 6584,
      "woody": 6585,
      "okara": 6586,
      "poppers": 6587,
      "bold": 6588,
      "air": 6589,
      "##geon": 6590,
      "favorites": 6591,
      "grandmother": 6592,
      "vick": 6593,
      "wrea": 6594,
      "hibiscus": 6595,
      "##adillo": 6596,
      "fettuccini": 6597,
      "popsicles": 6598,
      "stacks": 6599,
      "lollip": 6600,
      "hef": 6601,
      "yak": 6602,
      "slim": 6603,
      "gremolata": 6604,
      "##alt": 6605,
      "pecial": 6606,
      "##acks": 6607,
      "##raine": 6608,
      "castor": 6609,
      "morels": 6610,
      "rashers": 6611,
      "zucchinis": 6612,
      "sold": 6613,
      "pestle": 6614,
      "courgette": 6615,
      "ress": 6616,
      "tinned": 6617,
      "1316": 6618,
      "schnitz": 6619,
      "##lers": 6620,
      "soap": 6621,
      "passata": 6622,
      "fresca": 6623,
      "hipped": 6624,
      "ja": 6625,
      "##iles": 6626,
      "turns": 6627,
      "paula": 6628,
      "washington": 6629,
      "mixer": 6630,
      "twin": 6631,
      "popovers": 6632,
      "gherkins": 6633,
      "chab": 6634,
      "worchestershire": 6635,
      "bus": 6636,
      "iscuit": 6637,
      "##45": 6638,
      "##odium": 6639,
      "arshmallow": 6640,
      "rigate": 6641,
      "##tles": 6642,
      "libby": 6643,
      "tikka": 6644,
      "je": 6645,
      "lis": 6646,
      "parmes": 6647,
      "##iev": 6648,
      "gelato": 6649,
      "ocoa": 6650,
      "sle": 6651,
      "##iah": 6652,
      "suc": 6653,
      "thing": 6654,
      "life": 6655,
      "pennies": 6656,
      "ry": 6657,
      "glasses": 6658,
      "weigh": 6659,
      "crepe": 6660,
      "fed": 6661,
      "##imo": 6662,
      "palmful": 6663,
      "rape": 6664,
      "##oshi": 6665,
      "##lava": 6666,
      "grig": 6667,
      "valent": 6668,
      "crispies": 6669,
      "##romboli": 6670,
      "##atto": 6671,
      "wholegrain": 6672,
      "demi": 6673,
      "trans": 6674,
      "wagon": 6675,
      "##5g": 6676,
      "##fiel": 6677,
      "gut": 6678,
      "mulled": 6679,
      "qts": 6680,
      "##rec": 6681,
      "14oz": 6682,
      "##ashi": 6683,
      "bh": 6684,
      "shortcakes": 6685,
      "desire": 6686,
      "dew": 6687,
      "##esta": 6688,
      "grating": 6689,
      "tabbou": 6690,
      "noir": 6691,
      "chablis": 6692,
      "poke": 6693,
      "##osa": 6694,
      "wondra": 6695,
      "chay": 6696,
      "ched": 6697,
      "##ips": 6698,
      "kirby": 6699,
      "yes": 6700,
      "flavorful": 6701,
      "##aghettini": 6702,
      "grands": 6703,
      "hatch": 6704,
      "##chee": 6705,
      "owboy": 6706,
      "tabbouleh": 6707,
      "kumquats": 6708,
      "canapes": 6709,
      "fondant": 6710,
      "luncheon": 6711,
      "##amate": 6712,
      "spoonful": 6713,
      "chanterelles": 6714,
      "foot": 6715,
      "ga": 6716,
      "alted": 6717,
      "atar": 6718,
      "##work": 6719,
      "snaps": 6720,
      "piquillo": 6721,
      "brae": 6722,
      "mixing": 6723,
      "textured": 6724,
      "scored": 6725,
      "thicker": 6726,
      "eatballs": 6727,
      "jalepeno": 6728,
      "calls": 6729,
      "ways": 6730,
      "clementine": 6731,
      "##onc": 6732,
      "chicory": 6733,
      "fag": 6734,
      "poppyseed": 6735,
      "face": 6736,
      "tong": 6737,
      "stars": 6738,
      "bocc": 6739,
      "dev": 6740,
      "julius": 6741,
      "nilla": 6742,
      "margaritas": 6743,
      "##rey": 6744,
      "##ient": 6745,
      "##bbean": 6746,
      "glutamate": 6747,
      "##oria": 6748,
      "succotash": 6749,
      "ach": 6750,
      "blackstrap": 6751,
      "monos": 6752,
      "concor": 6753,
      "kr": 6754,
      "##xt": 6755,
      "cutter": 6756,
      "monosodium": 6757,
      "pheasant": 6758,
      "93": 6759,
      "ak": 6760,
      "##fix": 6761,
      "saltpepper": 6762,
      "##oto": 6763,
      "kiwis": 6764,
      "wat": 6765,
      "arroz": 6766,
      "##cupine": 6767,
      "judges": 6768,
      "##ein": 6769,
      "capellini": 6770,
      "bucatini": 6771,
      "thins": 6772,
      "jarls": 6773,
      "bonbon": 6774,
      "ourdough": 6775,
      "whoopie": 6776,
      "##ibu": 6777,
      "quince": 6778,
      "rsc": 6779,
      "##shell": 6780,
      "puppy": 6781,
      "variations": 6782,
      "cin": 6783,
      "ribeye": 6784,
      "alaska": 6785,
      "5fix": 6786,
      "pav": 6787,
      "flattened": 6788,
      "dam": 6789,
      "tu": 6790,
      "shortcrust": 6791,
      "gently": 6792,
      "marie": 6793,
      "monster": 6794,
      "cebox": 6795,
      "brun": 6796,
      "verb": 6797,
      "##hi": 6798,
      "##ilt": 6799,
      "city": 6800,
      "pits": 6801,
      "healthier": 6802,
      "##fire": 6803,
      "shoo": 6804,
      "speed": 6805,
      "gingered": 6806,
      "dung": 6807,
      "##ded": 6808,
      "easier": 6809,
      "atergate": 6810,
      "bist": 6811,
      "icotta": 6812,
      "##atappi": 6813,
      "aribbean": 6814,
      "scott": 6815,
      "terr": 6816,
      "bors": 6817,
      "worms": 6818,
      "jerem": 6819,
      "sauces": 6820,
      "##fetti": 6821,
      "ompany": 6822,
      "##oetida": 6823,
      "spic": 6824,
      "96": 6825,
      "lovers": 6826,
      "eyes": 6827,
      "fragrant": 6828,
      "dungeness": 6829,
      "pice": 6830,
      "etouffee": 6831,
      "braeburn": 6832,
      "iesta": 6833,
      "nar": 6834,
      "etter": 6835,
      "utumn": 6836,
      "bill": 6837,
      "teasp": 6838,
      "##zanella": 6839,
      "unday": 6840,
      "##mm": 6841,
      "##boshi": 6842,
      "town": 6843,
      "she": 6844,
      "brandied": 6845,
      "brien": 6846,
      "verbena": 6847,
      "concord": 6848,
      "maggi": 6849,
      "t12": 6850,
      "##inian": 6851,
      "saucepan": 6852,
      "cannelloni": 6853,
      "courgettes": 6854,
      "##inous": 6855,
      "salisbury": 6856,
      "post": 6857,
      "lorraine": 6858,
      "##uca": 6859,
      "those": 6860,
      "absolut": 6861,
      "pepe": 6862,
      "##ures": 6863,
      "##ugh": 6864,
      "uscan": 6865,
      "prof": 6866,
      "friendship": 6867,
      "grigio": 6868,
      "420": 6869,
      "dani": 6870,
      "provencal": 6871,
      "aucy": 6872,
      "##aire": 6873,
      "breeze": 6874,
      "raita": 6875,
      "calico": 6876,
      "ous": 6877,
      "##jiang": 6878,
      "##onata": 6879,
      "persimmons": 6880,
      "##rip": 6881,
      "jeremiah": 6882,
      "mediums": 6883,
      "morel": 6884,
      "willi": 6885,
      "##iness": 6886,
      "gray": 6887,
      "kuchen": 6888,
      "nature": 6889,
      "wee": 6890,
      "##isan": 6891,
      "pretty": 6892,
      "carcass": 6893,
      "shapes": 6894,
      "basting": 6895,
      "bocconcini": 6896,
      "##po": 6897,
      "ettuccine": 6898,
      "sweetcorn": 6899,
      "ack": 6900,
      "asafoetida": 6901,
      "##atelli": 6902,
      "jarlsberg": 6903,
      "raditional": 6904,
      "fleisch": 6905,
      "##x1": 6906,
      "oist": 6907,
      "kiwif": 6908,
      "drumettes": 6909,
      "johnson": 6910,
      "bruns": 6911,
      "tested": 6912,
      "hickpea": 6913,
      "##wan": 6914,
      "herbal": 6915,
      "epperoni": 6916,
      "elegant": 6917,
      "careful": 6918,
      "limas": 6919,
      "once": 6920,
      "##eau": 6921,
      "agic": 6922,
      "comes": 6923,
      "hile": 6924,
      "mineral": 6925,
      "sex": 6926,
      "beaut": 6927,
      "sash": 6928,
      "tre": 6929,
      "##press": 6930,
      "ruth": 6931,
      "ltimate": 6932,
      "glutinous": 6933,
      "elect": 6934,
      "bullion": 6935,
      "hanout": 6936,
      "border": 6937,
      "seitan": 6938,
      "eth": 6939,
      "##wny": 6940,
      "captain": 6941,
      "##ota": 6942,
      "twine": 6943,
      "smoothies": 6944,
      "elderflower": 6945,
      "substitutions": 6946,
      "##field": 6947,
      "##ettle": 6948,
      "540": 6949,
      "din": 6950,
      "eggless": 6951,
      "quantity": 6952,
      "lus": 6953,
      "##rat": 6954,
      "##olet": 6955,
      "malibu": 6956,
      "tep": 6957,
      "bakers": 6958,
      "produce": 6959,
      "urtle": 6960,
      "kohl": 6961,
      "##ounds": 6962,
      "##fresh": 6963,
      "cutlet": 6964,
      "strands": 6965,
      "clementines": 6966,
      "sprouted": 6967,
      "calab": 6968,
      "cavatappi": 6969,
      "ticky": 6970,
      "peaks": 6971,
      "near": 6972,
      "spirals": 6973,
      "ississippi": 6974,
      "scalo": 6975,
      "rome": 6976,
      "##rets": 6977,
      "fif": 6978,
      "nana": 6979,
      "wass": 6980,
      "sashimi": 6981,
      "##vender": 6982,
      "bath": 6983,
      "450g": 6984,
      "uth": 6985,
      "check": 6986,
      "fix": 6987,
      "##mite": 6988,
      "##eshredded": 6989,
      "spaghettini": 6990,
      "##ainder": 6991,
      "114": 6992,
      "sanding": 6993,
      "daniels": 6994,
      "kin": 6995,
      "##pples": 6996,
      "carving": 6997,
      "675": 6998,
      "##ppine": 6999,
      "eath": 7000,
      "vienn": 7001,
      "www": 7002,
      "pepp": 7003,
      "ungarian": 7004,
      "##aft": 7005,
      "boboli": 7006,
      "##cups": 7007,
      "##alem": 7008,
      "brunswick": 7009,
      "##hat": 7010,
      "##hot": 7011,
      "##usalem": 7012,
      "cooks": 7013,
      "##odized": 7014,
      "##kshire": 7015,
      "##awed": 7016,
      "florida": 7017,
      "##rit": 7018,
      "frenched": 7019,
      "plent": 7020,
      "tspn": 7021,
      "budd": 7022,
      "mish": 7023,
      "ny": 7024,
      "emony": 7025,
      "ramps": 7026,
      "tostit": 7027,
      "1000": 7028,
      "amaranth": 7029,
      "gyoza": 7030,
      "##rie": 7031,
      "flourless": 7032,
      "ron": 7033,
      "adds": 7034,
      "normal": 7035,
      "lotus": 7036,
      "borsch": 7037,
      "##oury": 7038,
      "samb": 7039,
      "##pi": 7040,
      "peek": 7041,
      "minted": 7042,
      "die": 7043,
      "kefir": 7044,
      "##tm": 7045,
      "crisped": 7046,
      "kiwifruit": 7047,
      "##esca": 7048,
      "skewer": 7049,
      "smokey": 7050,
      "borden": 7051,
      "wid": 7052,
      "brazilian": 7053,
      "alaskan": 7054,
      "wassail": 7055,
      "nig": 7056,
      "15ml": 7057,
      "##keye": 7058,
      "aesar": 7059,
      "##sto": 7060,
      "electric": 7061,
      "pb": 7062,
      "slit": 7063,
      "##tencal": 7064,
      "membranes": 7065,
      "line": 7066,
      "peeling": 7067,
      "ell": 7068,
      "exp": 7069,
      "abm": 7070,
      "lardons": 7071,
      "aniseed": 7072,
      "honeycrisp": 7073,
      "orean": 7074,
      "case": 7075,
      "##atsu": 7076,
      "ub": 7077,
      "know": 7078,
      "speck": 7079,
      "##ylvan": 7080,
      "##olf": 7081,
      "puddings": 7082,
      "terrine": 7083,
      "cos": 7084,
      "kol": 7085,
      "endives": 7086,
      "mms": 7087,
      "fabulous": 7088,
      "aji": 7089,
      "##uces": 7090,
      "arvest": 7091,
      "##pez": 7092,
      "plenty": 7093,
      "##ook": 7094,
      "lact": 7095,
      "mojo": 7096,
      "##edy": 7097,
      "30ml": 7098,
      "visible": 7099,
      "gutted": 7100,
      "artisan": 7101,
      "oor": 7102,
      "##hell": 7103,
      "##inato": 7104,
      "##anched": 7105,
      "##urre": 7106,
      "heeseburger": 7107,
      "##erve": 7108,
      "brook": 7109,
      "sunny": 7110,
      "bison": 7111,
      "franc": 7112,
      "sens": 7113,
      "##book": 7114,
      "seashell": 7115,
      "##avian": 7116,
      "seasonal": 7117,
      "##apeo": 7118,
      "bomb": 7119,
      "rosted": 7120,
      "212": 7121,
      "fri": 7122,
      "lace": 7123,
      "taff": 7124,
      "marrow": 7125,
      "rob": 7126,
      "sieved": 7127,
      "peck": 7128,
      "school": 7129,
      "fleischmann": 7130,
      "aster": 7131,
      "estive": 7132,
      "johnny": 7133,
      "falafel": 7134,
      "##baking": 7135,
      "##ipino": 7136,
      "ka": 7137,
      "##sed": 7138,
      "##ann": 7139,
      "##adina": 7140,
      "##ayas": 7141,
      "fryers": 7142,
      "newman": 7143,
      "60g": 7144,
      "indonesian": 7145,
      "kohlrabi": 7146,
      "##ora": 7147,
      "##rod": 7148,
      "##bergin": 7149,
      "##thawed": 7150,
      "##armint": 7151,
      "unblanched": 7152,
      "ruity": 7153,
      "pigs": 7154,
      "shish": 7155,
      "5cm": 7156,
      "95": 7157,
      "oss": 7158,
      "ooey": 7159,
      "##opped": 7160,
      "ozs": 7161,
      "burrata": 7162,
      "tent": 7163,
      "remainder": 7164,
      "##oug": 7165,
      "increase": 7166,
      "portabello": 7167,
      "opcorn": 7168,
      "igh": 7169,
      "##itakes": 7170,
      "##acles": 7171,
      "oils": 7172,
      "lov": 7173,
      "marbled": 7174,
      "fagioli": 7175,
      "##lion": 7176,
      "ane": 7177,
      "avac": 7178,
      "spearmint": 7179,
      "omitted": 7180,
      "shirat": 7181,
      "aper": 7182,
      "drun": 7183,
      "sorted": 7184,
      "bom": 7185,
      "tostada": 7186,
      "tins": 7187,
      "maine": 7188,
      "annatto": 7189,
      "peachy": 7190,
      "eek": 7191,
      "wice": 7192,
      "sp5": 7193,
      "##keyes": 7194,
      "collards": 7195,
      "hill": 7196,
      "ling": 7197,
      "##vos": 7198,
      "strain": 7199,
      "cobb": 7200,
      "popsicle": 7201,
      "bonbons": 7202,
      "oll": 7203,
      "taffy": 7204,
      "##fryer": 7205,
      "leaving": 7206,
      "185": 7207,
      "nchilada": 7208,
      "baskets": 7209,
      "azel": 7210,
      "schnitzel": 7211,
      "jan": 7212,
      "fric": 7213,
      "hothouse": 7214,
      "manis": 7215,
      "ggs": 7216,
      "950": 7217,
      "dav": 7218,
      "##ylvania": 7219,
      "age": 7220,
      "selec": 7221,
      "label": 7222,
      "http": 7223,
      "eli": 7224,
      "premade": 7225,
      "hunts": 7226,
      "##pt": 7227,
      "lopez": 7228,
      "##amin": 7229,
      "torta": 7230,
      "pumpkins": 7231,
      "beurre": 7232,
      "typ": 7233,
      "umeboshi": 7234,
      "though": 7235,
      "mos": 7236,
      "neg": 7237,
      "##din": 7238,
      "stud": 7239,
      "litre": 7240,
      "balm": 7241,
      "spa": 7242,
      "kam": 7243,
      "aubergin": 7244,
      "4x": 7245,
      "pant": 7246,
      "##ece": 7247,
      "mb": 7248,
      "wak": 7249,
      "foie": 7250,
      "croissant": 7251,
      "##uvres": 7252,
      "ze": 7253,
      "uses": 7254,
      "colorful": 7255,
      "runny": 7256,
      "##hattan": 7257,
      "devils": 7258,
      "ggnog": 7259,
      "##icated": 7260,
      "##nsylvania": 7261,
      "##afout": 7262,
      "rabmeat": 7263,
      "vickys": 7264,
      "tostitos": 7265,
      "##net": 7266,
      "souff": 7267,
      "amoun": 7268,
      "broilerfryer": 7269,
      "results": 7270,
      "hamp": 7271,
      "refined": 7272,
      "66": 7273,
      "taro": 7274,
      "peasant": 7275,
      "68": 7276,
      "herm": 7277,
      "##ga": 7278,
      "##ju": 7279,
      "gly": 7280,
      "zip": 7281,
      "##oulet": 7282,
      "##asy": 7283,
      "unthawed": 7284,
      "panzanella": 7285,
      "##igan": 7286,
      "ideal": 7287,
      "mazing": 7288,
      "lav": 7289,
      "##way": 7290,
      "tubs": 7291,
      "tentacles": 7292,
      "bento": 7293,
      "sauterne": 7294,
      "pun": 7295,
      "snowballs": 7296,
      "kan": 7297,
      "buttons": 7298,
      "ee": 7299,
      "presliced": 7300,
      "ietnamese": 7301,
      "quite": 7302,
      "drumm": 7303,
      "##gent": 7304,
      "##adella": 7305,
      "clv": 7306,
      "polly": 7307,
      "ookie": 7308,
      "##ggy": 7309,
      "##ffe": 7310,
      "specified": 7311,
      "amounts": 7312,
      "acho": 7313,
      "queen": 7314,
      "lettuces": 7315,
      "##acky": 7316,
      "100u00b0": 7317,
      "ilantro": 7318,
      "mort": 7319,
      "##gotten": 7320,
      "##lar": 7321,
      "squir": 7322,
      "##lest": 7323,
      "burdock": 7324,
      "oeuvres": 7325,
      "##stock": 7326,
      "wakame": 7327,
      "tarte": 7328,
      "whisk": 7329,
      "umm": 7330,
      "ocky": 7331,
      "2cm": 7332,
      "##70": 7333,
      "##reading": 7334,
      "hotd": 7335,
      "bistro": 7336,
      "fold": 7337,
      "##anos": 7338,
      "##atted": 7339,
      "##utti": 7340,
      "intern": 7341,
      "allow": 7342,
      "paprik": 7343,
      "secrets": 7344,
      "len": 7345,
      "raz": 7346,
      "patch": 7347,
      "##berts": 7348,
      "eaches": 7349,
      "jerusalem": 7350,
      "ortellini": 7351,
      "##aler": 7352,
      "##outs": 7353,
      "shaker": 7354,
      "perch": 7355,
      "pand": 7356,
      "clafout": 7357,
      "##ichever": 7358,
      "blanket": 7359,
      "emonade": 7360,
      "ndividual": 7361,
      "##ase": 7362,
      "cip": 7363,
      "ties": 7364,
      "papayas": 7365,
      "cauliflowerets": 7366,
      "##bel": 7367,
      "##aisse": 7368,
      "pavlo": 7369,
      "whichever": 7370,
      "##ido": 7371,
      "ulled": 7372,
      "slender": 7373,
      "luscious": 7374,
      "wellington": 7375,
      "cara": 7376,
      "preferable": 7377,
      "##phured": 7378,
      "cardamoms": 7379,
      "pinea": 7380,
      "lover": 7381,
      "mouss": 7382,
      "vermont": 7383,
      "elery": 7384,
      "duty": 7385,
      "varieties": 7386,
      "childr": 7387,
      "##umpt": 7388,
      "molds": 7389,
      "name": 7390,
      "sugarless": 7391,
      "lood": 7392,
      "boull": 7393,
      "citric": 7394,
      "##aku": 7395,
      "shio": 7396,
      "##ogies": 7397,
      "battered": 7398,
      "aubergines": 7399,
      "norwegian": 7400,
      "lev": 7401,
      "uiche": 7402,
      "chou": 7403,
      "##itter": 7404,
      "cookbook": 7405,
      "contadina": 7406,
      "reez": 7407,
      "vict": 7408,
      "##half": 7409,
      "volume": 7410,
      "thumbprint": 7411,
      "hog": 7412,
      "mature": 7413,
      "spreading": 7414,
      "dra": 7415,
      "##joy": 7416,
      "stur": 7417,
      "seas": 7418,
      "rotelle": 7419,
      "disks": 7420,
      "dilly": 7421,
      "braggs": 7422,
      "mortadella": 7423,
      "##gs": 7424,
      "however": 7425,
      "unsulphured": 7426,
      "##gerine": 7427,
      "##yler": 7428,
      "often": 7429,
      "slurry": 7430,
      "cedar": 7431,
      "fricass": 7432,
      "lid": 7433,
      "que": 7434,
      "frosty": 7435,
      "bowtie": 7436,
      "piri": 7437,
      "foam": 7438,
      "##off": 7439,
      "rinds": 7440,
      "ten": 7441,
      "##iger": 7442,
      "chedder": 7443,
      "sucan": 7444,
      "grounded": 7445,
      "arley": 7446,
      "60ml": 7447,
      "##iously": 7448,
      "puttan": 7449,
      "carmel": 7450,
      "##etzle": 7451,
      "ancy": 7452,
      "alico": 7453,
      "narrow": 7454,
      "crud": 7455,
      "olish": 7456,
      "borscht": 7457,
      "puttanesca": 7458,
      "braid": 7459,
      "douban": 7460,
      "kettle": 7461,
      "##omile": 7462,
      "angl": 7463,
      "various": 7464,
      "##ford": 7465,
      "dian": 7466,
      "baklava": 7467,
      "days": 7468,
      "membrane": 7469,
      "bourgu": 7470,
      "sucanat": 7471,
      "pos": 7472,
      "poly": 7473,
      "valentine": 7474,
      "##umptious": 7475,
      "boullion": 7476,
      "##vard": 7477,
      "crook": 7478,
      "lindt": 7479,
      "river": 7480,
      "##iman": 7481,
      "##ense": 7482,
      "decorative": 7483,
      "backfin": 7484,
      "godiva": 7485,
      "calzones": 7486,
      "network": 7487,
      "children": 7488,
      "##uts": 7489,
      "conten": 7490,
      "milder": 7491,
      "scottish": 7492,
      "716": 7493,
      "pside": 7494,
      "##atas": 7495,
      "defatted": 7496,
      "##leaf": 7497,
      "stromboli": 7498,
      "##ffic": 7499,
      "lacinato": 7500,
      "##30": 7501,
      "ors": 7502,
      "prob": 7503,
      "manila": 7504,
      "nigella": 7505,
      "euben": 7506,
      "springs": 7507,
      "##sely": 7508,
      "aux": 7509,
      "360": 7510,
      "pouches": 7511,
      "##rot": 7512,
      "##hopper": 7513,
      "1cm": 7514,
      "7oz": 7515,
      "hake": 7516,
      "urad": 7517,
      "fruited": 7518,
      "bagg": 7519,
      "crinkles": 7520,
      "##zuki": 7521,
      "cansliced": 7522,
      "mexicana": 7523,
      "unpared": 7524,
      "branches": 7525,
      "cheeseburgers": 7526,
      "##fi": 7527,
      "ittle": 7528,
      "bulgar": 7529,
      "shiitakes": 7530,
      "pomod": 7531,
      "##raten": 7532,
      "wind": 7533,
      "copper": 7534,
      "napole": 7535,
      "pip": 7536,
      "roulade": 7537,
      "oz5": 7538,
      "alph": 7539,
      "cloth": 7540,
      "##mart": 7541,
      "##atian": 7542,
      "##usted": 7543,
      "dot": 7544,
      "zatar": 7545,
      "bed": 7546,
      "chiku": 7547,
      "ourmet": 7548,
      "rectang": 7549,
      "hayst": 7550,
      "brunoise": 7551,
      "##ops": 7552,
      "230": 7553,
      "##erbraten": 7554,
      "dollo": 7555,
      "austr": 7556,
      "kill": 7557,
      "##ressed": 7558,
      "parmesean": 7559,
      "azelnut": 7560,
      "andes": 7561,
      "juni": 7562,
      "##efish": 7563,
      "ornmeal": 7564,
      "request": 7565,
      "thickening": 7566,
      "gib": 7567,
      "boysenberry": 7568,
      "probably": 7569,
      "doubanjiang": 7570,
      "russels": 7571,
      "chocolat": 7572,
      "digestive": 7573,
      "come": 7574,
      "##ecr": 7575,
      "rawfish": 7576,
      "peri": 7577,
      "mizuna": 7578,
      "nonp": 7579,
      "splashes": 7580,
      "jewish": 7581,
      "didn": 7582,
      "maryland": 7583,
      "anglaise": 7584,
      "gills": 7585,
      "10oz": 7586,
      "biscuitbaking": 7587,
      "##azote": 7588,
      "chocolates": 7589,
      "oiling": 7590,
      "rutabagas": 7591,
      "colouring": 7592,
      "georgia": 7593,
      "pantry": 7594,
      "tenn": 7595,
      "cassoulet": 7596,
      "ashew": 7597,
      "##elo": 7598,
      "##isto": 7599,
      "pho": 7600,
      "husk": 7601,
      "jul": 7602,
      "sak": 7603,
      "kl": 7604,
      "ennel": 7605,
      "##luck": 7606,
      "mutton": 7607,
      "parsely": 7608,
      "glazing": 7609,
      "rehydrated": 7610,
      "compressed": 7611,
      "fairly": 7612,
      "scaloppine": 7613,
      "tew": 7614,
      "##oush": 7615,
      "rosc": 7616,
      "international": 7617,
      "iodized": 7618,
      "blint": 7619,
      "fromage": 7620,
      "epazote": 7621,
      "success": 7622,
      "nonpare": 7623,
      "racha": 7624,
      "grown": 7625,
      "##xx": 7626,
      "happy": 7627,
      "paint": 7628,
      "mist": 7629,
      "##aring": 7630,
      "evans": 7631,
      "275": 7632,
      "ard": 7633,
      "ocktail": 7634,
      "bodied": 7635,
      "chat": 7636,
      "abura": 7637,
      "prick": 7638,
      "dilled": 7639,
      "##rick": 7640,
      "enjoy": 7641,
      "unpopped": 7642,
      "unsulf": 7643,
      "johnsonville": 7644,
      "junior": 7645,
      "porterhouse": 7646,
      "chikuwa": 7647,
      "##heat": 7648,
      "matzoh": 7649,
      "chefs": 7650,
      "iet": 7651,
      "sol": 7652,
      "chee": 7653,
      "##psi": 7654,
      "ana": 7655,
      "bang": 7656,
      "wreath": 7657,
      "reezer": 7658,
      "illy": 7659,
      "spooned": 7660,
      "import": 7661,
      "boysenberries": 7662,
      "microwaved": 7663,
      "rio": 7664,
      "mark": 7665,
      "reme": 7666,
      "average": 7667,
      "##onsin": 7668,
      "ohn": 7669,
      "spritzer": 7670,
      "dais": 7671,
      "wan": 7672,
      "walmart": 7673,
      "unav": 7674,
      "gemelli": 7675,
      "cone": 7676,
      "cost": 7677,
      "##uctose": 7678,
      "ainbow": 7679,
      "width": 7680,
      "delicata": 7681,
      "todd": 7682,
      "typically": 7683,
      "##mes": 7684,
      "14c": 7685,
      "##uvian": 7686,
      "pigeon": 7687,
      "peruvian": 7688,
      "midori": 7689,
      "unshine": 7690,
      "cordial": 7691,
      "cact": 7692,
      "court": 7693,
      "coun": 7694,
      "replacement": 7695,
      "flame": 7696,
      "lids": 7697,
      "unavailable": 7698,
      "colle": 7699,
      "##rh": 7700,
      "##28": 7701,
      "fructose": 7702,
      "leafed": 7703,
      "spear": 7704,
      "cukes": 7705,
      "jalapeo": 7706,
      "adv": 7707,
      "molded": 7708,
      "imply": 7709,
      "mak": 7710,
      "wit": 7711,
      "##ggio": 7712,
      "sprg": 7713,
      "candiced": 7714,
      "rev": 7715,
      "oz540": 7716,
      "##bles": 7717,
      "aspic": 7718,
      "nests": 7719,
      "speedy": 7720,
      "pineapples": 7721,
      "crookneck": 7722,
      "oul": 7723,
      "##izo": 7724,
      "actually": 7725,
      "1tbsp": 7726,
      "cactus": 7727,
      "##bing": 7728,
      "##esa": 7729,
      "turn": 7730,
      "eta": 7731,
      "sopa": 7732,
      "preparation": 7733,
      "hepherd": 7734,
      "adzuki": 7735,
      "munch": 7736,
      "vac": 7737,
      "##assi": 7738,
      "ranola": 7739,
      "goats": 7740,
      "chayote": 7741,
      "drunken": 7742,
      "##bee": 7743,
      "tables": 7744,
      "cipoll": 7745,
      "vary": 7746,
      "ask": 7747,
      "##iful": 7748,
      "##flake": 7749,
      "spiked": 7750,
      "##anti": 7751,
      "conch": 7752,
      "slabs": 7753,
      "pierogi": 7754,
      "oston": 7755,
      "replacer": 7756,
      "raline": 7757,
      "ultra": 7758,
      "tepid": 7759,
      "##lotte": 7760,
      "sher": 7761,
      "##ensive": 7762,
      "##epherds": 7763,
      "jonat": 7764,
      "gai": 7765,
      "oo": 7766,
      "potatos": 7767,
      "##thers": 7768,
      "mins": 7769,
      "yours": 7770,
      "twinkies": 7771,
      "fricassee": 7772,
      "latin": 7773,
      "oak": 7774,
      "##car": 7775,
      "desc": 7776,
      "living": 7777,
      "##ov": 7778,
      "##ening": 7779,
      "##elve": 7780,
      "important": 7781,
      "pion": 7782,
      "muscat": 7783,
      "tob": 7784,
      "##eyers": 7785,
      "anish": 7786,
      "kilog": 7787,
      "unfil": 7788,
      "##nta": 7789,
      "entucky": 7790,
      "contin": 7791,
      "complete": 7792,
      "f45": 7793,
      "hu": 7794,
      "##ushed": 7795,
      "doughnut": 7796,
      "##ussen": 7797,
      "necks": 7798,
      "farmhouse": 7799,
      "flatbreads": 7800,
      "mozzer": 7801,
      "paris": 7802,
      "williams": 7803,
      "316": 7804,
      "besan": 7805,
      "marcus": 7806,
      "unsulfured": 7807,
      "exotic": 7808,
      "ara": 7809,
      "rachael": 7810,
      "unfiltered": 7811,
      "noug": 7812,
      "##iches": 7813,
      "linda": 7814,
      "rosciutto": 7815,
      "duk": 7816,
      "standing": 7817,
      "test": 7818,
      "##aps": 7819,
      "anta": 7820,
      "halfhalf": 7821,
      "arils": 7822,
      "ilk": 7823,
      "cultured": 7824,
      "##nesian": 7825,
      "pao": 7826,
      "##yn": 7827,
      "next": 7828,
      "vitamin": 7829,
      "uban": 7830,
      "boxed": 7831,
      "razy": 7832,
      "spaetzle": 7833,
      "mbrosia": 7834,
      "##ange": 7835,
      "redhot": 7836,
      "tartare": 7837,
      "moms": 7838,
      "carnitas": 7839,
      "adap": 7840,
      "marcona": 7841,
      "ustic": 7842,
      "lollipop": 7843,
      "2c": 7844,
      "tun": 7845,
      "##naise": 7846,
      "rican": 7847,
      "##ught": 7848,
      "cannoli": 7849,
      "##erto": 7850,
      "decadent": 7851,
      "izz": 7852,
      "olo": 7853,
      "##34": 7854,
      "bleached": 7855,
      "souffles": 7856,
      "pearls": 7857,
      "truvia": 7858,
      "##ought": 7859,
      "breading": 7860,
      "linguica": 7861,
      "major": 7862,
      "pinwheel": 7863,
      "kelp": 7864,
      "##cur": 7865,
      "canton": 7866,
      "straight": 7867,
      "refreshing": 7868,
      "ouscous": 7869,
      "jean": 7870,
      "lactose": 7871,
      "##pine": 7872,
      "##chwan": 7873,
      "salads": 7874,
      "dillweed": 7875,
      "kinds": 7876,
      "##recipes": 7877,
      "nt": 7878,
      "tenderized": 7879,
      "ortuguese": 7880,
      "ip": 7881,
      "mys": 7882,
      "mothered": 7883,
      "##ime": 7884,
      "sucr": 7885,
      "olenta": 7886,
      "a1": 7887,
      "hon": 7888,
      "finn": 7889,
      "##bbie": 7890,
      "glen": 7891,
      "tongue": 7892,
      "death": 7893,
      "##cia": 7894,
      "##ival": 7895,
      "steakhouse": 7896,
      "284": 7897,
      "horizo": 7898,
      "rid": 7899,
      "street": 7900,
      "mike": 7901,
      "claussen": 7902,
      "4t": 7903,
      "ens": 7904,
      "farina": 7905,
      "coffeecake": 7906,
      "rugula": 7907,
      "wok": 7908,
      "##ait": 7909,
      "##98": 7910,
      "##achi": 7911,
      "boar": 7912,
      "daisy": 7913,
      "rick": 7914,
      "##uitto": 7915,
      "wedged": 7916,
      "savoury": 7917,
      "nickerdoodles": 7918,
      "##piece": 7919,
      "omegranate": 7920,
      "others": 7921,
      "comstock": 7922,
      "espec": 7923,
      "hollow": 7924,
      "tasso": 7925,
      "pepperjack": 7926,
      "8020": 7927,
      "mallow": 7928,
      "solids": 7929,
      "ahlua": 7930,
      "ickys": 7931,
      "##rhona": 7932,
      "mess": 7933,
      "acini": 7934,
      "trisc": 7935,
      "supermarket": 7936,
      "methi": 7937,
      "diane": 7938,
      "lychee": 7939,
      "ersimmon": 7940,
      "lour": 7941,
      "##onny": 7942,
      "laugh": 7943,
      "##icali": 7944,
      "parkling": 7945,
      "sieve": 7946,
      "ret": 7947,
      "iso": 7948,
      "twelve": 7949,
      "early": 7950,
      "##ult": 7951,
      "28oz": 7952,
      "ue": 7953,
      "sue": 7954,
      "##ogen": 7955,
      "vera": 7956,
      "callops": 7957,
      "bluefish": 7958,
      "ger": 7959,
      "##acked": 7960,
      "romesco": 7961,
      "rabbits": 7962,
      "vienna": 7963,
      "pioneer": 7964,
      "olor": 7965,
      "clay": 7966,
      "sunrise": 7967,
      "illed": 7968,
      "triscuit": 7969,
      "jenn": 7970,
      "sizes": 7971,
      "mache": 7972,
      "sakura": 7973,
      "rubbing": 7974,
      "valrhona": 7975,
      "##line": 7976,
      "##uum": 7977,
      "floured": 7978,
      "rosewater": 7979,
      "were": 7980,
      "##star": 7981,
      "227": 7982,
      "treas": 7983,
      "asafetida": 7984,
      "moussaka": 7985,
      "ond": 7986,
      "calf": 7987,
      "content": 7988,
      "##rol": 7989,
      "##andy": 7990,
      "parad": 7991,
      "koji": 7992,
      "butterfly": 7993,
      "seconds": 7994,
      "thinner": 7995,
      "shan": 7996,
      "##kah": 7997,
      "arab": 7998,
      "batons": 7999,
      "gizzards": 8000,
      "sign": 8001,
      "##alenc": 8002,
      "mae": 8003,
      "##aine": 8004,
      "roul": 8005,
      "saved": 8006,
      "168": 8007,
      "fatty": 8008,
      "elbows": 8009,
      "105u00b0": 8010,
      "vie": 8011,
      "##cooked": 8012,
      "spider": 8013,
      "carol": 8014,
      "crumbed": 8015,
      "avo": 8016,
      "racker": 8017,
      "15g": 8018,
      "squirt": 8019,
      "ammon": 8020,
      "##erdoodle": 8021,
      "drummettes": 8022,
      "pavlova": 8023,
      "ug": 8024,
      "creat": 8025,
      "dreams": 8026,
      "his": 8027,
      "##marine": 8028,
      "chamomile": 8029,
      "fifth": 8030,
      "cach": 8031,
      "nic": 8032,
      "##oor": 8033,
      "##aroli": 8034,
      "pomegran": 8035,
      "elk": 8036,
      "yor": 8037,
      "sus": 8038,
      "##right": 8039,
      "##coal": 8040,
      "filberts": 8041,
      "##opita": 8042,
      "pepsi": 8043,
      "eatloaf": 8044,
      "hue": 8045,
      "valenc": 8046,
      "merican": 8047,
      "##fficient": 8048,
      "huckle": 8049,
      "calzone": 8050,
      "americ": 8051,
      "cad": 8052,
      "hredded": 8053,
      "flam": 8054,
      "cort": 8055,
      "amand": 8056,
      "rancheros": 8057,
      "shiro": 8058,
      "shop": 8059,
      "filipino": 8060,
      "ershey": 8061,
      "wesome": 8062,
      "##uma": 8063,
      "##uchi": 8064,
      "ealth": 8065,
      "hampagne": 8066,
      "dar": 8067,
      "rit": 8068,
      "##gger": 8069,
      "aldorf": 8070,
      "325": 8071,
      "uttery": 8072,
      "coursely": 8073,
      "bodies": 8074,
      "##tablespoons": 8075,
      "orseradish": 8076,
      "ruff": 8077,
      "##ize": 8078,
      "##ingbird": 8079,
      "190": 8080,
      "eatball": 8081,
      "maretto": 8082,
      "pearled": 8083,
      "perf": 8084,
      "garbanzos": 8085,
      "easoned": 8086,
      "oxtails": 8087,
      "kinako": 8088,
      "sachet": 8089,
      "##ift": 8090,
      "115g": 8091,
      "##large": 8092,
      "skewered": 8093,
      "capsicums": 8094,
      "##kake": 8095,
      "sufficient": 8096,
      "colo": 8097,
      "##angas": 8098,
      "rustless": 8099,
      "counter": 8100,
      "child": 8101,
      "backs": 8102,
      "##menth": 8103,
      "boat": 8104,
      "tricol": 8105,
      "posole": 8106,
      "##oi": 8107,
      "##inted": 8108,
      "##aga": 8109,
      "fillings": 8110,
      "gms": 8111,
      "fantastic": 8112,
      "##ground": 8113,
      "goji": 8114,
      "haystacks": 8115,
      "jonathan": 8116,
      "xt": 8117,
      "smash": 8118,
      "easily": 8119,
      "submarine": 8120,
      "##ansas": 8121,
      "dil": 8122,
      "jane": 8123,
      "##fo": 8124,
      "rancher": 8125,
      "farmers": 8126,
      "emment": 8127,
      "plumped": 8128,
      "souffl": 8129,
      "var": 8130,
      "##iyaki": 8131,
      "stones": 8132,
      "1cup": 8133,
      "##bar": 8134,
      "things": 8135,
      "##estic": 8136,
      "dishes": 8137,
      "dissolve": 8138,
      "##ogenized": 8139,
      "##aa": 8140,
      "jule": 8141,
      "##ahi": 8142,
      "lumpia": 8143,
      "korma": 8144,
      "emmenth": 8145,
      "soured": 8146,
      "rune": 8147,
      "rectangles": 8148,
      "lank": 8149,
      "mass": 8150,
      "##lor": 8151,
      "##lect": 8152,
      "hummingbird": 8153,
      "bunny": 8154,
      "unny": 8155,
      "trawberries": 8156,
      "##whipped": 8157,
      "115f": 8158,
      "carnaroli": 8159,
      "##ptian": 8160,
      "##so": 8161,
      "chol": 8162,
      "##gher": 8163,
      "filleted": 8164,
      "84": 8165,
      "##vo": 8166,
      "##ima": 8167,
      "brushed": 8168,
      "bottomed": 8169,
      "##weiger": 8170,
      "bagged": 8171,
      "paradise": 8172,
      "ats": 8173,
      "dun": 8174,
      "chopp": 8175,
      "uthentic": 8176,
      "thank": 8177,
      "plank": 8178,
      "quark": 8179,
      "wear": 8180,
      "monterrey": 8181,
      "treacle": 8182,
      "scallopini": 8183,
      "efto": 8184,
      "yorkshire": 8185,
      "tale": 8186,
      "##asweet": 8187,
      "sizz": 8188,
      "zatarain": 8189,
      "gives": 8190,
      "tove": 8191,
      "##oma": 8192,
      "##blerone": 8193,
      "nea": 8194,
      "##ggery": 8195,
      "shellfish": 8196,
      "roses": 8197,
      "replace": 8198,
      "##tini": 8199,
      "argar": 8200,
      "dippers": 8201,
      "mozarella": 8202,
      "finished": 8203,
      "acidity": 8204,
      "##gue": 8205,
      "##brown": 8206,
      "##helled": 8207,
      "##oist": 8208,
      "oz3": 8209,
      "madele": 8210,
      "tawny": 8211,
      "member": 8212,
      "##rust": 8213,
      "##ham": 8214,
      "##asse": 8215,
      "anna": 8216,
      "crinkle": 8217,
      "rumb": 8218,
      "rocks": 8219,
      "burnt": 8220,
      "accompaniments": 8221,
      "tenness": 8222,
      "##tag": 8223,
      "bring": 8224,
      "isotto": 8225,
      "manhattan": 8226,
      "glycer": 8227,
      "lined": 8228,
      "war": 8229,
      "##tted": 8230,
      "topper": 8231,
      "siu": 8232,
      "170g": 8233,
      "chewies": 8234,
      "##unsch": 8235,
      "suggestion": 8236,
      "oaded": 8237,
      "caponata": 8238,
      "rubber": 8239,
      "condiments": 8240,
      "oodle": 8241,
      "spicier": 8242,
      "vacuum": 8243,
      "cul": 8244,
      "##osas": 8245,
      "hobo": 8246,
      "frog": 8247,
      "aburaage": 8248,
      "rang": 8249,
      "gherkin": 8250,
      "foolproof": 8251,
      "tennessee": 8252,
      "gluc": 8253,
      "oot": 8254,
      "asagne": 8255,
      "amaican": 8256,
      "mussel": 8257,
      "taters": 8258,
      "mozzerella": 8259,
      "tan": 8260,
      "cray": 8261,
      "pign": 8262,
      "homogenized": 8263,
      "cubanelle": 8264,
      "pomodoro": 8265,
      "hurry": 8266,
      "jumb": 8267,
      "##ques": 8268,
      "marzetti": 8269,
      "avocadoes": 8270,
      "##vis": 8271,
      "cannot": 8272,
      "types": 8273,
      "udgy": 8274,
      "funnel": 8275,
      "blonde": 8276,
      "paprikash": 8277,
      "daniel": 8278,
      "suggestions": 8279,
      "jaggery": 8280,
      "avacado": 8281,
      "##unschweiger": 8282,
      "tatin": 8283,
      "peedy": 8284,
      "cramb": 8285,
      "eefy": 8286,
      "nast": 8287,
      "preshredded": 8288,
      "hersheys": 8289,
      "nougat": 8290,
      "nonal": 8291,
      "joint": 8292,
      "yet": 8293,
      "granule": 8294,
      "##accio": 8295,
      "shepherds": 8296,
      "olly": 8297,
      "body": 8298,
      "usuk": 8299,
      "milanese": 8300,
      "lingon": 8301,
      "mur": 8302,
      "##kuchen": 8303,
      "divine": 8304,
      "conserve": 8305,
      "##gherita": 8306,
      "41": 8307,
      "maytag": 8308,
      "oca": 8309,
      "nutrasweet": 8310,
      "supermoist": 8311,
      "groats": 8312,
      "college": 8313,
      "8fl": 8314,
      "hero": 8315,
      "opper": 8316,
      "wisc": 8317,
      "##aloo": 8318,
      "hotter": 8319,
      "glue": 8320,
      "##coholic": 8321,
      "millilitres": 8322,
      "arlicky": 8323,
      "australian": 8324,
      "tobasco": 8325,
      "amale": 8326,
      "readed": 8327,
      "individ": 8328,
      "ammonia": 8329,
      "enc": 8330,
      "##inavian": 8331,
      "##abaisse": 8332,
      "bushel": 8333,
      "szechwan": 8334,
      "##greens": 8335,
      "usukuchi": 8336,
      "breyers": 8337,
      "sarg": 8338,
      "picadillo": 8339,
      "##bought": 8340,
      "pomegranates": 8341,
      "hur": 8342,
      "mounds": 8343,
      "puy": 8344,
      "earthquake": 8345,
      "eftover": 8346,
      "hing": 8347,
      "ike": 8348,
      "ose": 8349,
      "##ryani": 8350,
      "##ghai": 8351,
      "pastel": 8352,
      "chianti": 8353,
      "##onomiyaki": 8354,
      "lake": 8355,
      "##une": 8356,
      "spect": 8357,
      "wisconsin": 8358,
      "##bu": 8359,
      "along": 8360,
      "packagefrozen": 8361,
      "25g": 8362,
      "proscuitto": 8363,
      "ummus": 8364,
      "##mies": 8365,
      "flash": 8366,
      "chilean": 8367,
      "deter": 8368,
      "glory": 8369,
      "giard": 8370,
      "empty": 8371,
      "lavash": 8372,
      "650": 8373,
      "hilly": 8374,
      "konny": 8375,
      "mates": 8376,
      "##ury": 8377,
      "anne": 8378,
      "konnyaku": 8379,
      "ull": 8380,
      "evil": 8381,
      "annie": 8382,
      "studded": 8383,
      "02": 8384,
      "##cas": 8385,
      "##ugar": 8386,
      "chap": 8387,
      "rescent": 8388,
      "hat": 8389,
      "rok": 8390,
      "##hu": 8391,
      "dips": 8392,
      "sandies": 8393,
      "globe": 8394,
      "hav": 8395,
      "##bucks": 8396,
      "unwhipped": 8397,
      "amily": 8398,
      "250ml": 8399,
      "natto": 8400,
      "210": 8401,
      "ouis": 8402,
      "##ription": 8403,
      "cortland": 8404,
      "chal": 8405,
      "storebought": 8406,
      "twisted": 8407,
      "multicol": 8408,
      "rapidrise": 8409,
      "giblet": 8410,
      "sargento": 8411,
      "##itic": 8412,
      "14t": 8413,
      "##ional": 8414,
      "soc": 8415,
      "mexi": 8416,
      "killer": 8417,
      "##eather": 8418,
      "##aci": 8419,
      "huevos": 8420,
      "artha": 8421,
      "aleo": 8422,
      "750ml": 8423,
      "napoli": 8424,
      "charlotte": 8425,
      "crowns": 8426,
      "help": 8427,
      "tia": 8428,
      "show": 8429,
      "enhan": 8430,
      "eluxe": 8431,
      "blackening": 8432,
      "2tbsp": 8433,
      "arol": 8434,
      "448": 8435,
      "##ouette": 8436,
      "got": 8437,
      "##ively": 8438,
      "trimm": 8439,
      "guilt": 8440,
      "latt": 8441,
      "adapted": 8442,
      "individually": 8443,
      "kro": 8444,
      "lucky": 8445,
      "##iner": 8446,
      "ender": 8447,
      "whit": 8448,
      "porcupine": 8449,
      "helen": 8450,
      "shortcut": 8451,
      "charcoal": 8452,
      "george": 8453,
      "##iere": 8454,
      "aren": 8455,
      "brands": 8456,
      "hopped": 8457,
      "guar": 8458,
      "dont": 8459,
      "discs": 8460,
      "watkins": 8461,
      "jac": 8462,
      "sara": 8463,
      "ong": 8464,
      "azpacho": 8465,
      "dolly": 8466,
      "jiggers": 8467,
      "ijon": 8468,
      "##inni": 8469,
      "curds": 8470,
      "agli": 8471,
      "75g": 8472,
      "snowball": 8473,
      "maitake": 8474,
      "cotch": 8475,
      "avoid": 8476,
      "##cil": 8477,
      "##aly": 8478,
      "peppery": 8479,
      "##ising": 8480,
      "##elsh": 8481,
      "outside": 8482,
      "swans": 8483,
      "rectangular": 8484,
      "russets": 8485,
      "carefully": 8486,
      "##da": 8487,
      "moose": 8488,
      "sauerbraten": 8489,
      "ingered": 8490,
      "biryani": 8491,
      "nonalcoholic": 8492,
      "3x": 8493,
      "6fl": 8494,
      "##ppino": 8495,
      "buttering": 8496,
      "smores": 8497,
      "vegemite": 8498,
      "uncured": 8499,
      "trash": 8500,
      "holly": 8501,
      "yourself": 8502,
      "hanks": 8503,
      "ncle": 8504,
      "oax": 8505,
      "##roz": 8506,
      "somen": 8507,
      "bream": 8508,
      "elly": 8509,
      "wanted": 8510,
      "##lotti": 8511,
      "poundcake": 8512,
      "##ogs": 8513,
      "##cessed": 8514,
      "joints": 8515,
      "coleman": 8516,
      "claws": 8517,
      "description": 8518,
      "ducks": 8519,
      "##don": 8520,
      "framb": 8521,
      "inestrone": 8522,
      "bacos": 8523,
      "galliano": 8524,
      "2x": 8525,
      "sack": 8526,
      "##form": 8527,
      "corri": 8528,
      "piecrust": 8529,
      "##orno": 8530,
      "preheat": 8531,
      "##uche": 8532,
      "##chees": 8533,
      "umbo": 8534,
      "pierogies": 8535,
      "swirls": 8536,
      "mim": 8537,
      "welsh": 8538,
      "sciss": 8539,
      "hop": 8540,
      "lassi": 8541,
      "onfetti": 8542,
      "##agnac": 8543,
      "comrecipes": 8544,
      "ayonnaise": 8545,
      "##bilee": 8546,
      "##biotic": 8547,
      "domestic": 8548,
      "trimmings": 8549,
      "toblerone": 8550,
      "eachy": 8551,
      "cling": 8552,
      "1kg": 8553,
      "asiest": 8554,
      "germain": 8555,
      "weighing": 8556,
      "hum": 8557,
      "oly": 8558,
      "coast": 8559,
      "petit": 8560,
      "tyson": 8561,
      "chimichangas": 8562,
      "gumdrop": 8563,
      "ps": 8564,
      "zu": 8565,
      "buckle": 8566,
      "rzo": 8567,
      "select": 8568,
      "iscuits": 8569,
      "crambled": 8570,
      "hul": 8571,
      "kinny": 8572,
      "tim": 8573,
      "craft": 8574,
      "veins": 8575,
      "##rigerated": 8576,
      "crunchies": 8577,
      "##ugs": 8578,
      "cholula": 8579,
      "taleggio": 8580,
      "tv": 8581,
      "##ouli": 8582,
      "montr": 8583,
      "ouzo": 8584,
      "choux": 8585,
      "window": 8586,
      "tewed": 8587,
      "julep": 8588,
      "##wash": 8589,
      "##iniera": 8590,
      "##entation": 8591,
      "ornam": 8592,
      "nancy": 8593,
      "eor": 8594,
      "lava": 8595,
      "nutter": 8596,
      "musc": 8597,
      "skip": 8598,
      "third": 8599,
      "tai": 8600,
      "##center": 8601,
      "chant": 8602,
      "##ammon": 8603,
      "baba": 8604,
      "else": 8605,
      "##u00b0f": 8606,
      "everyday": 8607,
      "except": 8608,
      "nib": 8609,
      "sugars": 8610,
      "juic": 8611,
      "cassava": 8612,
      "morsel": 8613,
      "armagnac": 8614,
      "montrachet": 8615,
      "nbsp": 8616,
      "barely": 8617,
      "20g": 8618,
      "equals": 8619,
      "poblanos": 8620,
      "pulver": 8621,
      "mostly": 8622,
      "oodles": 8623,
      "unpro": 8624,
      "398": 8625,
      "ivinity": 8626,
      "fantasy": 8627,
      "##zey": 8628,
      "cutting": 8629,
      "county": 8630,
      "ambal": 8631,
      "ookies": 8632,
      "chana": 8633,
      "christ": 8634,
      "chart": 8635,
      "beg": 8636,
      "fuss": 8637,
      "ken": 8638,
      "##ettone": 8639,
      "##ude": 8640,
      "tubular": 8641,
      "40g": 8642,
      "sleeves": 8643,
      "taqu": 8644,
      "prevent": 8645,
      "elveeta": 8646,
      "listed": 8647,
      "bourguignon": 8648,
      "unprocessed": 8649,
      "52": 8650,
      "poon": 8651,
      "##aged": 8652,
      "0z": 8653,
      "eese": 8654,
      "fer": 8655,
      "fort": 8656,
      "supercenter": 8657,
      "55g": 8658,
      "years": 8659,
      "etty": 8660,
      "relleno": 8661,
      "dilute": 8662,
      "0214": 8663,
      "wacky": 8664,
      "##tor": 8665,
      "castle": 8666,
      "nonpareils": 8667,
      "zw": 8668,
      "##cale": 8669,
      "##ails": 8670,
      "inda": 8671,
      "stovetop": 8672,
      "general": 8673,
      "##wursts": 8674,
      "anejo": 8675,
      "luc": 8676,
      "ruschetta": 8677,
      "sac": 8678,
      "##mie": 8679,
      "##hard": 8680,
      "flap": 8681,
      "##ease": 8682,
      "kasha": 8683,
      "neap": 8684,
      "##miri": 8685,
      "sals": 8686,
      "skippy": 8687,
      "##igas": 8688,
      "okonomiyaki": 8689,
      "swirled": 8690,
      "440": 8691,
      "busy": 8692,
      "dragon": 8693,
      "thom": 8694,
      "options": 8695,
      "buckeyes": 8696,
      "mochiko": 8697,
      "hanksgiving": 8698,
      "corriander": 8699,
      "##ique": 8700,
      "pare": 8701,
      "haas": 8702,
      "dense": 8703,
      "gat": 8704,
      "sass": 8705,
      "ozzarella": 8706,
      "ladyfinger": 8707,
      "##otes": 8708,
      "##essa": 8709,
      "comin": 8710,
      "applejack": 8711,
      "banh": 8712,
      "utterf": 8713,
      "leveled": 8714,
      "t14": 8715,
      "rar": 8716,
      "##abe": 8717,
      "brats": 8718,
      "campbells": 8719,
      "##ctic": 8720,
      "victoria": 8721,
      "5g": 8722,
      "##band": 8723,
      "##itian": 8724,
      "##akopita": 8725,
      "potatoe": 8726,
      "frappe": 8727,
      "80g": 8728,
      "randy": 8729,
      "scissors": 8730,
      "dix": 8731,
      "ku": 8732,
      "uppy": 8733,
      "zippy": 8734,
      "alloween": 8735,
      "express": 8736,
      "margherita": 8737,
      "helper": 8738,
      "tassies": 8739,
      "2lbs": 8740,
      "rare": 8741,
      "##alata": 8742,
      "arr": 8743,
      "moder": 8744,
      "muir": 8745,
      "sturdy": 8746,
      "especially": 8747,
      "oj": 8748,
      "laur": 8749,
      "borlotti": 8750,
      "516": 8751,
      "onster": 8752,
      "slicer": 8753,
      "larg": 8754,
      "fines": 8755,
      "kittencal": 8756,
      "grasshopper": 8757,
      "domino": 8758,
      "since": 8759,
      "##achel": 8760,
      "glor": 8761,
      "thumbprints": 8762,
      "lattice": 8763,
      "a12": 8764,
      "cp": 8765,
      "kiev": 8766,
      "##anne": 8767,
      "##eddo": 8768,
      "54": 8769,
      "jacks": 8770,
      "suprem": 8771,
      "ziplo": 8772,
      "67": 8773,
      "den": 8774,
      "prin": 8775,
      "##onna": 8776,
      "tele": 8777,
      "cosm": 8778,
      "##olin": 8779,
      "wholewheat": 8780,
      "lox": 8781,
      "romanoff": 8782,
      "arthquake": 8783,
      "millionaire": 8784,
      "choped": 8785,
      "turtles": 8786,
      "provided": 8787,
      "ouisiana": 8788,
      "neapolitan": 8789,
      "##ials": 8790,
      "##bag": 8791,
      "state": 8792,
      "shad": 8793,
      "framboise": 8794,
      "nn": 8795,
      "##rif": 8796,
      "cavatelli": 8797,
      "wyler": 8798,
      "##sie": 8799,
      "tos": 8800,
      "##uski": 8801,
      "icilian": 8802,
      "naturally": 8803,
      "multicolored": 8804,
      "cert": 8805,
      "obl": 8806,
      "honeyed": 8807,
      "biscoff": 8808,
      "masterpiece": 8809,
      "buddig": 8810,
      "kilogram": 8811,
      "semif": 8812,
      "udding": 8813,
      "lmost": 8814,
      "##oya": 8815,
      "bratwursts": 8816,
      "alphabet": 8817,
      "giardiniera": 8818,
      "bad": 8819,
      "hanger": 8820,
      "##light": 8821,
      "orch": 8822,
      "ther": 8823,
      "alibut": 8824,
      "exam": 8825,
      "robin": 8826,
      "quickie": 8827,
      "luke": 8828,
      "valencia": 8829,
      "glucose": 8830,
      "##zi": 8831,
      "fre": 8832,
      "plit": 8833,
      "unshelled": 8834,
      "minty": 8835,
      "drizzled": 8836,
      "faux": 8837,
      "signature": 8838,
      "py": 8839,
      "throw": 8840,
      "##ivated": 8841,
      "margerine": 8842,
      "##efruit": 8843,
      "##owl": 8844,
      "kumquat": 8845,
      "sweets": 8846,
      "krazy": 8847,
      "preserve": 8848,
      "fusion": 8849,
      "pennsylvania": 8850,
      "carpaccio": 8851,
      "tricolor": 8852,
      "gift": 8853,
      "rroz": 8854,
      "##isine": 8855,
      "minis": 8856,
      "##osing": 8857,
      "cure": 8858,
      "##ubb": 8859,
      "edges": 8860,
      "##whole": 8861,
      "crayfish": 8862,
      "certified": 8863,
      "37": 8864,
      "##oppino": 8865,
      "##cook": 8866,
      "utella": 8867,
      "pattypan": 8868,
      "lychees": 8869,
      "hir": 8870,
      "##arra": 8871,
      "##oust": 8872,
      "jubilee": 8873,
      "##oula": 8874,
      "sockeye": 8875,
      "ancakes": 8876,
      "##note": 8877,
      "##yss": 8878,
      "sunch": 8879,
      "feed": 8880,
      "spat": 8881,
      "asada": 8882,
      "simmering": 8883,
      "sid": 8884,
      "stou": 8885,
      "span": 8886,
      "opy": 8887,
      "uscious": 8888,
      "##velous": 8889,
      "kabob": 8890,
      "mornay": 8891,
      "daddy": 8892,
      "levitic": 8893,
      "leviticus": 8894,
      "##illing": 8895,
      "urprise": 8896,
      "iramisu": 8897,
      "continental": 8898,
      "woman": 8899,
      "ya": 8900,
      "cott": 8901,
      "creamettes": 8902,
      "##osaur": 8903,
      "quiches": 8904,
      "##ations": 8905,
      "fitted": 8906,
      "##oncino": 8907,
      "cipollini": 8908,
      "aqu": 8909,
      "grav": 8910,
      "alpine": 8911,
      "parc": 8912,
      "prom": 8913,
      "calamata": 8914,
      "india": 8915,
      "chicago": 8916,
      "aloo": 8917,
      "blintzes": 8918,
      "pich": 8919,
      "zuch": 8920,
      "brut": 8921,
      "bright": 8922,
      "royale": 8923,
      "ressure": 8924,
      "nine": 8925,
      "popper": 8926,
      "frothy": 8927,
      "ussels": 8928,
      "gulf": 8929,
      "shirataki": 8930,
      "312": 8931,
      "##reddo": 8932,
      "##west": 8933,
      "org": 8934,
      "pasties": 8935,
      "##tains": 8936,
      "mosc": 8937,
      "ideally": 8938,
      "pulverized": 8939,
      "umming": 8940,
      "cheesest": 8941,
      "##x9": 8942,
      "##abu": 8943,
      "##oko": 8944,
      "smalls": 8945,
      "##quick": 8946,
      "##tteaspoon": 8947,
      "##like": 8948,
      "prechopped": 8949,
      "liners": 8950,
      "454": 8951,
      "josh": 8952,
      "##ior": 8953,
      "ont": 8954,
      "braunschweiger": 8955,
      "cru": 8956,
      "smallish": 8957,
      "##aver": 8958,
      "coarsly": 8959,
      "##reuse": 8960,
      "lender": 8961,
      "randmother": 8962,
      "ingers": 8963,
      "example": 8964,
      "##yssoise": 8965,
      "baj": 8966,
      "##dled": 8967,
      "##ions": 8968,
      "july": 8969,
      "320": 8970,
      "tour": 8971,
      "rollups": 8972,
      "airy": 8973,
      "strainer": 8974,
      "##13": 8975,
      "ummingbird": 8976,
      "order": 8977,
      "##lick": 8978,
      "cum": 8979,
      "poach": 8980,
      "summertime": 8981,
      "steamer": 8982,
      "arrots": 8983,
      "hok": 8984,
      "tof": 8985,
      "says": 8986,
      "preparing": 8987,
      "quinces": 8988,
      "assem": 8989,
      "leches": 8990,
      "morgan": 8991,
      "penzey": 8992,
      "sunset": 8993,
      "lil": 8994,
      "##ounc": 8995,
      "stewart": 8996,
      "tripe": 8997,
      "##rated": 8998,
      "##itol": 8999,
      "shar": 9000,
      "wrapper": 9001,
      "trio": 9002,
      "##ignets": 9003,
      "estern": 9004,
      "##halved": 9005,
      "rareb": 9006,
      "rus": 9007,
      "##gers": 9008,
      "appuccino": 9009,
      "##aces": 9010,
      "mixes": 9011,
      "##ichimi": 9012,
      "against": 9013,
      "kashmiri": 9014,
      "##ndy": 9015,
      "chartreuse": 9016,
      "ippy": 9017,
      "lick": 9018,
      "##xp": 9019,
      "##elini": 9020,
      "##chicken": 9021,
      "mandolin": 9022,
      "semifreddo": 9023,
      "ingersnap": 9024,
      "rarebit": 9025,
      "fav": 9026,
      "fide": 9027,
      "##izz": 9028,
      "##yr": 9029,
      "scrumptious": 9030,
      "wilbur": 9031,
      "##skin": 9032,
      "##arian": 9033,
      "alab": 9034,
      "##occa": 9035,
      "##eroles": 9036,
      "rapefruit": 9037,
      "##ony": 9038,
      "canc": 9039,
      "brocol": 9040,
      "alisbury": 9041,
      "mez": 9042,
      "bloom": 9043,
      "true": 9044,
      "ruited": 9045,
      "lackened": 9046,
      "chilly": 9047,
      "puerto": 9048,
      "morningstar": 9049,
      "magn": 9050,
      "sit": 9051,
      "##muff": 9052,
      "cuisine": 9053,
      "##itage": 9054,
      "##emmed": 9055,
      "##apore": 9056,
      "##enty": 9057,
      "##urtium": 9058,
      "##medium": 9059,
      "##aza": 9060,
      "starbucks": 9061,
      "suggest": 9062,
      "treasure": 9063,
      "oz398": 9064,
      "dusted": 9065,
      "james": 9066,
      "armour": 9067,
      "flora": 9068,
      "t3": 9069,
      "##sing": 9070,
      "##garlic": 9071,
      "##acia": 9072,
      "##isian": 9073,
      "goo": 9074,
      "##sinthe": 9075,
      "eb": 9076,
      "orth": 9077,
      "collec": 9078,
      "idalia": 9079,
      "##tery": 9080,
      "##ember": 9081,
      "##ucca": 9082,
      "neely": 9083,
      "campfire": 9084,
      "brewer": 9085,
      "pub": 9086,
      "##lins": 9087,
      "##igon": 9088,
      "crostata": 9089,
      "looks": 9090,
      "ambalaya": 9091,
      "egy": 9092,
      "##tick": 9093,
      "##eses": 9094,
      "##quiles": 9095,
      "ita": 9096,
      "arragon": 9097,
      "serran": 9098,
      "eans": 9099,
      "greased": 9100,
      "evenly": 9101,
      "prize": 9102,
      "dixie": 9103,
      "wolf": 9104,
      "##ience": 9105,
      "dove": 9106,
      "##board": 9107,
      "nchiladas": 9108,
      "##garashi": 9109,
      "purs": 9110,
      "breadstick": 9111,
      "dij": 9112,
      "otherwise": 9113,
      "anisette": 9114,
      "conn": 9115,
      "alex": 9116,
      "##lit": 9117,
      "pee": 9118,
      "say": 9119,
      "ung": 9120,
      "braising": 9121,
      "bearnaise": 9122,
      "bah": 9123,
      "iver": 9124,
      "vich": 9125,
      "potluck": 9126,
      "bayou": 9127,
      "glitter": 9128,
      "cavender": 9129,
      "oms": 9130,
      "rimming": 9131,
      "jeera": 9132,
      "toscan": 9133,
      "auted": 9134,
      "damp": 9135,
      "##yard": 9136,
      "##brow": 9137,
      "##olian": 9138,
      "oz28": 9139,
      "piecrus": 9140,
      "scapes": 9141,
      "##imum": 9142,
      "rosa": 9143,
      "eringue": 9144,
      "piecrusts": 9145,
      "fiddle": 9146,
      "shichimi": 9147,
      "angus": 9148,
      "backbone": 9149,
      "portobellos": 9150,
      "drumstick": 9151,
      "xtra": 9152,
      "pignoli": 9153,
      "dest": 9154,
      "##apea": 9155,
      "##axed": 9156,
      "piquant": 9157,
      "church": 9158,
      "gizzard": 9159,
      "pandan": 9160,
      "eff": 9161,
      "##cap": 9162,
      "aller": 9163,
      "anned": 9164,
      "animal": 9165,
      "nop": 9166,
      "codfish": 9167,
      "finnish": 9168,
      "spatula": 9169,
      "runs": 9170,
      "##eca": 9171,
      "##innati": 9172,
      "knock": 9173,
      "85g": 9174,
      "callop": 9175,
      "penny": 9176,
      "##apple": 9177,
      "chopping": 9178,
      "incred": 9179,
      "tedd": 9180,
      "##ify": 9181,
      "elon": 9182,
      "strongly": 9183,
      "perfectly": 9184,
      "liber": 9185,
      "bigger": 9186,
      "provencale": 9187,
      "3cm": 9188,
      "pisco": 9189,
      "thinned": 9190,
      "slicing": 9191,
      "floury": 9192,
      "disp": 9193,
      "elt": 9194,
      "release": 9195,
      "unwaxed": 9196,
      "peperoncino": 9197,
      "saw": 9198,
      "bug": 9199,
      "taquitos": 9200,
      "serranos": 9201,
      "##vl": 9202,
      "##aden": 9203,
      "##zzy": 9204,
      "##grilled": 9205,
      "comte": 9206,
      "igatoni": 9207,
      "rather": 9208,
      "selects": 9209,
      "hello": 9210,
      "pone": 9211,
      "pike": 9212,
      "macad": 9213,
      "kew": 9214,
      "absinthe": 9215,
      "needs": 9216,
      "british": 9217,
      "270": 9218,
      "##imbocca": 9219,
      "lourless": 9220,
      "fact": 9221,
      "stickers": 9222,
      "151": 9223,
      "almondine": 9224,
      "ghost": 9225,
      "beauty": 9226,
      "emmenthaler": 9227,
      "##ael": 9228,
      "##mish": 9229,
      "crumbly": 9230,
      "mozza": 9231,
      "beards": 9232,
      "refer": 9233,
      "##white": 9234,
      "arinade": 9235,
      "cultivated": 9236,
      "crea": 9237,
      "##robiotic": 9238,
      "410": 9239,
      "##jap": 9240,
      "##mans": 9241,
      "flaxseeds": 9242,
      "chaat": 9243,
      "sambuca": 9244,
      "nasturtium": 9245,
      "62": 9246,
      "##96": 9247,
      "##onger": 9248,
      "abulous": 9249,
      "cape": 9250,
      "molten": 9251,
      "tres": 9252,
      "ugarless": 9253,
      "rusty": 9254,
      "toddy": 9255,
      "ntipasto": 9256,
      "5ml": 9257,
      "bind": 9258,
      "tone": 9259,
      "choosing": 9260,
      "peter": 9261,
      "orld": 9262,
      "guan": 9263,
      "urkish": 9264,
      "decaf": 9265,
      "120g": 9266,
[...]
