{
  "version": "1.0",
  "truncation": null,
  "padding": null,
  "added_tokens": [
    {
      "id": 0,
      "content": "[PAD]",
      "single_word": false,
      "lstrip": false,
      "rstrip": false,
      "normalized": false,
      "special": true
    },
    {
      "id": 1,
      "content": "[UNK]",
      "single_word": false,
      "lstrip": false,
      "rstrip": false,
      "normalized": false,
      "special": true
    },
    {
      "id": 2,
      "content": "<end_title>",
      "single_word": false,
      "lstrip": false,
      "rstrip": false,
      "normalized": false,
      "special": true
    },
    {
      "id": 3,
      "content": "<end_ingredients>",
      "single_word": false,
      "lstrip": false,
      "rstrip": false,
      "normalized": false,
      "special": true
    },
    {
      "id": 4,
      "content": "<end_instructions>",
      "single_word": false,
      "lstrip": false,
      "rstrip": false,
      "normalized": false,
      "special": true
    },
    {
      "id": 5,
      "content": "<end>",
      "single_word": false,
      "lstrip": false,
      "rstrip": false,
      "normalized": false,
      "special": true
    }
  ],
  "normalizer": {
    "type": "Sequence",
    "normalizers": [
      {
        "type": "NFD"
      },
      {
        "type": "Lowercase"
      },
      {
        "type": "StripAccents"
      }
    ]
  },
  "pre_tokenizer": {
    "type": "Sequence",
    "pretokenizers": [
      {
        "type": "WhitespaceSplit"
      },
      {
        "type": "Punctuation",
        "behavior": "Isolated"
      }
    ]
  },
  "post_processor": null,
  "decoder": null,
  "model": {
    "type": "WordPiece",
    "unk_token": "[UNK]",
    "continuing_subword_prefix": "##",
    "max_input_chars_per_word": 100,
    "vocab": {
      "[PAD]": 0,
      "[UNK]": 1,
      "<end_title>": 2,
      "<end_ingredients>": 3,
      "<end_instructions>": 4,
      "<end>": 5,
      "!": 6,
      "\"": 7,
      "'": 8,
      "(": 9,
      ")": 10,
      ",": 11,
      "-": 12,
      ".": 13,
      "0": 14,
      "1": 15,
      "2": 16,
      "3": 17,
      "4": 18,
      "5": 19,
      "6": 20,
      "7": 21,
      "8": 22,
      "9": 23,
      ":": 24,
      ";": 25,
      "<": 26,
      ">": 27,
      "?": 28,
      "_": 29,
      "a": 30,
      "b": 31,
      "c": 32,
      "d": 33,
      "e": 34,
      "f": 35,
      "g": 36,
      "h": 37,
      "i": 38,
      "j": 39,
      "k": 40,
      "l": 41,
      "m": 42,
      "n": 43,
      "o": 44,
      "p": 45,
      "q": 46,
      "r": 47,
      "s": 48,
      "t": 49,
      "u": 50,
      "v": 51,
      "w": 52,
      "x": 53,
      "y": 54,
      "z": 55,
      "##n": 56,
      "##g": 57,
      "##r": 58,
      "##e": 59,
      "##a": 60,
      "##d": 61,
      "##i": 62,
      "##s": 63,
      "##m": 64,
      "##c": 65,
      "##l": 66,
      "##o": 67,
      "##v": 68,
      "##k": 69,
      "##u": 70,
      "##f": 71,
      "##w": 72,
      "##t": 73,
      "##b": 74,
      "##y": 75,
      "##h": 76,
      "##p": 77,
      "##z": 78,
      "##2": 79,
      "##0": 80,
      "##1": 81,
      "##4": 82,
      "##7": 83,
      "##5": 84,
      "##x": 85,
      "##3": 86,
      "##9": 87,
      "##j": 88,
      "##6": 89,
      "##q": 90,
      "##8": 91,
      "##nd": 92,
      "##er": 93,
      "##in": 94,
      "##ed": 95,
      "##es": 96,
      "##he": 97,
      "##ea": 98,
      "in": 99,
      "##on": 100,
      "and": 101,
      "##ar": 102,
      "##il": 103,
      "the": 104,
      "##en": 105,
      "##ut": 106,
      "to": 107,
      "##it": 108,
      "##at": 109,
      "##ing": 110,
      "##ou": 111,
      "##ic": 112,
      "co": 113,
      "##le": 114,
      "end": 115,
      "##an": 116,
      "##al": 117,
      "##or": 118,
      "ch": 119,
      "##re": 120,
      "cu": 121,
      "##sp": 122,
      "##pp": 123,
      "##ow": 124,
      "##el": 125,
      "##oon": 126,
      "cup": 127,
      "12": 128,
      "##st": 129,
      "##edi": 130,
      "##ac": 131,
      "on": 132,
      "##ts": 133,
      "st": 134,
      "##ak": 135,
      "##ith": 136,
      "with": 137,
      "##et": 138,
      "##ot": 139,
      "##our": 140,
      "un": 141,
      "min": 142,
      "of": 143,
      "##dd": 144,
      "##rea": 145,
      "##til": 146,
      "##ol": 147,
      "##gr": 148,
      "##ents": 149,
      "mi": 150,
      "ingr": 151,
      "ingredi": 152,
      "or": 153,
      "ingredients": 154,
      "add": 155,
      "for": 156,
      "until": 157,
      "##eat": 158,
      "mix": 159,
      "##ter": 160,
      "##ro": 161,
      "##ve": 162,
      "##ab": 163,
      "##ce": 164,
      "##ver": 165,
      "sal": 166,
      "##les": 167,
      "##gar": 168,
      "##is": 169,
      "##ly": 170,
      "minut": 171,
      "##ok": 172,
      "pe": 173,
      "##ion": 174,
      "##em": 175,
      "##to": 176,
      "##gh": 177,
      "su": 178,
      "##ir": 179,
      "minutes": 180,
      "##ge": 181,
      "sp": 182,
      "##ick": 183,
      "##ra": 184,
      "##ri": 185,
      "salt": 186,
      "##ch": 187,
      "cho": 188,
      "tit": 189,
      "title": 190,
      "cook": 191,
      "tea": 192,
      "sa": 193,
      "##lic": 194,
      "th": 195,
      "##ill": 196,
      "##ables": 197,
      "##spoon": 198,
      "bak": 199,
      "teaspoon": 200,
      "fl": 201,
      "##um": 202,
      "sugar": 203,
      "but": 204,
      "##as": 205,
      "##ine": 206,
      "##pper": 207,
      "pepper": 208,
      "##poon": 209,
      "tables": 210,
      "tablespoon": 211,
      "br": 212,
      "into": 213,
      "14": 214,
      "butter": 215,
      "##uce": 216,
      "wh": 217,
      "heat": 218,
      "##pped": 219,
      "##ast": 220,
      "##id": 221,
      "##gg": 222,
      "che": 223,
      "##ese": 224,
      "pl": 225,
      "over": 226,
      "egg": 227,
      "stir": 228,
      "##ure": 229,
      "cheese": 230,
      "onion": 231,
      "oil": 232,
      "chopped": 233,
      "al": 234,
      "gr": 235,
      "##ater": 236,
      "##igh": 237,
      "##ice": 238,
      "water": 239,
      "##ream": 240,
      "fr": 241,
      "sauce": 242,
      "cream": 243,
      "flour": 244,
      "##all": 245,
      "##ato": 246,
      "##ack": 247,
      "tsp": 248,
      "rem": 249,
      "so": 250,
      "##un": 251,
      "cr": 252,
      "sh": 253,
      "##am": 254,
      "pan": 255,
      "##icken": 256,
      "be": 257,
      "##us": 258,
      "lar": 259,
      "##ur": 260,
      "##ell": 261,
      "can": 262,
      "large": 263,
      "cups": 264,
      "##own": 265,
      "##ces": 266,
      "##ound": 267,
      "gar": 268,
      "##ate": 269,
      "##im": 270,
      "##ven": 271,
      "tablespoons": 272,
      "bow": 273,
      "bowl": 274,
      "sm": 275,
      "##bo": 276,
      "slic": 277,
      "com": 278,
      "ju": 279,
      "ser": 280,
      "chicken": 281,
      "##ture": 282,
      "##ay": 283,
      "mixture": 284,
      "abo": 285,
      "##ace": 286,
      "fro": 287,
      "##ie": 288,
      "about": 289,
      "##ake": 290,
      "##her": 291,
      "##ilk": 292,
      "##edium": 293,
      "medium": 294,
      "at": 295,
      "##get": 296,
      "brown": 297,
      "##ight": 298,
      "##ry": 299,
      "bake": 300,
      "##ip": 301,
      "##ough": 302,
      "##ef": 303,
      "baking": 304,
      "it": 305,
      "##se": 306,
      "##ish": 307,
      "garlic": 308,
      "all": 309,
      "##read": 310,
      "bo": 311,
      "place": 312,
      "tb": 313,
      "is": 314,
      "milk": 315,
      "cut": 316,
      "##00": 317,
      "oven": 318,
      "##ves": 319,
      "##ean": 320,
      "tbsp": 321,
      "##esh": 322,
      "##ely": 323,
      "##ain": 324,
      "##der": 325,
      "pot": 326,
      "fresh": 327,
      "pre": 328,
      "top": 329,
      "oun": 330,
      "##ach": 331,
      "##atoes": 332,
      "inch": 333,
      "##ove": 334,
      "##ap": 335,
      "##ad": 336,
      "comb": 337,
      "as": 338,
      "##oo": 339,
      "##ide": 340,
      "eggs": 341,
      "##ted": 342,
      "##ated": 343,
      "pow": 344,
      "##ush": 345,
      "cover": 346,
      "##rain": 347,
      "pie": 348,
      "tom": 349,
      "##oth": 350,
      "powder": 351,
      "se": 352,
      "##li": 353,
      "boil": 354,
      "par": 355,
      "juice": 356,
      "from": 357,
      "cool": 358,
      "##ore": 359,
      "pour": 360,
      "well": 361,
      "red": 362,
      "combine": 363,
      "10": 364,
      "small": 365,
      "cl": 366,
      "##eas": 367,
      "an": 368,
      "##qu": 369,
      "remove": 370,
      "serve": 371,
      "sk": 372,
      "##illa": 373,
      "##col": 374,
      "##ul": 375,
      "##ess": 376,
      "beat": 377,
      "van": 378,
      "vanilla": 379,
      "##nder": 380,
      "ground": 381,
      "oz": 382,
      "then": 383,
      "lem": 384,
      "lemon": 385,
      "oli": 386,
      "##50": 387,
      "##b0": 388,
      "##00b0": 389,
      "##u00b0": 390,
      "mar": 391,
      "drain": 392,
      "##aste": 393,
      "34": 394,
      "##om": 395,
      "hal": 396,
      "##ink": 397,
      "you": 398,
      "mel": 399,
      "##ff": 400,
      "##let": 401,
      "##ger": 402,
      "each": 403,
      "hour": 404,
      "let": 405,
      "lea": 406,
      "##ole": 407,
      "de": 408,
      "##gether": 409,
      "##ust": 410,
      "together": 411,
      "gre": 412,
      "if": 413,
      "bl": 414,
      "##ent": 415,
      "spr": 416,
      "cor": 417,
      "car": 418,
      "lb": 419,
      "con": 420,
      "##ber": 421,
      "##ite": 422,
      "##ightly": 423,
      "sliced": 424,
      "##old": 425,
      "##me": 426,
      "##ft": 427,
      "13": 428,
      "green": 429,
      "olive": 430,
      "##ant": 431,
      "remain": 432,
      "##age": 433,
      "ex": 434,
      "##co": 435,
      "350": 436,
      "she": 437,
      "bread": 438,
      "remaining": 439,
      "##mer": 440,
      "##oll": 441,
      "corn": 442,
      "ve": 443,
      "di": 444,
      "##ood": 445,
      "re": 446,
      "##colate": 447,
      "sprink": 448,
      "##eason": 449,
      "teaspoons": 450,
      "##ard": 451,
      "season": 452,
      "set": 453,
      "##ash": 454,
      "##ag": 455,
      "##tion": 456,
      "chocolate": 457,
      "##uts": 458,
      "##urn": 459,
      "ble": 460,
      "##one": 461,
      "##oup": 462,
      "hot": 463,
      "cake": 464,
      "sprinkle": 465,
      "##ving": 466,
      "onions": 467,
      "##heat": 468,
      "##ced": 469,
      "half": 470,
      "taste": 471,
      "##and": 472,
      "##ers": 473,
      "low": 474,
      "15": 475,
      "dough": 476,
      "##sed": 477,
      "li": 478,
      "are": 479,
      "sim": 480,
      "##ery": 481,
      "##edd": 482,
      "##ring": 483,
      "soup": 484,
      "##ck": 485,
      "##os": 486,
      "veget": 487,
      "rice": 488,
      "##ass": 489,
      "pin": 490,
      "dri": 491,
      "roll": 492,
      "tomatoes": 493,
      "ounce": 494,
      "app": 495,
      "dry": 496,
      "ounces": 497,
      "##we": 498,
      "sl": 499,
      "##ans": 500,
      "potatoes": 501,
      "##par": 502,
      "##illet": 503,
      "##umb": 504,
      "##inn": 505,
      "white": 506,
      "stirring": 507,
      "##ress": 508,
      "dish": 509,
      "simmer": 510,
      "30": 511,
      "##ies": 512,
      "##ime": 513,
      "up": 514,
      "bean": 515,
      "soft": 516,
      "black": 517,
      "skillet": 518,
      "##est": 519,
      "not": 520,
      "meat": 521,
      "##ee": 522,
      "ref": 523,
      "te": 524,
      "cooked": 525,
      "##iz": 526,
      "qu": 527,
      "fin": 528,
      "##ld": 529,
      "refri": 530,
      "out": 531,
      "##ks": 532,
      "beef": 533,
      "pack": 534,
      "minced": 535,
      "##uff": 536,
      "peel": 537,
      "preheat": 538,
      "put": 539,
      "##ange": 540,
      "refriger": 541,
      "bring": 542,
      "gra": 543,
      "pap": 544,
      "mush": 545,
      "ext": 546,
      "##ise": 547,
      "##ally": 548,
      "slices": 549,
      "##room": 550,
      "grated": 551,
      "crumb": 552,
      "high": 553,
      "vine": 554,
      "##gre": 555,
      "melted": 556,
      "mushroom": 557,
      "##iced": 558,
      "spread": 559,
      "vinegar": 560,
      "blend": 561,
      "serving": 562,
      "grea": 563,
      "##amon": 564,
      "##akes": 565,
      "##weet": 566,
      "pieces": 567,
      "20": 568,
      "##innamon": 569,
      "your": 570,
      "cinnamon": 571,
      "tender": 572,
      "past": 573,
      "sc": 574,
      "##hen": 575,
      "sod": 576,
      "ar": 577,
      "ne": 578,
      "chil": 579,
      "##ries": 580,
      "##eal": 581,
      "ro": 582,
      "##ley": 583,
      "turn": 584,
      "use": 585,
      "en": 586,
      "tomato": 587,
      "##arm": 588,
      "more": 589,
      "seed": 590,
      "##ps": 591,
      "lightly": 592,
      "lay": 593,
      "finely": 594,
      "clo": 595,
      "##pan": 596,
      "beans": 597,
      "diced": 598,
      "hours": 599,
      "##ened": 600,
      "350u00b0": 601,
      "degre": 602,
      "##able": 603,
      "##cess": 604,
      "##isk": 605,
      "whole": 606,
      "pars": 607,
      "##ork": 608,
      "spoon": 609,
      "salad": 610,
      "make": 611,
      "hea": 612,
      "bot": 613,
      "##ute": 614,
      "aside": 615,
      "fill": 616,
      "pro": 617,
      "saucepan": 618,
      "smo": 619,
      "may": 620,
      "smooth": 621,
      "when": 622,
      "parsley": 623,
      "##ke": 624,
      "##ss": 625,
      "##fer": 626,
      "stick": 627,
      "cooking": 628,
      "thin": 629,
      "one": 630,
      "warm": 631,
      "op": 632,
      "##ved": 633,
      "margar": 634,
      "##ave": 635,
      "cloves": 636,
      "degrees": 637,
      "pk": 638,
      "pound": 639,
      "##ue": 640,
      "squ": 641,
      "margarine": 642,
      "shr": 643,
      "them": 644,
      "pkg": 645,
      "sour": 646,
      "sheet": 647,
      "soda": 648,
      "cel": 649,
      "whisk": 650,
      "this": 651,
      "bef": 652,
      "##ru": 653,
      "before": 654,
      "##atter": 655,
      "us": 656,
      "##cc": 657,
      "tr": 658,
      "side": 659,
      "celery": 660,
      "gold": 661,
      "chill": 662,
      "##pping": 663,
      "just": 664,
      "thick": 665,
      "broth": 666,
      "cont": 667,
      "##ile": 668,
      "##ipe": 669,
      "golden": 670,
      "fir": 671,
      "fre": 672,
      "##ins": 673,
      "dried": 674,
      "##rim": 675,
      "sweet": 676,
      "ra": 677,
      "##edded": 678,
      "chip": 679,
      "shredded": 680,
      "fry": 681,
      "##art": 682,
      "leaves": 683,
      "bro": 684,
      "mo": 685,
      "brea": 686,
      "bac": 687,
      "crush": 688,
      "18": 689,
      "bacon": 690,
      "##zen": 691,
      "lo": 692,
      "##av": 693,
      "will": 694,
      "rec": 695,
      "prepar": 696,
      "##tom": 697,
      "using": 698,
      "trans": 699,
      "##ub": 700,
      "roast": 701,
      "bottom": 702,
      "##ray": 703,
      "orange": 704,
      "drained": 705,
      "vegetable": 706,
      "##mo": 707,
      "saute": 708,
      "bas": 709,
      "##per": 710,
      "##inger": 711,
      "do": 712,
      "##ire": 713,
      "wine": 714,
      "option": 715,
      "paper": 716,
      "thr": 717,
      "nuts": 718,
      "must": 719,
      "crust": 720,
      "##uit": 721,
      "crushed": 722,
      "cub": 723,
      "mushrooms": 724,
      "##ately": 725,
      "cass": 726,
      "peeled": 727,
      "layer": 728,
      "##vy": 729,
      "fat": 730,
      "optional": 731,
      "almo": 732,
      "frozen": 733,
      "liqu": 734,
      "pork": 735,
      "##act": 736,
      "##ressing": 737,
      "casser": 738,
      "mustard": 739,
      "##ew": 740,
      "dis": 741,
      "parm": 742,
      "casserole": 743,
      "##zz": 744,
      "gl": 745,
      "toss": 746,
      "through": 747,
      "by": 748,
      "##ib": 749,
      "transfer": 750,
      "pasta": 751,
      "##berries": 752,
      "##con": 753,
      "ginger": 754,
      "##na": 755,
      "##nds": 756,
      "free": 757,
      "time": 758,
      "chips": 759,
      "ice": 760,
      "##ose": 761,
      "##ock": 762,
      "##rap": 763,
      "##ian": 764,
      "##ade": 765,
      "##conut": 766,
      "##ges": 767,
      "pec": 768,
      "slice": 769,
      "refrigerate": 770,
      "grill": 771,
      "##pple": 772,
      "##ently": 773,
      "tem": 774,
      "##ature": 775,
      "##tle": 776,
      "res": 777,
      "des": 778,
      "##esan": 779,
      "siz": 780,
      "##ort": 781,
      "##eapple": 782,
      "##ead": 783,
      "##ides": 784,
      "melt": 785,
      "coconut": 786,
      "even": 787,
      "seasoning": 788,
      "parmesan": 789,
      "dressing": 790,
      "pur": 791,
      "garn": 792,
      "div": 793,
      "spray": 794,
      "##fe": 795,
      "##ired": 796,
      "off": 797,
      "pineapple": 798,
      "##sh": 799,
      "extr": 800,
      "garnish": 801,
      "sy": 802,
      "fo": 803,
      "coat": 804,
      "crumbs": 805,
      "stea": 806,
      "purp": 807,
      "##rup": 808,
      "##ars": 809,
      "syrup": 810,
      "crack": 811,
      "chili": 812,
      "sides": 813,
      "process": 814,
      "##ction": 815,
      "extract": 816,
      "greased": 817,
      "peppers": 818,
      "##th": 819,
      "batter": 820,
      "desired": 821,
      "liquid": 822,
      "reduce": 823,
      "##ini": 824,
      "##avor": 825,
      "##stant": 826,
      "cold": 827,
      "temper": 828,
      "purpose": 829,
      "pea": 830,
      "pean": 831,
      "##ong": 832,
      "filling": 833,
      "package": 834,
      "rack": 835,
      "minute": 836,
      "##rots": 837,
      "boiling": 838,
      "vegetables": 839,
      "carrots": 840,
      "temperature": 841,
      "ball": 842,
      "##ll": 843,
      "recipe": 844,
      "light": 845,
      "onto": 846,
      "beaten": 847,
      "##ist": 848,
      "softened": 849,
      "food": 850,
      "##berry": 851,
      "tw": 852,
      "##ze": 853,
      "##ne": 854,
      "##rimp": 855,
      "slightly": 856,
      "lime": 857,
      "basil": 858,
      "breast": 859,
      "##ined": 860,
      "nut": 861,
      "fold": 862,
      "kn": 863,
      "##raw": 864,
      "bag": 865,
      "heavy": 866,
      "down": 867,
      "##75": 868,
      "stock": 869,
      "##eddar": 870,
      "tor": 871,
      "##tt": 872,
      "cheddar": 873,
      "browned": 874,
      "16": 875,
      "ot": 876,
      "ham": 877,
      "23": 878,
      "form": 879,
      "uns": 880,
      "toast": 881,
      "##ano": 882,
      "seeds": 883,
      "mayon": 884,
      "comp": 885,
      "soy": 886,
      "##naise": 887,
      "##ct": 888,
      "saus": 889,
      "that": 890,
      "shrimp": 891,
      "nood": 892,
      "mayonnaise": 893,
      "##ich": 894,
      "##oney": 895,
      "whi": 896,
      "##ous": 897,
      "cookie": 898,
      "honey": 899,
      "unco": 900,
      "cookies": 901,
      "##enter": 902,
      "center": 903,
      "##oom": 904,
      "evenly": 905,
      "##led": 906,
      "apples": 907,
      "pecans": 908,
      "reser": 909,
      "lit": 910,
      "room": 911,
      "foil": 912,
      "freshly": 913,
      "gently": 914,
      "stand": 915,
      "short": 916,
      "hand": 917,
      "potato": 918,
      "apple": 919,
      "very": 920,
      "other": 921,
      "complet": 922,
      "25": 923,
      "extra": 924,
      "occ": 925,
      "##uc": 926,
      "pinch": 927,
      "press": 928,
      "thinly": 929,
      "##ionally": 930,
      "any": 931,
      "kee": 932,
      "noodles": 933,
      "##other": 934,
      "occas": 935,
      "shall": 936,
      "done": 937,
      "sausage": 938,
      "##af": 939,
      "have": 940,
      "##gin": 941,
      "while": 942,
      "once": 943,
      "##risp": 944,
      "tur": 945,
      "occasionally": 946,
      "si": 947,
      "whip": 948,
      "they": 949,
      "po": 950,
      "ed": 951,
      "##nuts": 952,
      "##ould": 953,
      "##ump": 954,
      "45": 955,
      "fruit": 956,
      "marin": 957,
      "bell": 958,
      "##ccol": 959,
      "completely": 960,
      "straw": 961,
      "need": 962,
      "shell": 963,
      "peanut": 964,
      "ban": 965,
      "##ccoli": 966,
      "##els": 967,
      "ore": 968,
      "little": 969,
      "spin": 970,
      "pu": 971,
      "##ka": 972,
      "##yme": 973,
      "im": 974,
      "##ame": 975,
      "##ition": 976,
      "another": 977,
      "thyme": 978,
      "##aw": 979,
      "banan": 980,
      "size": 981,
      "##oughly": 982,
      "keep": 983,
      "like": 984,
      "plate": 985,
      "cans": 986,
      "spinach": 987,
      "##25": 988,
      "##row": 989,
      "paste": 990,
      "flavor": 991,
      "##fter": 992,
      "cher": 993,
      "##antro": 994,
      "##dding": 995,
      "prepared": 996,
      "yol": 997,
      "cil": 998,
      "cilantro": 999,
      "##ary": 1000,
      "##arch": 1001,
      "pudding": 1002,
      "375": 1003,
      "fish": 1004,
      "crisp": 1005,
      "##min": 1006,
      "some": 1007,
      "skin": 1008,
      "broccoli": 1009,
      "col": 1010,
      "wrap": 1011,
      "after": 1012,
      "thicken": 1013,
      "topping": 1014,
      "##ets": 1015,
      "two": 1016,
      "##till": 1017,
      "tortill": 1018,
      "##ening": 1019,
      "firm": 1020,
      "mic": 1021,
      "allow": 1022,
      "stri": 1023,
      "mixing": 1024,
      "covered": 1025,
      "##gano": 1026,
      "am": 1027,
      "slow": 1028,
      "clean": 1029,
      "powdered": 1030,
      "##pe": 1031,
      "##meg": 1032,
      "wal": 1033,
      "nutmeg": 1034,
      "400": 1035,
      "first": 1036,
      "enough": 1037,
      "mixer": 1038,
      "microw": 1039,
      "rais": 1040,
      "##cor": 1041,
      "seco": 1042,
      "blender": 1043,
      "bit": 1044,
      "##unch": 1045,
      "oregano": 1046,
      "wor": 1047,
      "non": 1048,
      "contain": 1049,
      "pure": 1050,
      "##og": 1051,
      "cubes": 1052,
      "##eed": 1053,
      "dip": 1054,
      "gran": 1055,
      "shortening": 1056,
      "##astic": 1057,
      "contin": 1058,
      "##starch": 1059,
      "##sol": 1060,
      "dire": 1061,
      "cornstarch": 1062,
      "brush": 1063,
      "##urt": 1064,
      "##ep": 1065,
      "blended": 1066,
      "muff": 1067,
      "oat": 1068,
      "drizz": 1069,
      "##ator": 1070,
      "coco": 1071,
      "dissol": 1072,
      "least": 1073,
      "zest": 1074,
      "read": 1075,
      "##ided": 1076,
      "bon": 1077,
      "##ites": 1078,
      "cocoa": 1079,
      "##ric": 1080,
      "##key": 1081,
      "till": 1082,
      "microwave": 1083,
      "##ually": 1084,
      "mash": 1085,
      "##ices": 1086,
      "makes": 1087,
      "##ang": 1088,
      "papri": 1089,
      "cur": 1090,
      "cumin": 1091,
      "flakes": 1092,
      "paprika": 1093,
      "##oss": 1094,
      "ins": 1095,
      "tow": 1096,
      "round": 1097,
      "sea": 1098,
      "whites": 1099,
      "##alian": 1100,
      "grease": 1101,
      "has": 1102,
      "##ble": 1103,
      "processor": 1104,
      "pat": 1105,
      "rest": 1106,
      "box": 1107,
      "rin": 1108,
      "refrigerator": 1109,
      "arr": 1110,
      "dro": 1111,
      "40": 1112,
      "strips": 1113,
      "##chini": 1114,
      "##ellow": 1115,
      "squar": 1116,
      "plastic": 1117,
      "separ": 1118,
      "divided": 1119,
      "turkey": 1120,
      "##milk": 1121,
      "jar": 1122,
      "##abb": 1123,
      "sur": 1124,
      "addition": 1125,
      "should": 1126,
      "pastry": 1127,
      "whipped": 1128,
      "few": 1129,
      "len": 1130,
      "clove": 1131,
      "yellow": 1132,
      "italian": 1133,
      "drizzle": 1134,
      "glass": 1135,
      "imm": 1136,
      "##ment": 1137,
      "##oked": 1138,
      "dash": 1139,
      "immedi": 1140,
      "shap": 1141,
      "continue": 1142,
      "##enne": 1143,
      "##alted": 1144,
      "ret": 1145,
      "no": 1146,
      "##ches": 1147,
      "immediately": 1148,
      "zuc": 1149,
      "loaf": 1150,
      "cro": 1151,
      "plus": 1152,
      "chop": 1153,
      "container": 1154,
      "##ella": 1155,
      "zucchini": 1156,
      "unsalted": 1157,
      "uncover": 1158,
      "arrange": 1159,
      "quar": 1160,
      "raisins": 1161,
      "##kin": 1162,
      "##night": 1163,
      "thor": 1164,
      "peas": 1165,
      "##ta": 1166,
      "quart": 1167,
      "thoroughly": 1168,
      "balls": 1169,
      "##ctions": 1170,
      "overnight": 1171,
      "lett": 1172,
      "speed": 1173,
      "bay": 1174,
      "cabb": 1175,
      "fork": 1176,
      "yog": 1177,
      "buttermilk": 1178,
      "walnuts": 1179,
      "yogurt": 1180,
      "cabbage": 1181,
      "surf": 1182,
      "stuff": 1183,
      "yea": 1184,
      "bar": 1185,
      "return": 1186,
      "##mon": 1187,
      "leaf": 1188,
      "don": 1189,
      "constant": 1190,
      "toasted": 1191,
      "per": 1192,
      "scall": 1193,
      "rep": 1194,
      "##wh": 1195,
      "almonds": 1196,
      "mean": 1197,
      "constantly": 1198,
      "##ings": 1199,
      "surface": 1200,
      "##ossib": 1201,
      "##shire": 1202,
      "##bs": 1203,
      "squash": 1204,
      "##oc": 1205,
      "##tershire": 1206,
      "##rot": 1207,
      "bis": 1208,
      "worces": 1209,
      "possib": 1210,
      "around": 1211,
      "worcestershire": 1212,
      "yeast": 1213,
      "wa": 1214,
      "yolks": 1215,
      "acc": 1216,
      "chun": 1217,
      "breasts": 1218,
      "##gs": 1219,
      "kos": 1220,
      "fri": 1221,
      "kosher": 1222,
      "ready": 1223,
      "##oun": 1224,
      "##ive": 1225,
      "lettuce": 1226,
      "##ting": 1227,
      "##ully": 1228,
      "mixed": 1229,
      "##ding": 1230,
      "av": 1231,
      "packed": 1232,
      "flat": 1233,
      "##fl": 1234,
      "her": 1235,
      "ses": 1236,
      "take": 1237,
      "sesame": 1238,
      "vir": 1239,
      "prepare": 1240,
      "##urger": 1241,
      "lon": 1242,
      "pounds": 1243,
      "combined": 1244,
      "grad": 1245,
      "fine": 1246,
      "virgin": 1247,
      "back": 1248,
      "pump": 1249,
      "##while": 1250,
      "kni": 1251,
      "pul": 1252,
      "##umber": 1253,
      "ml": 1254,
      "day": 1255,
      "longer": 1256,
      "ag": 1257,
      "pumpkin": 1258,
      "rolls": 1259,
      "##wise": 1260,
      "meanwhile": 1261,
      "cann": 1262,
      "pans": 1263,
      "mozz": 1264,
      "edges": 1265,
      "gradually": 1266,
      "floured": 1267,
      "inches": 1268,
      "##arella": 1269,
      "both": 1270,
      "crackers": 1271,
      "thaw": 1272,
      "bet": 1273,
      "caref": 1274,
      "knife": 1275,
      "disc": 1276,
      "blue": 1277,
      "##med": 1278,
      "color": 1279,
      "broil": 1280,
      "steak": 1281,
      "mozzarella": 1282,
      "bub": 1283,
      "line": 1284,
      "##cumber": 1285,
      "jell": 1286,
      "coars": 1287,
      "frost": 1288,
      "##oy": 1289,
      "##ark": 1290,
      "##ates": 1291,
      "olives": 1292,
      "needed": 1293,
      "cran": 1294,
      "##ulated": 1295,
      "eas": 1296,
      "cucumber": 1297,
      "seconds": 1298,
      "cay": 1299,
      "coarsely": 1300,
      "puree": 1301,
      "##meal": 1302,
      "cayenne": 1303,
      "comes": 1304,
      "##ful": 1305,
      "repeat": 1306,
      "wire": 1307,
      "frying": 1308,
      "instant": 1309,
      "##ms": 1310,
      "remo": 1311,
      "##ots": 1312,
      "##pt": 1313,
      "##orated": 1314,
      "discard": 1315,
      "shape": 1316,
      "uncovered": 1317,
      "strawberries": 1318,
      "##oni": 1319,
      "divide": 1320,
      "granulated": 1321,
      "carrot": 1322,
      "wed": 1323,
      "too": 1324,
      "dou": 1325,
      "drop": 1326,
      "slowly": 1327,
      "##less": 1328,
      "##sa": 1329,
      "##izz": 1330,
      "store": 1331,
      "pick": 1332,
      "ad": 1333,
      "325": 1334,
      "##ind": 1335,
      "35": 1336,
      "wash": 1337,
      "##ig": 1338,
      "caram": 1339,
      "##hett": 1340,
      "sw": 1341,
      "##stick": 1342,
      "##apen": 1343,
      "quarter": 1344,
      "roasted": 1345,
      "##joy": 1346,
      "##ower": 1347,
      "##ula": 1348,
      "accor": 1349,
      "enjoy": 1350,
      "##ear": 1351,
      "according": 1352,
      "dark": 1353,
      "mint": 1354,
      "salmon": 1355,
      "quick": 1356,
      "##ai": 1357,
      "##eless": 1358,
      "ever": 1359,
      "we": 1360,
      "marinade": 1361,
      "rib": 1362,
      "##allow": 1363,
      "boneless": 1364,
      "piece": 1365,
      "jal": 1366,
      "pizz": 1367,
      "turning": 1368,
      "parch": 1369,
      "bisc": 1370,
      "##gth": 1371,
      "parchment": 1372,
      "sheets": 1373,
      "almond": 1374,
      "##up": 1375,
      "bubb": 1376,
      "##ten": 1377,
      "##ddle": 1378,
      "jalapen": 1379,
      "lbs": 1380,
      "cherry": 1381,
      "##aghett": 1382,
      "break": 1383,
      "mac": 1384,
      "trim": 1385,
      "##ling": 1386,
      "sift": 1387,
      "cubed": 1388,
      "wheat": 1389,
      "deep": 1390,
      "work": 1391,
      "length": 1392,
      "##shm": 1393,
      "long": 1394,
      "##aghetti": 1395,
      "ca": 1396,
      "chops": 1397,
      "##als": 1398,
      "##shmallow": 1399,
      "good": 1400,
      "##so": 1401,
      "appro": 1402,
      "muffin": 1403,
      "bananas": 1404,
      "strain": 1405,
      "again": 1406,
      "marshmallow": 1407,
      "##uch": 1408,
      "baked": 1409,
      "##ander": 1410,
      "##ffee": 1411,
      "salsa": 1412,
      "##atin": 1413,
      "thawed": 1414,
      "grams": 1415,
      "part": 1416,
      "ros": 1417,
      "additional": 1418,
      "biscuit": 1419,
      "fluff": 1420,
      "pit": 1421,
      "approx": 1422,
      "rub": 1423,
      "separate": 1424,
      "creamy": 1425,
      "##arp": 1426,
      "possibly": 1427,
      "exce": 1428,
      "gel": 1429,
      "cand": 1430,
      "spaghetti": 1431,
      "ev": 1432,
      "pizza": 1433,
      "##ount": 1434,
      "##xt": 1435,
      "chilled": 1436,
      "used": 1437,
      "mins": 1438,
      "inser": 1439,
      "##way": 1440,
      "50": 1441,
      "except": 1442,
      "##ola": 1443,
      "tart": 1444,
      "##ds": 1445,
      "chi": 1446,
      "##emary": 1447,
      "thickened": 1448,
      "wedges": 1449,
      "##ions": 1450,
      "tortillas": 1451,
      "every": 1452,
      "##dge": 1453,
      "stem": 1454,
      "chunks": 1455,
      "bra": 1456,
      "directions": 1457,
      "##lets": 1458,
      "##lect": 1459,
      "gla": 1460,
      "sticks": 1461,
      "sure": 1462,
      "canned": 1463,
      "caramel": 1464,
      "rosemary": 1465,
      "plain": 1466,
      "seal": 1467,
      "##ec": 1468,
      "next": 1469,
      "crumbled": 1470,
      "redu": 1471,
      "dill": 1472,
      "sand": 1473,
      "##ocad": 1474,
      "lid": 1475,
      "##pl": 1476,
      "11": 1477,
      "adding": 1478,
      "cracker": 1479,
      "reserved": 1480,
      "heated": 1481,
      "freeze": 1482,
      "##cake": 1483,
      "oats": 1484,
      "375u00b0": 1485,
      "ther": 1486,
      "go": 1487,
      "halved": 1488,
      "##uck": 1489,
      "avocad": 1490,
      "soak": 1491,
      "##fection": 1492,
      "##bst": 1493,
      "fil": 1494,
      "cooled": 1495,
      "start": 1496,
      "moist": 1497,
      "##eta": 1498,
      "confection": 1499,
      "##flower": 1500,
      "##tern": 1501,
      "banana": 1502,
      "##op": 1503,
      "carefully": 1504,
      "##spar": 1505,
      "spri": 1506,
      "mashed": 1507,
      "prefer": 1508,
      "##ham": 1509,
      "frosting": 1510,
      "scrap": 1511,
      "##imes": 1512,
      "shallow": 1513,
      "curry": 1514,
      "bat": 1515,
      "##yle": 1516,
      "elect": 1517,
      "coffee": 1518,
      "electric": 1519,
      "24": 1520,
      "evap": 1521,
      "get": 1522,
      "##wich": 1523,
      "squares": 1524,
      "cre": 1525,
      "reduced": 1526,
      "graham": 1527,
      "##heated": 1528,
      "halves": 1529,
      "seeded": 1530,
      "style": 1531,
      "sandwich": 1532,
      "servings": 1533,
      "also": 1534,
      "##ween": 1535,
      "cons": 1536,
      "between": 1537,
      "##ench": 1538,
      "gelatin": 1539,
      "ket": 1540,
      "note": 1541,
      "pr": 1542,
      "fluffy": 1543,
      "none": 1544,
      "rasp": 1545,
      "##ia": 1546,
      "nonstick": 1547,
      "approxim": 1548,
      "tortilla": 1549,
      "##burger": 1550,
      "hard": 1551,
      "squee": 1552,
      "##iss": 1553,
      "confectioners": 1554,
      "##agus": 1555,
      "macar": 1556,
      "qt": 1557,
      "wax": 1558,
      "##aking": 1559,
      "freez": 1560,
      "under": 1561,
      "sharp": 1562,
      "preheated": 1563,
      "cond": 1564,
      "rinse": 1565,
      "salted": 1566,
      "##ider": 1567,
      "leave": 1568,
      "approximately": 1569,
      "crab": 1570,
      "##te": 1571,
      "lengthwise": 1572,
      "aspar": 1573,
      "coated": 1574,
      "tooth": 1575,
      "jalapeno": 1576,
      "run": 1577,
      "asparagus": 1578,
      "reserve": 1579,
      "##iff": 1580,
      "400u00b0": 1581,
      "lined": 1582,
      "spice": 1583,
      "##red": 1584,
      "inserted": 1585,
      "spices": 1586,
      "cherries": 1587,
      "excess": 1588,
      "##pick": 1589,
      "eggpl": 1590,
      "french": 1591,
      "toothpick": 1592,
      "dut": 1593,
      "##cy": 1594,
      "##amb": 1595,
      "knead": 1596,
      "ber": 1597,
      "bunch": 1598,
      "stew": 1599,
      "glaze": 1600,
      "##nel": 1601,
      "still": 1602,
      "double": 1603,
      "strawberry": 1604,
      "sem": 1605,
      "platter": 1606,
      "pear": 1607,
      "conden": 1608,
      "##fted": 1609,
      "me": 1610,
      "want": 1611,
      "hamburger": 1612,
      "##cr": 1613,
      "macaroni": 1614,
      "condensed": 1615,
      "uncooked": 1616,
      "por": 1617,
      "chives": 1618,
      "removed": 1619,
      "evaporated": 1620,
      "rea": 1621,
      "tac": 1622,
      "##iel": 1623,
      "##sc": 1624,
      "juices": 1625,
      "ribs": 1626,
      "spat": 1627,
      "##ball": 1628,
      "##oke": 1629,
      "towel": 1630,
      "cider": 1631,
      "amount": 1632,
      "head": 1633,
      "##ation": 1634,
      "wood": 1635,
      "##nut": 1636,
      "##ton": 1637,
      "marshmallows": 1638,
      "serves": 1639,
      "##ican": 1640,
      "mon": 1641,
      "shallots": 1642,
      "##eter": 1643,
      "ole": 1644,
      "##riander": 1645,
      "spatula": 1646,
      "##cessary": 1647,
      "rinsed": 1648,
      "shake": 1649,
      "##ull": 1650,
      "stal": 1651,
      "##lo": 1652,
      "##out": 1653,
      "stiff": 1654,
      "rise": 1655,
      "scallions": 1656,
      "necessary": 1657,
      "scoo": 1658,
      "ripe": 1659,
      "bou": 1660,
      "bec": 1661,
      "air": 1662,
      "##ium": 1663,
      "consist": 1664,
      "only": 1665,
      "beg": 1666,
      "##ino": 1667,
      "lamb": 1668,
      "beating": 1669,
      "whipping": 1670,
      "coriander": 1671,
      "avocado": 1672,
      "sit": 1673,
      "lef": 1674,
      "oleo": 1675,
      "brand": 1676,
      "##ages": 1677,
      "cap": 1678,
      "skinless": 1679,
      "layers": 1680,
      "del": 1681,
      "fried": 1682,
      "dissolved": 1683,
      "freezer": 1684,
      "##aple": 1685,
      "altern": 1686,
      "##cakes": 1687,
      "##ier": 1688,
      "##weetened": 1689,
      "ap": 1690,
      "sn": 1691,
      "sever": 1692,
      "ic": 1693,
      "maple": 1694,
      "##ency": 1695,
      "gri": 1696,
      "unsweetened": 1697,
      "bars": 1698,
      "several": 1699,
      "jello": 1700,
      "##corn": 1701,
      "mini": 1702,
      "dissolve": 1703,
      "sized": 1704,
      "stuffing": 1705,
      "sifted": 1706,
      "##uli": 1707,
      "tin": 1708,
      "spl": 1709,
      "canola": 1710,
      "bab": 1711,
      "sher": 1712,
      "towels": 1713,
      "shells": 1714,
      "loo": 1715,
      "##una": 1716,
      "bite": 1717,
      "consistency": 1718,
      "##ale": 1719,
      "##ener": 1720,
      "##chup": 1721,
      "##crumb": 1722,
      "##uliflower": 1723,
      "##amic": 1724,
      "pink": 1725,
      "325u00b0": 1726,
      "fillets": 1727,
      "ketchup": 1728,
      "##jon": 1729,
      "##ollow": 1730,
      "subst": 1731,
      "biscuits": 1732,
      "made": 1733,
      "breadcrumb": 1734,
      "##ron": 1735,
      "eggplant": 1736,
      "art": 1737,
      "dijon": 1738,
      "substit": 1739,
      "sprigs": 1740,
      "patt": 1741,
      "meas": 1742,
      "baby": 1743,
      "##bed": 1744,
      "same": 1745,
      "last": 1746,
      "##ey": 1747,
      "##arse": 1748,
      "##ular": 1749,
      "tuna": 1750,
      "coarse": 1751,
      "ris": 1752,
      "cauliflower": 1753,
      "grain": 1754,
      "hands": 1755,
      "##part": 1756,
      "dutch": 1757,
      "##anch": 1758,
      "inc": 1759,
      "##quently": 1760,
      "greens": 1761,
      "best": 1762,
      "cooker": 1763,
      "frequently": 1764,
      "raw": 1765,
      "##ree": 1766,
      "taco": 1767,
      "##icot": 1768,
      "along": 1769,
      "such": 1770,
      "##fat": 1771,
      "square": 1772,
      "ind": 1773,
      "apart": 1774,
      "full": 1775,
      "buttered": 1776,
      "see": 1777,
      "##cent": 1778,
      "scoop": 1779,
      "425": 1780,
      "seasoned": 1781,
      "barb": 1782,
      "meatball": 1783,
      "icing": 1784,
      "##elly": 1785,
      "##aked": 1786,
      "star": 1787,
      "cranberries": 1788,
      "my": 1789,
      "wooden": 1790,
      "##ously": 1791,
      "reg": 1792,
      "sodium": 1793,
      "bouill": 1794,
      "times": 1795,
      "crock": 1796,
      "##reased": 1797,
      "tops": 1798,
      "##vel": 1799,
      "almost": 1800,
      "bals": 1801,
      "spring": 1802,
      "60": 1803,
      "middle": 1804,
      "breadcrumbs": 1805,
      "peaches": 1806,
      "##adish": 1807,
      "chilies": 1808,
      "apric": 1809,
      "##ors": 1810,
      "balsamic": 1811,
      "##ild": 1812,
      "four": 1813,
      "##ness": 1814,
      "bouillon": 1815,
      "muffins": 1816,
      "##iv": 1817,
      "yiel": 1818,
      "ung": 1819,
      "##uring": 1820,
      "ungreased": 1821,
      "bun": 1822,
      "than": 1823,
      "le": 1824,
      "300": 1825,
      "smoked": 1826,
      "burn": 1827,
      "easy": 1828,
      "bowls": 1829,
      "candy": 1830,
      "tightly": 1831,
      "##just": 1832,
      "fit": 1833,
      "equ": 1834,
      "broiler": 1835,
      "puff": 1836,
      "adjust": 1837,
      "lee": 1838,
      "ricot": 1839,
      "ho": 1840,
      "ricotta": 1841,
      "artich": 1842,
      "stems": 1843,
      "dust": 1844,
      "cornmeal": 1845,
      "fra": 1846,
      "##icy": 1847,
      "##ily": 1848,
      "steaks": 1849,
      "seasonings": 1850,
      "##ney": 1851,
      "chile": 1852,
      "much": 1853,
      "sage": 1854,
      "##anges": 1855,
      "trimmed": 1856,
      "rel": 1857,
      "fen": 1858,
      "und": 1859,
      "boiled": 1860,
      "skim": 1861,
      "barbec": 1862,
      "making": 1863,
      "##of": 1864,
      "##irc": 1865,
      "meatballs": 1866,
      "jam": 1867,
      "##ome": 1868,
      "##uss": 1869,
      "moder": 1870,
      "roasting": 1871,
      "rind": 1872,
      "follow": 1873,
      "peanuts": 1874,
      "dice": 1875,
      "circ": 1876,
      "cutting": 1877,
      "finish": 1878,
      "bubbly": 1879,
      "##bread": 1880,
      "loos": 1881,
      "##ied": 1882,
      "cer": 1883,
      "cott": 1884,
      "rum": 1885,
      "jelly": 1886,
      "blueberries": 1887,
      "##asses": 1888,
      "bu": 1889,
      "three": 1890,
      "mol": 1891,
      "ph": 1892,
      "berries": 1893,
      "often": 1894,
      "way": 1895,
      "quartered": 1896,
      "days": 1897,
      "bits": 1898,
      "gravy": 1899,
      "sherry": 1900,
      "edge": 1901,
      "portion": 1902,
      "favor": 1903,
      "incor": 1904,
      "cal": 1905,
      "incorp": 1906,
      "inst": 1907,
      "yolk": 1908,
      "##yst": 1909,
      "350f": 1910,
      "tip": 1911,
      "jars": 1912,
      "##thing": 1913,
      "200": 1914,
      "cranberry": 1915,
      "ha": 1916,
      "gener": 1917,
      "eat": 1918,
      "450": 1919,
      "fennel": 1920,
      "##ug": 1921,
      "lower": 1922,
      "vegg": 1923,
      "##x1": 1924,
      "sweetened": 1925,
      "molasses": 1926,
      "plates": 1927,
      "##ple": 1928,
      "mas": 1929,
      "oranges": 1930,
      "feta": 1931,
      "skew": 1932,
      "rom": 1933,
      "steam": 1934,
      "its": 1935,
      "oatmeal": 1936,
      "jack": 1937,
      "##od": 1938,
      "patties": 1939,
      "depe": 1940,
      "tar": 1941,
      "substitute": 1942,
      "favorite": 1943,
      "##fu": 1944,
      "herbs": 1945,
      "marinate": 1946,
      "##bl": 1947,
      "thir": 1948,
      "been": 1949,
      "grap": 1950,
      "tub": 1951,
      "second": 1952,
      "squeeze": 1953,
      "soften": 1954,
      "abs": 1955,
      "meal": 1956,
      "now": 1957,
      "bottle": 1958,
      "tofu": 1959,
      "fridge": 1960,
      "##head": 1961,
      "barbecue": 1962,
      "leaving": 1963,
      "cottage": 1964,
      "sun": 1965,
      "without": 1966,
      "absor": 1967,
      "man": 1968,
      "pulse": 1969,
      "less": 1970,
      "med": 1971,
      "tray": 1972,
      "scrape": 1973,
      "##int": 1974,
      "##orm": 1975,
      "cas": 1976,
      "batches": 1977,
      "##spice": 1978,
      "tri": 1979,
      "ahead": 1980,
      "inside": 1981,
      "##elf": 1982,
      "stalks": 1983,
      "kra": 1984,
      "##if": 1985,
      "alum": 1986,
      "split": 1987,
      "allspice": 1988,
      "##ento": 1989,
      "wra": 1990,
      "mold": 1991,
      "quickly": 1992,
      "##stard": 1993,
      "##zed": 1994,
      "roughly": 1995,
      "lean": 1996,
      "punch": 1997,
      "board": 1998,
      "refrigerated": 1999,
      "mang": 2000,
      "el": 2001,
      "##ilad": 2002,
      "##amp": 2003,
      "chiles": 2004,
      "pim": 2005,
      "hold": 2006,
      "ass": 2007,
      "sing": 2008,
      "##tail": 2009,
      "firmly": 2010,
      "wet": 2011,
      "##bon": 2012,
      "##nding": 2013,
      "swiss": 2014,
      "look": 2015,
      "peaks": 2016,
      "100": 2017,
      "pecan": 2018,
      "##gon": 2019,
      "##tight": 2020,
      "airtight": 2021,
      "cakes": 2022,
      "##ail": 2023,
      "custard": 2024,
      "open": 2025,
      "everything": 2026,
      "rolling": 2027,
      "##fuls": 2028,
      "pitted": 2029,
      "real": 2030,
      "cereal": 2031,
      "hear": 2032,
      "packages": 2033,
      "mex": 2034,
      "crumble": 2035,
      "##ah": 2036,
      "spro": 2037,
      "bul": 2038,
      "mango": 2039,
      "##ably": 2040,
      "clam": 2041,
      "begin": 2042,
      "rect": 2043,
      "weight": 2044,
      "choice": 2045,
      "##ici": 2046,
      "rectang": 2047,
      "bri": 2048,
      "##cted": 2049,
      "##ity": 2050,
      "away": 2051,
      "##ert": 2052,
      "kid": 2053,
      "grilled": 2054,
      "##inum": 2055,
      "step": 2056,
      "kraft": 2057,
      "beer": 2058,
      "cock": 2059,
      "semi": 2060,
      "begins": 2061,
      "therm": 2062,
      "lentil": 2063,
      "rim": 2064,
      "decor": 2065,
      "old": 2066,
      "lad": 2067,
      "##uted": 2068,
      "##loin": 2069,
      "##meric": 2070,
      "##ingers": 2071,
      "aluminum": 2072,
      "these": 2073,
      "thermom": 2074,
      "cat": 2075,
      "cocktail": 2076,
      "which": 2077,
      "fu": 2078,
      "ends": 2079,
      "regular": 2080,
      "##ops": 2081,
      "crispy": 2082,
      "vin": 2083,
      "thermometer": 2084,
      "pop": 2085,
      "##ters": 2086,
      "single": 2087,
      "pres": 2088,
      "ker": 2089,
      "burger": 2090,
      "##elp": 2091,
      "350u00b0f": 2092,
      "##ating": 2093,
      "depending": 2094,
      "cucumbers": 2095,
      "stuffed": 2096,
      "##auce": 2097,
      "raspberry": 2098,
      "met": 2099,
      "spicy": 2100,
      "dripping": 2101,
      "ac": 2102,
      "##isco": 2103,
      "##ized": 2104,
      "las": 2105,
      "creamed": 2106,
      "stove": 2107,
      "##tal": 2108,
      "hom": 2109,
      "sprouts": 2110,
      "there": 2111,
      "##ek": 2112,
      "##zel": 2113,
      "lowfat": 2114,
      "buns": 2115,
      "##tte": 2116,
      "thickens": 2117,
      "directed": 2118,
      "lasag": 2119,
      "peach": 2120,
      "great": 2121,
      "added": 2122,
      "##20": 2123,
      "dates": 2124,
      "cross": 2125,
      "shallot": 2126,
      "##grette": 2127,
      "bone": 2128,
      "##its": 2129,
      "check": 2130,
      "vinai": 2131,
      "wide": 2132,
      "wee": 2133,
      "##gl": 2134,
      "chees": 2135,
      "tbs": 2136,
      "chick": 2137,
      "herb": 2138,
      "250": 2139,
      "kit": 2140,
      "vinaigrette": 2141,
      "thickness": 2142,
      "rings": 2143,
      "plum": 2144,
      "melts": 2145,
      "wok": 2146,
      "drippings": 2147,
      "touch": 2148,
      "flip": 2149,
      "applesauce": 2150,
      "their": 2151,
      "coloring": 2152,
      "##bled": 2153,
      "crisco": 2154,
      "##chen": 2155,
      "##otted": 2156,
      "vel": 2157,
      "creme": 2158,
      "flavored": 2159,
      "dump": 2160,
      "turmeric": 2161,
      "does": 2162,
      "raspberries": 2163,
      "dess": 2164,
      "##ari": 2165,
      "dr": 2166,
      "##kra": 2167,
      "equal": 2168,
      "hicken": 2169,
      "veggies": 2170,
      "cheesecake": 2171,
      "##tover": 2172,
      "28": 2173,
      "rising": 2174,
      "iron": 2175,
      "##pro": 2176,
      "##ppy": 2177,
      "kitchen": 2178,
      "whisking": 2179,
      "flatten": 2180,
      "racks": 2181,
      "cored": 2182,
      "##oul": 2183,
      "leftover": 2184,
      "thigh": 2185,
      "slotted": 2186,
      "##dr": 2187,
      "self": 2188,
      "##io": 2189,
      "##cho": 2190,
      "mer": 2191,
      "chest": 2192,
      "rot": 2193,
      "kidney": 2194,
      "most": 2195,
      "reserving": 2196,
      "pt": 2197,
      "tab": 2198,
      "##gan": 2199,
      "##ual": 2200,
      "##ragon": 2201,
      "peppercorn": 2202,
      "pes": 2203,
      "ang": 2204,
      "mexican": 2205,
      "att": 2206,
      "##ieve": 2207,
      "cast": 2208,
      "oyst": 2209,
      "##ning": 2210,
      "pears": 2211,
      "pesto": 2212,
      "tartar": 2213,
      "dessert": 2214,
      "rounds": 2215,
      "##rease": 2216,
      "##atch": 2217,
      "incorporated": 2218,
      "he": 2219,
      "fudge": 2220,
      "tarragon": 2221,
      "##ett": 2222,
      "##vent": 2223,
      "##asco": 2224,
      "fragr": 2225,
      "forms": 2226,
      "##emade": 2227,
      "unb": 2228,
      "coup": 2229,
      "cube": 2230,
      "absorbed": 2231,
      "ranch": 2232,
      "fi": 2233,
      "##emb": 2234,
      "tube": 2235,
      "right": 2236,
      "base": 2237,
      "char": 2238,
      "preser": 2239,
      "##ons": 2240,
      "prevent": 2241,
      "wings": 2242,
      "crea": 2243,
      "tabasco": 2244,
      "fully": 2245,
      "chickp": 2246,
      "waxed": 2247,
      "lentils": 2248,
      "om": 2249,
      "transl": 2250,
      "goat": 2251,
      "##ye": 2252,
      "preferably": 2253,
      "hors": 2254,
      "measure": 2255,
      "artichoke": 2256,
      "##irl": 2257,
      "fragrant": 2258,
      "monter": 2259,
      "##iche": 2260,
      "##proof": 2261,
      "alternately": 2262,
      "chunk": 2263,
      "transluc": 2264,
      "apricot": 2265,
      "##arin": 2266,
      "rolled": 2267,
      "couple": 2268,
      "moderate": 2269,
      "how": 2270,
      "##olid": 2271,
      "beets": 2272,
      "point": 2273,
      "##ivid": 2274,
      "among": 2275,
      "180": 2276,
      "pine": 2277,
      "big": 2278,
      "gu": 2279,
      "##veeta": 2280,
      "lasagna": 2281,
      "sec": 2282,
      "##ny": 2283,
      "##ussels": 2284,
      "translucent": 2285,
      "##erm": 2286,
      "##ata": 2287,
      "clear": 2288,
      "##air": 2289,
      "easily": 2290,
      "monterey": 2291,
      "##inner": 2292,
      "simmering": 2293,
      "velveeta": 2294,
      "sandwiches": 2295,
      "##eradish": 2296,
      "individ": 2297,
      "mering": 2298,
      "five": 2299,
      "foam": 2300,
      "drops": 2301,
      "##rained": 2302,
      "peppercorns": 2303,
      "##ken": 2304,
      "boiler": 2305,
      "scallops": 2306,
      "quarts": 2307,
      "##eur": 2308,
      "lemons": 2309,
      "possible": 2310,
      "##zo": 2311,
      "horseradish": 2312,
      "come": 2313,
      "##lu": 2314,
      "##pot": 2315,
      "pint": 2316,
      "nice": 2317,
      "##iano": 2318,
      "chipot": 2319,
      "parts": 2320,
      "undrained": 2321,
      "liqueur": 2322,
      "sli": 2323,
      "capers": 2324,
      "chestnuts": 2325,
      "degree": 2326,
      "crosswise": 2327,
      "separated": 2328,
      "##arb": 2329,
      "delici": 2330,
      "circle": 2331,
      "##oles": 2332,
      "pull": 2333,
      "card": 2334,
      "removing": 2335,
      "17": 2336,
      "pancakes": 2337,
      "tex": 2338,
      "##oriz": 2339,
      "total": 2340,
      "flavoring": 2341,
      "ladle": 2342,
      "ancho": 2343,
      "grate": 2344,
      "starts": 2345,
      "fingers": 2346,
      "safe": 2347,
      "mir": 2348,
      "delicious": 2349,
      "flavors": 2350,
      "##use": 2351,
      "leeks": 2352,
      "##u00b0f": 2353,
      "washed": 2354,
      "instru": 2355,
      "sliver": 2356,
      "kale": 2357,
      "wil": 2358,
      "##ubarb": 2359,
      "##ere": 2360,
      "attach": 2361,
      "mand": 2362,
      "bund": 2363,
      "9x1": 2364,
      "##inoa": 2365,
      "above": 2366,
      "rh": 2367,
      "roma": 2368,
      "third": 2369,
      "cornbread": 2370,
      "better": 2371,
      "careful": 2372,
      "cres": 2373,
      "##aker": 2374,
      "##ugula": 2375,
      "increase": 2376,
      "broken": 2377,
      "pimento": 2378,
      "brandy": 2379,
      "halfway": 2380,
      "sugars": 2381,
      "##ially": 2382,
      "yield": 2383,
      "greek": 2384,
      "skewers": 2385,
      "left": 2386,
      "crunch": 2387,
      "##are": 2388,
      "arugula": 2389,
      "quinoa": 2390,
      "chipotle": 2391,
      "175": 2392,
      "cutter": 2393,
      "generously": 2394,
      "##ko": 2395,
      "sau": 2396,
      "sieve": 2397,
      "scraping": 2398,
      "brownies": 2399,
      "homemade": 2400,
      "during": 2401,
      "mayo": 2402,
      "heap": 2403,
      "give": 2404,
      "##agon": 2405,
      "cous": 2406,
      "instructions": 2407,
      "meringue": 2408,
      "cupcakes": 2409,
      "coating": 2410,
      "em": 2411,
      "mild": 2412,
      "dist": 2413,
      "##hew": 2414,
      "was": 2415,
      "unbaked": 2416,
      "quarters": 2417,
      "##meat": 2418,
      "walnut": 2419,
      "save": 2420,
      "##ght": 2421,
      "##ants": 2422,
      "19": 2423,
      "loosely": 2424,
      "shred": 2425,
      "rhubarb": 2426,
      "thru": 2427,
      "dozen": 2428,
      "##omme": 2429,
      "##chilad": 2430,
      "9x13": 2431,
      "carton": 2432,
      "bones": 2433,
      "##amom": 2434,
      "clams": 2435,
      "##otch": 2436,
      "individual": 2437,
      "ori": 2438,
      "et": 2439,
      "thighs": 2440,
      "sticky": 2441,
      "diagon": 2442,
      "metal": 2443,
      "concent": 2444,
      "served": 2445,
      "##ctive": 2446,
      "yields": 2447,
      "working": 2448,
      "doubled": 2449,
      "cashew": 2450,
      "won": 2451,
      "pol": 2452,
      "dent": 2453,
      "flaked": 2454,
      "##cous": 2455,
      "pist": 2456,
      "chickpeas": 2457,
      "hash": 2458,
      "heal": 2459,
      "envel": 2460,
      "rectangle": 2461,
      "##ence": 2462,
      "preserves": 2463,
      "enchilad": 2464,
      "##x9": 2465,
      "##ither": 2466,
      "##ala": 2467,
      "health": 2468,
      "new": 2469,
      "##atur": 2470,
      "cardamom": 2471,
      "torn": 2472,
      "grape": 2473,
      "starting": 2474,
      "close": 2475,
      "##inese": 2476,
      "couscous": 2477,
      "##rs": 2478,
      "juli": 2479,
      "diam": 2480,
      "cooling": 2481,
      "##ips": 2482,
      "calor": 2483,
      "solid": 2484,
      "##ty": 2485,
      "cheeses": 2486,
      "hazel": 2487,
      "crusts": 2488,
      "either": 2489,
      "##ease": 2490,
      "concentr": 2491,
      "dente": 2492,
      "dipping": 2493,
      "pret": 2494,
      "##umps": 2495,
      "ow": 2496,
      "##aves": 2497,
      "hearts": 2498,
      "pistach": 2499,
      "020": 2500,
      "tenderloin": 2501,
      "til": 2502,
      "##ance": 2503,
      "crescent": 2504,
      "##orets": 2505,
      "skins": 2506,
      "florets": 2507,
      "pickles": 2508,
      "cats": 2509,
      "moistened": 2510,
      "relish": 2511,
      "would": 2512,
      "deve": 2513,
      "##itz": 2514,
      "filled": 2515,
      "catsup": 2516,
      "##ial": 2517,
      "bel": 2518,
      "glasses": 2519,
      "##oz": 2520,
      "##emble": 2521,
      "hocolate": 2522,
      "try": 2523,
      "warmed": 2524,
      "burgers": 2525,
      "pressing": 2526,
      "##ross": 2527,
      "##oli": 2528,
      "tast": 2529,
      "lift": 2530,
      "chuck": 2531,
      "heaping": 2532,
      "radish": 2533,
      "bags": 2534,
      "bubbles": 2535,
      "veal": 2536,
      "grind": 2537,
      "inver": 2538,
      "##cl": 2539,
      "##mel": 2540,
      "handle": 2541,
      "engl": 2542,
      "colander": 2543,
      "bisqu": 2544,
      "order": 2545,
      "500": 2546,
      "tap": 2547,
      "squeezed": 2548,
      "plac": 2549,
      "grapes": 2550,
      "portions": 2551,
      "vod": 2552,
      "loaves": 2553,
      "etc": 2554,
      "stor": 2555,
      "duck": 2556,
      "vodka": 2557,
      "##ines": 2558,
      "angel": 2559,
      "dinner": 2560,
      "blanch": 2561,
      "ale": 2562,
      "mach": 2563,
      "reaches": 2564,
      "slivered": 2565,
      "outs": 2566,
      "measuring": 2567,
      "packet": 2568,
      "##inning": 2569,
      "apricots": 2570,
      "##form": 2571,
      "##ank": 2572,
      "##warm": 2573,
      "##fish": 2574,
      "mandarin": 2575,
      "##my": 2576,
      "poppy": 2577,
      "miniature": 2578,
      "crumbly": 2579,
      "pa": 2580,
      "dred": 2581,
      "##rib": 2582,
      "chinese": 2583,
      "machine": 2584,
      "wild": 2585,
      "strainer": 2586,
      "tes": 2587,
      "vari": 2588,
      "gall": 2589,
      "doll": 2590,
      "ent": 2591,
      "blueberry": 2592,
      "root": 2593,
      "##eel": 2594,
      "##fast": 2595,
      "##ched": 2596,
      "cracked": 2597,
      "##okes": 2598,
      "##uth": 2599,
      "##ette": 2600,
      "english": 2601,
      "crabmeat": 2602,
      "150": 2603,
      "lu": 2604,
      "leek": 2605,
      "finger": 2606,
      "concentrate": 2607,
      "##ked": 2608,
      "partially": 2609,
      "bundt": 2610,
      "inclu": 2611,
      "swirl": 2612,
      "prosc": 2613,
      "rame": 2614,
      "oiled": 2615,
      "crout": 2616,
      "smok": 2617,
      "##afers": 2618,
      "##scotch": 2619,
      "germ": 2620,
      "running": 2621,
      "##eness": 2622,
      "pancake": 2623,
      "really": 2624,
      "wafers": 2625,
      "drink": 2626,
      "pulp": 2627,
      "origin": 2628,
      "##lings": 2629,
      "across": 2630,
      "##iut": 2631,
      "##kins": 2632,
      "near": 2633,
      "##iutto": 2634,
      "frit": 2635,
      "sprayed": 2636,
      "create": 2637,
      "loosen": 2638,
      "300u00b0": 2639,
      "ver": 2640,
      "becom": 2641,
      "saff": 2642,
      "outside": 2643,
      "fash": 2644,
      "##ffle": 2645,
      "##side": 2646,
      "fashion": 2647,
      "deveined": 2648,
      "kern": 2649,
      "become": 2650,
      "##ax": 2651,
      "lim": 2652,
      "tam": 2653,
      "invert": 2654,
      "jalapenos": 2655,
      "candied": 2656,
      "pic": 2657,
      "bran": 2658,
      "help": 2659,
      "soaked": 2660,
      "lemonade": 2661,
      "beginning": 2662,
      "semis": 2663,
      "later": 2664,
      "##inned": 2665,
      "prosciutto": 2666,
      "handful": 2667,
      "semisweet": 2668,
      "55": 2669,
      "425u00b0": 2670,
      "##ause": 2671,
      "bour": 2672,
      "bisquick": 2673,
      "topped": 2674,
      "##ope": 2675,
      "##lesh": 2676,
      "fitted": 2677,
      "texture": 2678,
      "flesh": 2679,
      "luke": 2680,
      "kernels": 2681,
      "flu": 2682,
      "because": 2683,
      "entire": 2684,
      "chow": 2685,
      "##ti": 2686,
      "ll": 2687,
      "level": 2688,
      "twice": 2689,
      "bb": 2690,
      "sha": 2691,
      "griddle": 2692,
      "scra": 2693,
      "diameter": 2694,
      "doneness": 2695,
      "13x9": 2696,
      "pita": 2697,
      "month": 2698,
      "simple": 2699,
      "fillet": 2700,
      "fluid": 2701,
      "envelope": 2702,
      "##uten": 2703,
      "original": 2704,
      "bur": 2705,
      "cleaned": 2706,
      "dishes": 2707,
      "table": 2708,
      "butterscotch": 2709,
      "bbq": 2710,
      "dumplings": 2711,
      "larger": 2712,
      "artichokes": 2713,
      "##ina": 2714,
      "tins": 2715,
      "croutons": 2716,
      "lobst": 2717,
      "zip": 2718,
      "pier": 2719,
      "esp": 2720,
      "usually": 2721,
      "##ens": 2722,
      "becomes": 2723,
      "lukewarm": 2724,
      "gi": 2725,
      "##llo": 2726,
      "dot": 2727,
      "wrapper": 2728,
      "distrib": 2729,
      "##eled": 2730,
      "tight": 2731,
      "rimmed": 2732,
      "stalk": 2733,
      "##ont": 2734,
      "brisk": 2735,
      "oyster": 2736,
      "popcorn": 2737,
      "pos": 2738,
      "sprig": 2739,
      "mor": 2740,
      "amer": 2741,
      "32": 2742,
      "##ara": 2743,
      "panko": 2744,
      "dissolves": 2745,
      "##ruit": 2746,
      "dredge": 2747,
      "assemble": 2748,
      "##ory": 2749,
      "skewer": 2750,
      "american": 2751,
      "##ellini": 2752,
      "strip": 2753,
      "smoke": 2754,
      "recomme": 2755,
      "six": 2756,
      "lin": 2757,
      "super": 2758,
      "setting": 2759,
      "breakfast": 2760,
      "test": 2761,
      "##kraut": 2762,
      "bott": 2763,
      "##chi": 2764,
      "pickle": 2765,
      "mound": 2766,
      "decorate": 2767,
      "smaller": 2768,
      "doesn": 2769,
      "reheat": 2770,
      "##enta": 2771,
      "asy": 2772,
      "barley": 2773,
      "triang": 2774,
      "##erkraut": 2775,
      "romaine": 2776,
      "cm": 2777,
      "grnd": 2778,
      "recommend": 2779,
      "pressure": 2780,
      "str": 2781,
      "thai": 2782,
      "moderately": 2783,
      "flame": 2784,
      "##jor": 2785,
      "sausages": 2786,
      "butternut": 2787,
      "bourbon": 2788,
      "##que": 2789,
      "core": 2790,
      "##illed": 2791,
      "##bet": 2792,
      "##ioli": 2793,
      "cob": 2794,
      "rubber": 2795,
      "instead": 2796,
      "saut": 2797,
      "sticking": 2798,
      "position": 2799,
      "phy": 2800,
      "bast": 2801,
      "cav": 2802,
      "saffron": 2803,
      "nonfat": 2804,
      "wilted": 2805,
      "direct": 2806,
      "lumps": 2807,
      "push": 2808,
      "own": 2809,
      "holes": 2810,
      "count": 2811,
      "ritz": 2812,
      "avocados": 2813,
      "juiced": 2814,
      "tossing": 2815,
      "pam": 2816,
      "gluten": 2817,
      "chunky": 2818,
      "caramelized": 2819,
      "bitters": 2820,
      "weeks": 2821,
      "polenta": 2822,
      "0209": 2823,
      "loin": 2824,
      "##0u00b0": 2825,
      "skinned": 2826,
      "nect": 2827,
      "phyllo": 2828,
      "twist": 2829,
      "sunflower": 2830,
      "serr": 2831,
      "pass": 2832,
      "##iluted": 2833,
      "sum": 2834,
      "pepperoni": 2835,
      "pw": 2836,
      "mince": 2837,
      "##agle": 2838,
      "eagle": 2839,
      "resemb": 2840,
      "sauerkraut": 2841,
      "##met": 2842,
      "browns": 2843,
      "bubbling": 2844,
      "being": 2845,
      "prot": 2846,
      "curd": 2847,
      "starch": 2848,
      "ty": 2849,
      "attachment": 2850,
      "##enn": 2851,
      "fire": 2852,
      "pwdr": 2853,
      "follows": 2854,
      "um": 2855,
      "pale": 2856,
      "##orizo": 2857,
      "##etta": 2858,
      "##nda": 2859,
      "active": 2860,
      "ling": 2861,
      "##anish": 2862,
      "resembles": 2863,
      "##ipes": 2864,
      "##food": 2865,
      "bagu": 2866,
      "scatter": 2867,
      "##acle": 2868,
      "basting": 2869,
      "release": 2870,
      "slaw": 2871,
      "cashews": 2872,
      "scallion": 2873,
      "##cher": 2874,
      "stre": 2875,
      "bath": 2876,
      "secure": 2877,
      "stewed": 2878,
      "##ma": 2879,
      "springform": 2880,
      "slicing": 2881,
      "nic": 2882,
      "prote": 2883,
      "steamed": 2884,
      "generous": 2885,
      "marinated": 2886,
      "below": 2887,
      "week": 2888,
      "##joram": 2889,
      "##peeled": 2890,
      "##chino": 2891,
      "rounded": 2892,
      "noodle": 2893,
      "chorizo": 2894,
      "tail": 2895,
      "marjoram": 2896,
      "watch": 2897,
      "ramekins": 2898,
      "panc": 2899,
      "rn": 2900,
      "brownie": 2901,
      "maras": 2902,
      "miracle": 2903,
      "toppings": 2904,
      "pers": 2905,
      "125": 2906,
      "maraschino": 2907,
      "caps": 2908,
      "cupcake": 2909,
      "##ears": 2910,
      "##aki": 2911,
      "finished": 2912,
      "##orate": 2913,
      "##uf": 2914,
      "##sted": 2915,
      "lingu": 2916,
      "scal": 2917,
      "stack": 2918,
      "seedless": 2919,
      "jo": 2920,
      "thread": 2921,
      "375f": 2922,
      "##hia": 2923,
      "prov": 2924,
      "weed": 2925,
      "smash": 2926,
      "pancetta": 2927,
      "sauteed": 2928,
      "seafood": 2929,
      "unpeeled": 2930,
      "pickled": 2931,
      "450u00b0": 2932,
      "##elphia": 2933,
      "browning": 2934,
      "kernel": 2935,
      "##de": 2936,
      "proof": 2937,
      "##iladelphia": 2938,
      "string": 2939,
      "##bow": 2940,
      "mussels": 2941,
      "grapef": 2942,
      "snow": 2943,
      "seam": 2944,
      "spec": 2945,
      "ring": 2946,
      "75": 2947,
      "lobster": 2948,
      "diff": 2949,
      "##gran": 2950,
      "healthy": 2951,
      "turns": 2952,
      "works": 2953,
      "tie": 2954,
      "organ": 2955,
      "##rew": 2956,
      "thirds": 2957,
      "ter": 2958,
      "calories": 2959,
      "parmig": 2960,
      "philadelphia": 2961,
      "##try": 2962,
      "raisin": 2963,
      "log": 2964,
      "organic": 2965,
      "okra": 2966,
      "fall": 2967,
      "could": 2968,
      "diagonally": 2969,
      "##sticks": 2970,
      "##ather": 2971,
      "find": 2972,
      "##ana": 2973,
      "##fect": 2974,
      "brisket": 2975,
      "##bur": 2976,
      "gallon": 2977,
      "limes": 2978,
      "tong": 2979,
      "damp": 2980,
      "pal": 2981,
      "##ality": 2982,
      "crunchy": 2983,
      "##ucc": 2984,
      "hazelnuts": 2985,
      "vig": 2986,
      "kind": 2987,
      "natur": 2988,
      "##ios": 2989,
      "hrs": 2990,
      "400f": 2991,
      "pome": 2992,
      "rare": 2993,
      "##can": 2994,
      "andor": 2995,
      "sir": 2996,
      "berry": 2997,
      "fashioned": 2998,
      "asian": 2999,
      "pomegran": 3000,
      "sprinkling": 3001,
      "romano": 3002,
      "mill": 3003,
      "##itional": 3004,
      "protein": 3005,
      "##jun": 3006,
      "pureed": 3007,
      "legs": 3008,
      "dollop": 3009,
      "fett": 3010,
      "undiluted": 3011,
      "curr": 3012,
      "quality": 3013,
      "fryer": 3014,
      "bulk": 3015,
      "baguette": 3016,
      "brief": 3017,
      "wipe": 3018,
      "rock": 3019,
      "##ought": 3020,
      "cloth": 3021,
      "chilli": 3022,
      "vigor": 3023,
      "sear": 3024,
      "spanish": 3025,
      "la": 3026,
      "liver": 3027,
      "grapefruit": 3028,
      "circles": 3029,
      "briefly": 3030,
      "penne": 3031,
      "colored": 3032,
      "pressed": 3033,
      "##hey": 3034,
      "##utney": 3035,
      "crusty": 3036,
      "call": 3037,
      "temp": 3038,
      "##ules": 3039,
      "def": 3040,
      "anise": 3041,
      "port": 3042,
      "cornfl": 3043,
      "chard": 3044,
      "chutney": 3045,
      "tips": 3046,
      "nicely": 3047,
      "shelled": 3048,
      "fraiche": 3049,
      "##atever": 3050,
      "##ns": 3051,
      "parmigiano": 3052,
      "puffed": 3053,
      "400u00b0f": 3054,
      "##ways": 3055,
      "pomegranate": 3056,
      "gal": 3057,
      "cit": 3058,
      "##zels": 3059,
      "ovenproof": 3060,
      "whatever": 3061,
      "pipe": 3062,
      "summer": 3063,
      "rye": 3064,
      "hole": 3065,
      "pretzels": 3066,
      "imp": 3067,
      "##hy": 3068,
      "masala": 3069,
      "vigorously": 3070,
      "shi": 3071,
      "combin": 3072,
      "##ones": 3073,
      "##mal": 3074,
      "eye": 3075,
      "##resso": 3076,
      "##ments": 3077,
      "gum": 3078,
      "boxes": 3079,
      "krisp": 3080,
      "omit": 3081,
      "##man": 3082,
      "tra": 3083,
      "moisture": 3084,
      "##cook": 3085,
      "nectar": 3086,
      "eight": 3087,
      "##ix": 3088,
      "easier": 3089,
      "##kon": 3090,
      "##root": 3091,
      "##vil": 3092,
      "enchilada": 3093,
      "foamy": 3094,
      "spoonfuls": 3095,
      "granules": 3096,
      "ey": 3097,
      "tro": 3098,
      "insert": 3099,
      "radishes": 3100,
      "##ban": 3101,
      "figs": 3102,
      "coun": 3103,
      "spreading": 3104,
      "glazed": 3105,
      "barely": 3106,
      "beet": 3107,
      "kar": 3108,
      "sirloin": 3109,
      "##ita": 3110,
      "36": 3111,
      "baste": 3112,
      "##pes": 3113,
      "espresso": 3114,
      "##arpone": 3115,
      "what": 3116,
      "##ouse": 3117,
      "##ize": 3118,
      "##melon": 3119,
      "##carpone": 3120,
      "continu": 3121,
      "wrapped": 3122,
      "bubble": 3123,
      "brushing": 3124,
      "21": 3125,
      "##cm": 3126,
      "perfect": 3127,
      "mors": 3128,
      "aked": 3129,
      "poach": 3130,
      "dusting": 3131,
      "mascarpone": 3132,
      "ques": 3133,
      "overl": 3134,
      "##mint": 3135,
      "pinto": 3136,
      "au": 3137,
      "ome": 3138,
      "containers": 3139,
      "cooks": 3140,
      "ess": 3141,
      "spiced": 3142,
      "lik": 3143,
      "22": 3144,
      "cryst": 3145,
      "##ipped": 3146,
      "lump": 3147,
      "oysters": 3148,
      "##ailable": 3149,
      "directly": 3150,
      "gas": 3151,
      "counter": 3152,
      "fam": 3153,
      "##enned": 3154,
      "##top": 3155,
      "##ls": 3156,
      "tear": 3157,
      "ending": 3158,
      "tongs": 3159,
      "cent": 3160,
      "cajun": 3161,
      "our": 3162,
      "##malade": 3163,
      "kettle": 3164,
      "##rub": 3165,
      "##ousse": 3166,
      "pet": 3167,
      "stop": 3168,
      "bir": 3169,
      "##uy": 3170,
      "mousse": 3171,
      "##ively": 3172,
      "marmalade": 3173,
      "morsels": 3174,
      "quite": 3175,
      "grand": 3176,
      "ado": 3177,
      "julienned": 3178,
      "batch": 3179,
      "brussels": 3180,
      "power": 3181,
      "##ugh": 3182,
      "##away": 3183,
      "flax": 3184,
      "sub": 3185,
      "##ggiano": 3186,
      "refried": 3187,
      "here": 3188,
      "mal": 3189,
      "vegan": 3190,
      "slide": 3191,
      "##orted": 3192,
      "scrub": 3193,
      "regist": 3194,
      "180c": 3195,
      "##airy": 3196,
      "##mat": 3197,
      "granny": 3198,
      "lard": 3199,
      "##gn": 3200,
      "moisten": 3201,
      "splash": 3202,
      "poul": 3203,
      "##itos": 3204,
      "##ila": 3205,
      "blanched": 3206,
      "strong": 3207,
      "including": 3208,
      "smith": 3209,
      "pies": 3210,
      "##rus": 3211,
      "bottoms": 3212,
      "many": 3213,
      "wedge": 3214,
      "wait": 3215,
      "##itake": 3216,
      "reggiano": 3217,
      "##oid": 3218,
      "sple": 3219,
      "##yaki": 3220,
      "ki": 3221,
      "natural": 3222,
      "special": 3223,
      "differ": 3224,
      "appet": 3225,
      "sil": 3226,
      "##hern": 3227,
      "##bell": 3228,
      "notes": 3229,
      "sou": 3230,
      "pistachios": 3231,
      "wish": 3232,
      "cod": 3233,
      "karo": 3234,
      "throw": 3235,
      "remai": 3236,
      "##ran": 3237,
      "##agne": 3238,
      "##avour": 3239,
      "linguine": 3240,
      "watermelon": 3241,
      "avoid": 3242,
      "adobo": 3243,
      "##anese": 3244,
      "far": 3245,
      "krispies": 3246,
      "remainder": 3247,
      "sav": 3248,
      "shapes": 3249,
      "splenda": 3250,
      "shaker": 3251,
      "160": 3252,
      "truff": 3253,
      "unbl": 3254,
      "russ": 3255,
      "repl": 3256,
      "ur": 3257,
      "poultry": 3258,
      "move": 3259,
      "caraway": 3260,
      "available": 3261,
      "flake": 3262,
      "liners": 3263,
      "##ioc": 3264,
      "##iento": 3265,
      "##eached": 3266,
      "rich": 3267,
      "heads": 3268,
      "coals": 3269,
      "recipes": 3270,
      "looks": 3271,
      "ven": 3272,
      "incorporate": 3273,
      "##ache": 3274,
      "prick": 3275,
      "champ": 3276,
      "weet": 3277,
      "brine": 3278,
      "shaped": 3279,
      "distribute": 3280,
      "mu": 3281,
      "##estle": 3282,
      "pimiento": 3283,
      "##ys": 3284,
      "somet": 3285,
      "bor": 3286,
      "charred": 3287,
      "grits": 3288,
      "parsn": 3289,
      "##hydr": 3290,
      "##ito": 3291,
      "##ations": 3292,
      "stemmed": 3293,
      "stage": 3294,
      "fast": 3295,
      "99": 3296,
      "months": 3297,
      "jap": 3298,
      "##ified": 3299,
      "mesh": 3300,
      "cutlets": 3301,
      "ens": 3302,
      "##cloth": 3303,
      "lg": 3304,
      "##isin": 3305,
      "##ioca": 3306,
      "arb": 3307,
      "bittersweet": 3308,
      "##eseed": 3309,
      "ir": 3310,
      "froth": 3311,
      "fruits": 3312,
      "mat": 3313,
      "blade": 3314,
      "tiny": 3315,
      "oreo": 3316,
      "unbleached": 3317,
      "rou": 3318,
      "id": 3319,
      "shaking": 3320,
      "stra": 3321,
      "miso": 3322,
      "registers": 3323,
      "ean": 3324,
      "bought": 3325,
      "boils": 3326,
      "tapioca": 3327,
      "breaking": 3328,
      "ok": 3329,
      "ab": 3330,
      "ut": 3331,
      "peppermint": 3332,
      "pc": 3333,
      "yum": 3334,
      "##rist": 3335,
      "match": 3336,
      "ears": 3337,
      "within": 3338,
      "stream": 3339,
      "omelet": 3340,
      "stone": 3341,
      "paddle": 3342,
      "##cress": 3343,
      "feel": 3344,
      "##iyaki": 3345,
      "inter": 3346,
      "225": 3347,
      "following": 3348,
      "orzo": 3349,
      "pitcher": 3350,
      "furt": 3351,
      "##ded": 3352,
      "further": 3353,
      "veg": 3354,
      "hers": 3355,
      "outer": 3356,
      "elbow": 3357,
      "crockpot": 3358,
      "soups": 3359,
      "japanese": 3360,
      "quiche": 3361,
      "##iny": 3362,
      "sake": 3363,
      "champagne": 3364,
      "manuf": 3365,
      "pple": 3366,
      "gets": 3367,
      "emon": 3368,
      "##otto": 3369,
      "sprinkled": 3370,
      "watercress": 3371,
      "70": 3372,
      "placing": 3373,
      "pods": 3374,
      "veggie": 3375,
      "cheesecloth": 3376,
      "boned": 3377,
      "separately": 3378,
      "king": 3379,
      "##bler": 3380,
      "manufact": 3381,
      "##amole": 3382,
      "hershey": 3383,
      "scram": 3384,
      "##az": 3385,
      "bottomed": 3386,
      "sections": 3387,
      "prun": 3388,
      "manufactur": 3389,
      "resul": 3390,
      "pcs": 3391,
      "##acamole": 3392,
      "##ket": 3393,
      "snack": 3394,
      "type": 3395,
      "praw": 3396,
      "375u00b0f": 3397,
      "tough": 3398,
      "fettucc": 3399,
      "steamer": 3400,
      "90": 3401,
      "lot": 3402,
      "har": 3403,
      "##ried": 3404,
      "country": 3405,
      "citrus": 3406,
      "meatlo": 3407,
      "sor": 3408,
      "block": 3409,
      "main": 3410,
      "german": 3411,
      "pock": 3412,
      "cour": 3413,
      "##tain": 3414,
      "mine": 3415,
      "er": 3416,
      "190": 3417,
      "section": 3418,
      "page": 3419,
      "##roll": 3420,
      "caramels": 3421,
      "##atively": 3422,
      "int": 3423,
      "heatproof": 3424,
      "maker": 3425,
      "marinara": 3426,
      "gruy": 3427,
      "tah": 3428,
      "anchovy": 3429,
      "esc": 3430,
      "##acha": 3431,
      "hus": 3432,
      "dashes": 3433,
      "smoking": 3434,
      "38": 3435,
      "##mas": 3436,
      "toothpicks": 3437,
      "shiitake": 3438,
      "dont": 3439,
      "leftovers": 3440,
      "melon": 3441,
      "simp": 3442,
      "##ems": 3443,
      "##eats": 3444,
      "granola": 3445,
      "spoonful": 3446,
      "candies": 3447,
      "halve": 3448,
      "dogs": 3449,
      "rap": 3450,
      "##anks": 3451,
      "##assic": 3452,
      "night": 3453,
      "risotto": 3454,
      "##by": 3455,
      "blackberries": 3456,
      "meth": 3457,
      "gruyere": 3458,
      "farm": 3459,
      "link": 3460,
      "spears": 3461,
      "dairy": 3462,
      "##ml": 3463,
      "165": 3464,
      "flower": 3465,
      "sprinkles": 3466,
      "triangles": 3467,
      "roux": 3468,
      "##ote": 3469,
      "patty": 3470,
      "guacamole": 3471,
      "teriyaki": 3472,
      "serrano": 3473,
      "amar": 3474,
      "teaspoonfuls": 3475,
      "ones": 3476,
      "basic": 3477,
      "grilling": 3478,
      "val": 3479,
      "##apping": 3480,
      "always": 3481,
      "meatloaf": 3482,
      "tomat": 3483,
      "shaved": 3484,
      "agave": 3485,
      "rav": 3486,
      "ear": 3487,
      "pistachio": 3488,
      "smashed": 3489,
      "assorted": 3490,
      "covering": 3491,
      "##berg": 3492,
      "##cream": 3493,
      "##oulder": 3494,
      "shoulder": 3495,
      "##ards": 3496,
      "pobl": 3497,
      "opa": 3498,
      "##arian": 3499,
      "##ori": 3500,
      "elastic": 3501,
      "##vet": 3502,
      "fries": 3503,
      "horiz": 3504,
      "chowder": 3505,
      "simply": 3506,
      "tahini": 3507,
      "80": 3508,
      "hel": 3509,
      "creole": 3510,
      "ster": 3511,
      "different": 3512,
      "sr": 3513,
      "tomatill": 3514,
      "sizz": 3515,
      "button": 3516,
      "empt": 3517,
      "duty": 3518,
      "snap": 3519,
      "flo": 3520,
      "##ez": 3521,
      "snipped": 3522,
      "bunches": 3523,
      "overcook": 3524,
      "allowing": 3525,
      "##orn": 3526,
      "absorb": 3527,
      "person": 3528,
      "adv": 3529,
      "sherbet": 3530,
      "family": 3531,
      "essence": 3532,
      "##ested": 3533,
      "appetiz": 3534,
      "prod": 3535,
      "reseal": 3536,
      "might": 3537,
      "stockpot": 3538,
      "garban": 3539,
      "alf": 3540,
      "solids": 3541,
      "currants": 3542,
      "tort": 3543,
      "##ante": 3544,
      "##tty": 3545,
      "unfl": 3546,
      "enchiladas": 3547,
      "fettuccine": 3548,
      "liking": 3549,
      "mort": 3550,
      "##elli": 3551,
      "party": 3552,
      "opaque": 3553,
      "upside": 3554,
      "empty": 3555,
      "##enty": 3556,
      "##law": 3557,
      "club": 3558,
      "saf": 3559,
      "mirin": 3560,
      "poke": 3561,
      "##ills": 3562,
      "sto": 3563,
      "oast": 3564,
      "reach": 3565,
      "hun": 3566,
      "dream": 3567,
      "tequ": 3568,
      "##coal": 3569,
      "soon": 3570,
      "intern": 3571,
      "garam": 3572,
      "##leslaw": 3573,
      "gratin": 3574,
      "palm": 3575,
      "takes": 3576,
      "frothy": 3577,
      "wonton": 3578,
      "deli": 3579,
      "yu": 3580,
      "##cini": 3581,
      "requ": 3582,
      "whiz": 3583,
      "48": 3584,
      "charcoal": 3585,
      "##ams": 3586,
      "blending": 3587,
      "wrappers": 3588,
      "tequila": 3589,
      "##iracha": 3590,
      "eanut": 3591,
      "waffle": 3592,
      "resealable": 3593,
      "delight": 3594,
      "##avored": 3595,
      "gan": 3596,
      "##olone": 3597,
      "finally": 3598,
      "choy": 3599,
      "date": 3600,
      "forming": 3601,
      "flank": 3602,
      "amoun": 3603,
      "coleslaw": 3604,
      "provolone": 3605,
      "flours": 3606,
      "drum": 3607,
      "recommended": 3608,
      "toffee": 3609,
      "nutr": 3610,
      "caster": 3611,
      "traw": 3612,
      "packets": 3613,
      "cobbler": 3614,
      "##ised": 3615,
      "contents": 3616,
      "unflavored": 3617,
      "souffle": 3618,
      "hoisin": 3619,
      "rilled": 3620,
      "wo": 3621,
      "amounts": 3622,
      "sriracha": 3623,
      "##ible": 3624,
      "##dy": 3625,
      "##ople": 3626,
      "ko": 3627,
      "kg": 3628,
      "alternating": 3629,
      "bulb": 3630,
      "##ettes": 3631,
      "mm": 3632,
      "ravioli": 3633,
      "##sing": 3634,
      "##ristmas": 3635,
      "##ffles": 3636,
      "molds": 3637,
      "manufacturer": 3638,
      "chef": 3639,
      "people": 3640,
      "heating": 3641,
      "did": 3642,
      "bottled": 3643,
      "sugg": 3644,
      "##cle": 3645,
      "anana": 3646,
      "mom": 3647,
      "##dough": 3648,
      "discarding": 3649,
      "cavity": 3650,
      "ganache": 3651,
      "orn": 3652,
      "method": 3653,
      "##ison": 3654,
      "house": 3655,
      "##da": 3656,
      "corner": 3657,
      "fiber": 3658,
      "flavour": 3659,
      "corned": 3660,
      "plums": 3661,
      "##gla": 3662,
      "prawns": 3663,
      "inn": 3664,
      "burning": 3665,
      "preferred": 3666,
      "range": 3667,
      "##cha": 3668,
      "##ster": 3669,
      "leg": 3670,
      "pints": 3671,
      "inf": 3672,
      "listed": 3673,
      "##igg": 3674,
      "ram": 3675,
      "garbanzo": 3676,
      "cheesy": 3677,
      "stored": 3678,
      "burr": 3679,
      "whiskey": 3680,
      "trawberry": 3681,
      "sweetener": 3682,
      "crepes": 3683,
      "##mers": 3684,
      "ensure": 3685,
      "ste": 3686,
      "##pre": 3687,
      "space": 3688,
      "tasty": 3689,
      "diagonal": 3690,
      "##bury": 3691,
      "centre": 3692,
      "##ami": 3693,
      "rose": 3694,
      "gent": 3695,
      "keeping": 3696,
      "##ince": 3697,
      "think": 3698,
      "brew": 3699,
      "brie": 3700,
      "disk": 3701,
      "##vies": 3702,
      "heart": 3703,
      "eggplants": 3704,
      "border": 3705,
      "wafer": 3706,
      "exp": 3707,
      "aid": 3708,
      "baker": 3709,
      "lima": 3710,
      "hum": 3711,
      "pretzel": 3712,
      "defro": 3713,
      "hi": 3714,
      "scones": 3715,
      "seg": 3716,
      "pimentos": 3717,
      "advance": 3718,
      "zipl": 3719,
      "fourth": 3720,
      "pretty": 3721,
      "##grass": 3722,
      "##ats": 3723,
      "picante": 3724,
      "colour": 3725,
      "tortellini": 3726,
      "tel": 3727,
      "kal": 3728,
      "##eway": 3729,
      "internal": 3730,
      "julienne": 3731,
      "roccoli": 3732,
      "lids": 3733,
      "kab": 3734,
      "safeway": 3735,
      "ump": 3736,
      "##hee": 3737,
      "8x": 3738,
      "overlapping": 3739,
      "fun": 3740,
      "##ontally": 3741,
      "nearly": 3742,
      "scallop": 3743,
      "formed": 3744,
      "horizontally": 3745,
      "kiw": 3746,
      "ribbon": 3747,
      "anchovies": 3748,
      "classic": 3749,
      "gentle": 3750,
      "bam": 3751,
      "against": 3752,
      "coll": 3753,
      "bok": 3754,
      "cheez": 3755,
      "going": 3756,
      "cy": 3757,
      "tuck": 3758,
      "ran": 3759,
      "meats": 3760,
      "hollow": 3761,
      "aro": 3762,
      "lite": 3763,
      "savory": 3764,
      "steel": 3765,
      "##aya": 3766,
      "##ao": 3767,
      "dog": 3768,
      "replace": 3769,
      "loose": 3770,
      "##ically": 3771,
      "##eep": 3772,
      "tester": 3773,
      "lemongrass": 3774,
      "smoothie": 3775,
      "weigh": 3776,
      "steril": 3777,
      "fan": 3778,
      "gn": 3779,
      "ten": 3780,
      "##aff": 3781,
      "heese": 3782,
      "sourdough": 3783,
      "scant": 3784,
      "garnished": 3785,
      "ri": 3786,
      "py": 3787,
      "##acing": 3788,
      "gloss": 3789,
      "alternate": 3790,
      "appear": 3791,
      "pip": 3792,
      "##ava": 3793,
      "tails": 3794,
      "tall": 3795,
      "poblano": 3796,
      "##bas": 3797,
      "thicker": 3798,
      "##boo": 3799,
      "##be": 3800,
      "fair": 3801,
      "crepe": 3802,
      "##orino": 3803,
      "00": 3804,
      "slits": 3805,
      "##ume": 3806,
      "pickling": 3807,
      "bamboo": 3808,
      "pecorino": 3809,
      "devil": 3810,
      "where": 3811,
      "##redo": 3812,
      "kabo": 3813,
      "unw": 3814,
      "patter": 3815,
      "dipped": 3816,
      "rough": 3817,
      "masher": 3818,
      "russet": 3819,
      "##ibut": 3820,
      "##ember": 3821,
      "steep": 3822,
      "tacos": 3823,
      "love": 3824,
      "prunes": 3825,
      "##uri": 3826,
      "drip": 3827,
      "bea": 3828,
      "##amata": 3829,
      "fond": 3830,
      "pri": 3831,
      "stro": 3832,
      "raise": 3833,
      "keeps": 3834,
      "morning": 3835,
      "parsnips": 3836,
      "plan": 3837,
      "followed": 3838,
      "##land": 3839,
      "combination": 3840,
      "basket": 3841,
      "trea": 3842,
      "reamy": 3843,
      "alfredo": 3844,
      "##mouth": 3845,
      "trad": 3846,
      "vers": 3847,
      "those": 3848,
      "accom": 3849,
      "gor": 3850,
      "##den": 3851,
      "rapid": 3852,
      "bird": 3853,
      "170": 3854,
      "lip": 3855,
      "unm": 3856,
      "ma": 3857,
      "import": 3858,
      "hazelnut": 3859,
      "sealed": 3860,
      "spar": 3861,
      "##ures": 3862,
      "overb": 3863,
      "degla": 3864,
      "lengths": 3865,
      "##mg": 3866,
      "tastes": 3867,
      "final": 3868,
      "##entation": 3869,
      "##5u00b0": 3870,
      "chew": 3871,
      "buttercream": 3872,
      "mortar": 3873,
      "important": 3874,
      "gnoc": 3875,
      "vermouth": 3876,
      "microwav": 3877,
      "camp": 3878,
      "##oto": 3879,
      "throughout": 3880,
      "dec": 3881,
      "flow": 3882,
      "grinder": 3883,
      "burner": 3884,
      "sam": 3885,
      "##aj": 3886,
      "gingerroot": 3887,
      "deglaze": 3888,
      "liber": 3889,
      "puffs": 3890,
      "tran": 3891,
      "##mix": 3892,
      "##ado": 3893,
      "eef": 3894,
      "##rex": 3895,
      "variet": 3896,
      "nach": 3897,
      "gnocchi": 3898,
      "##ical": 3899,
      "dun": 3900,
      "##ik": 3901,
      "kalamata": 3902,
      "##x2": 3903,
      "pinches": 3904,
      "calorie": 3905,
      "irish": 3906,
      "pyrex": 3907,
      "mot": 3908,
      "waffles": 3909,
      "foods": 3910,
      "##abi": 3911,
      "##basa": 3912,
      "vis": 3913,
      "vol": 3914,
      "##usel": 3915,
      "##vals": 3916,
      "unroll": 3917,
      "shim": 3918,
      "reads": 3919,
      "oasted": 3920,
      "drizzling": 3921,
      "pattern": 3922,
      "pierce": 3923,
      "umpkin": 3924,
      "halibut": 3925,
      "found": 3926,
      "bed": 3927,
      "venison": 3928,
      "preparing": 3929,
      "##oots": 3930,
      "rag": 3931,
      "bottles": 3932,
      "##time": 3933,
      "##u00b0c": 3934,
      "lady": 3935,
      "26": 3936,
      "unmold": 3937,
      "thickest": 3938,
      "popped": 3939,
      "goo": 3940,
      "##ama": 3941,
      "##here": 3942,
      "fig": 3943,
      "cools": 3944,
      "##rn": 3945,
      "tested": 3946,
      "streusel": 3947,
      "pearl": 3948,
      "fairly": 3949,
      "prep": 3950,
      "kiel": 3951,
      "vegetarian": 3952,
      "salami": 3953,
      "##etto": 3954,
      "##illsbury": 3955,
      "looking": 3956,
      "##tin": 3957,
      "spon": 3958,
      "neck": 3959,
      "scrubbed": 3960,
      "piping": 3961,
      "120": 3962,
      "spark": 3963,
      "soaking": 3964,
      "##irt": 3965,
      "rab": 3966,
      "##ond": 3967,
      "##alia": 3968,
      "bulg": 3969,
      "cac": 3970,
      "ton": 3971,
      "ingredient": 3972,
      "gather": 3973,
      "uick": 3974,
      "supre": 3975,
      "plenty": 3976,
      "pil": 3977,
      "78": 3978,
      "est": 3979,
      "##han": 3980,
      "tablespoonfuls": 3981,
      "tbl": 3982,
      "##ept": 3983,
      "##enhe": 3984,
      "christmas": 3985,
      "ghee": 3986,
      "pops": 3987,
      "stret": 3988,
      "humm": 3989,
      "starter": 3990,
      "##efry": 3991,
      "sautefry": 3992,
      "##terol": 3993,
      "##ada": 3994,
      "pile": 3995,
      "pillsbury": 3996,
      "##enheit": 3997,
      "kielbasa": 3998,
      "mul": 3999,
      "choles": 4000,
      "275": 4001,
      "##ever": 4002,
      "harden": 4003,
      "stay": 4004,
      "rectangles": 4005,
      "kept": 4006,
      "##idge": 4007,
      "cholesterol": 4008,
      "sponge": 4009,
      "runny": 4010,
      "nav": 4011,
      "alternatively": 4012,
      "beaters": 4013,
      "results": 4014,
      "glossy": 4015,
      "plant": 4016,
      "pierced": 4017,
      "tater": 4018,
      "triple": 4019,
      "##val": 4020,
      "carbo": 4021,
      "liter": 4022,
      "macad": 4023,
      "##zola": 4024,
      "eyed": 4025,
      "##zn": 4026,
      "obl": 4027,
      "memb": 4028,
      "dor": 4029,
      "##ape": 4030,
      "##kets": 4031,
      "cannellini": 4032,
      "sna": 4033,
      "##che": 4034,
      "transpar": 4035,
      "##shi": 4036,
      "purple": 4037,
      "lots": 4038,
      "bal": 4039,
      "yukon": 4040,
      "render": 4041,
      "squid": 4042,
      "##ille": 4043,
      "frzn": 4044,
      "yo": 4045,
      "continuously": 4046,
      "transparent": 4047,
      "spir": 4048,
      "##ured": 4049,
      "home": 4050,
      "stead": 4051,
      "picy": 4052,
      "##itas": 4053,
      "##ative": 4054,
      "liberally": 4055,
      "mein": 4056,
      "letting": 4057,
      "straight": 4058,
      "mark": 4059,
      "slit": 4060,
      "##elle": 4061,
      "logs": 4062,
      "membran": 4063,
      "exican": 4064,
      "since": 4065,
      "nutritional": 4066,
      "##ign": 4067,
      "centers": 4068,
      "hair": 4069,
      "325f": 4070,
      "##gonzola": 4071,
      "had": 4072,
      "bulgur": 4073,
      "links": 4074,
      "29": 4075,
      "photo": 4076,
      "quesad": 4077,
      "score": 4078,
      "oblong": 4079,
      "##ready": 4080,
      "ramen": 4081,
      "##amia": 4082,
      "250u00b0": 4083,
      "rad": 4084,
      "##ord": 4085,
      "tang": 4086,
      "tamari": 4087,
      "utter": 4088,
      "simil": 4089,
      "volume": 4090,
      "scor": 4091,
      "##umbo": 4092,
      "taking": 4093,
      "preference": 4094,
      "substituted": 4095,
      "segments": 4096,
      "care": 4097,
      "act": 4098,
      "lat": 4099,
      "mart": 4100,
      "know": 4101,
      "shortbread": 4102,
      "sterilized": 4103,
      "ol": 4104,
      "ach": 4105,
      "reached": 4106,
      "supreme": 4107,
      "already": 4108,
      "similar": 4109,
      "jumbo": 4110,
      "folding": 4111,
      "##fa": 4112,
      "##alo": 4113,
      "##uls": 4114,
      "hummus": 4115,
      "dai": 4116,
      "blackberry": 4117,
      "intact": 4118,
      "mars": 4119,
      "truffle": 4120,
      "fe": 4121,
      "trout": 4122,
      "tomatillos": 4123,
      "suff": 4124,
      "strained": 4125,
      "seems": 4126,
      "hell": 4127,
      "placed": 4128,
      "8x8": 4129,
      "holds": 4130,
      "called": 4131,
      "##aturated": 4132,
      "beater": 4133,
      "silk": 4134,
      "##ints": 4135,
      "kiwi": 4136,
      "##mati": 4137,
      "file": 4138,
      "fritters": 4139,
      "yams": 4140,
      "gorgonzola": 4141,
      "intervals": 4142,
      "stretch": 4143,
      "amaretto": 4144,
      "gone": 4145,
      "bright": 4146,
      "dra": 4147,
      "lipton": 4148,
      "gin": 4149,
      "vary": 4150,
      "hens": 4151,
      "ta": 4152,
      "smell": 4153,
      "rotating": 4154,
      "were": 4155,
      "tent": 4156,
      "lowest": 4157,
      "bites": 4158,
      "turnips": 4159,
      "crumbles": 4160,
      "carbohydr": 4161,
      "macadamia": 4162,
      "sorbet": 4163,
      "version": 4164,
      "##ahr": 4165,
      "sparkling": 4166,
      "eating": 4167,
      "fitting": 4168,
      "cuts": 4169,
      "variety": 4170,
      "accompan": 4171,
      "diet": 4172,
      "##over": 4173,
      "##eath": 4174,
      "zested": 4175,
      "vid": 4176,
      "##ero": 4177,
      "basmati": 4178,
      "sometimes": 4179,
      "emuls": 4180,
      "##ows": 4181,
      "##lt": 4182,
      "nap": 4183,
      "poached": 4184,
      "##ahrenheit": 4185,
      "crimp": 4186,
      "##16": 4187,
      "ba": 4188,
      "thickly": 4189,
      "pepperidge": 4190,
      "##ilit": 4191,
      "martini": 4192,
      "cornflakes": 4193,
      "given": 4194,
      "dep": 4195,
      "traditional": 4196,
      "hrimp": 4197,
      "course": 4198,
      "fahrenheit": 4199,
      "goes": 4200,
      "sq": 4201,
      "preparation": 4202,
      "buff": 4203,
      "##mersion": 4204,
      "corners": 4205,
      "##oper": 4206,
      "scalded": 4207,
      "##ghurt": 4208,
      "grains": 4209,
      "pestle": 4210,
      "marsala": 4211,
      "ruit": 4212,
      "blood": 4213,
      "mushy": 4214,
      "prop": 4215,
      "58": 4216,
      "##dden": 4217,
      "sho": 4218,
      "otato": 4219,
      "valley": 4220,
      "suffici": 4221,
      "nort": 4222,
      "please": 4223,
      "butterf": 4224,
      "yoghurt": 4225,
      "fingert": 4226,
      "##pr": 4227,
      "lue": 4228,
      "stain": 4229,
      "##ba": 4230,
      "based": 4231,
      "drumsticks": 4232,
      "trays": 4233,
      "immersion": 4234,
      "##ura": 4235,
      "picked": 4236,
      "yet": 4237,
      "##ca": 4238,
      "buy": 4239,
      "wraps": 4240,
      "buck": 4241,
      "vidalia": 4242,
      "##eable": 4243,
      "cling": 4244,
      "peeler": 4245,
      "appetizer": 4246,
      "chickens": 4247,
      "sink": 4248,
      "closed": 4249,
      "thumb": 4250,
      "rectangular": 4251,
      "crow": 4252,
      "sooper": 4253,
      "produ": 4254,
      "atop": 4255,
      "fritt": 4256,
      "##olina": 4257,
      "submer": 4258,
      "##lua": 4259,
      "##oons": 4260,
      "wing": 4261,
      "kiss": 4262,
      "area": 4263,
      "float": 4264,
      "rotel": 4265,
      "mcc": 4266,
      "##ago": 4267,
      "clos": 4268,
      "##loins": 4269,
      "tan": 4270,
      "jer": 4271,
      "uc": 4272,
      "##used": 4273,
      "pouring": 4274,
      "##ect": 4275,
      "healthier": 4276,
      "lack": 4277,
      "steady": 4278,
      "wonder": 4279,
      "sch": 4280,
      "tots": 4281,
      "tenderloins": 4282,
      "evapor": 4283,
      "choose": 4284,
      "variation": 4285,
      "##kes": 4286,
      "lr": 4287,
      "door": 4288,
      "adap": 4289,
      "scoops": 4290,
      "brit": 4291,
      "never": 4292,
      "112": 4293,
      "##hol": 4294,
      "##ossom": 4295,
      "whe": 4296,
      "putting": 4297,
      "worry": 4298,
      "cra": 4299,
      "shimmer": 4300,
      "##atine": 4301,
      "blossom": 4302,
      "though": 4303,
      "##res": 4304,
      "gro": 4305,
      "##bone": 4306,
      "risen": 4307,
      "ast": 4308,
      "kneading": 4309,
      "##apia": 4310,
      "plantain": 4311,
      "consomme": 4312,
      "kah": 4313,
      "##end": 4314,
      "110": 4315,
      "325u00b0f": 4316,
      "##ibs": 4317,
      "tarts": 4318,
      "brewed": 4319,
      "zesty": 4320,
      "##gnac": 4321,
      "liquids": 4322,
      "tamar": 4323,
      "##ming": 4324,
      "##nier": 4325,
      "osc": 4326,
      "land": 4327,
      "needs": 4328,
      "##aps": 4329,
      "nori": 4330,
      "hook": 4331,
      "remember": 4332,
      "sautee": 4333,
      "cognac": 4334,
      "##ipping": 4335,
      "##chio": 4336,
      "##ulled": 4337,
      "chewy": 4338,
      "cane": 4339,
      "##ious": 4340,
      "lrg": 4341,
      "##x10": 4342,
      "colby": 4343,
      "wasabi": 4344,
      "caramelize": 4345,
      "##aiian": 4346,
      "hab": 4347,
      "springs": 4348,
      "oscar": 4349,
      "##taloup": 4350,
      "##ortion": 4351,
      "eget": 4352,
      "mg": 4353,
      "shanks": 4354,
      "pectin": 4355,
      "upper": 4356,
      "garden": 4357,
      "seven": 4358,
      "ranberry": 4359,
      "##ormick": 4360,
      "triangle": 4361,
      "ucchini": 4362,
      "porcini": 4363,
      "hock": 4364,
      "jiff": 4365,
      "required": 4366,
      "proportion": 4367,
      "opening": 4368,
      "equally": 4369,
      "tamarind": 4370,
      "##ests": 4371,
      "mccormick": 4372,
      "##weed": 4373,
      "complete": 4374,
      "##esson": 4375,
      "##cell": 4376,
      "key": 4377,
      "##ued": 4378,
      "jiffy": 4379,
      "sushi": 4380,
      "##mann": 4381,
      "wesson": 4382,
      "kahlua": 4383,
      "frittata": 4384,
      "proced": 4385,
      "hulled": 4386,
      "dress": 4387,
      "shiny": 4388,
      "doritos": 4389,
      "##tobell": 4390,
      "bark": 4391,
      "##iment": 4392,
      "assemb": 4393,
      "unif": 4394,
      "750": 4395,
      "south": 4396,
      "lab": 4397,
      "##icelli": 4398,
      "##icchio": 4399,
      "ork": 4400,
      "##ji": 4401,
      "##aky": 4402,
      "opp": 4403,
      "gelatine": 4404,
      "salty": 4405,
      "mayer": 4406,
      "##cessed": 4407,
      "verm": 4408,
      "##aster": 4409,
      "tilapia": 4410,
      "resh": 4411,
      "pinach": 4412,
      "evaporates": 4413,
      "uniform": 4414,
      "braised": 4415,
      "reen": 4416,
      "maintain": 4417,
      "edam": 4418,
      "pocket": 4419,
      "hidden": 4420,
      "##und": 4421,
      "cantaloup": 4422,
      "layering": 4423,
      "marnier": 4424,
      "campbell": 4425,
      "forks": 4426,
      "texas": 4427,
      "475": 4428,
      "lakes": 4429,
      "rand": 4430,
      "chillies": 4431,
      "additions": 4432,
      "adapted": 4433,
      "vermicelli": 4434,
      "paring": 4435,
      "##cohol": 4436,
      "##usc": 4437,
      "grapeseed": 4438,
      "radicchio": 4439,
      "otherwise": 4440,
      "creating": 4441,
      "evoo": 4442,
      "buffalo": 4443,
      "##iness": 4444,
      "canning": 4445,
      "turned": 4446,
      "chickpea": 4447,
      "wi": 4448,
      "flowers": 4449,
      "procedure": 4450,
      "46": 4451,
      "##imum": 4452,
      "overmix": 4453,
      "melting": 4454,
      "rig": 4455,
      "##avender": 4456,
      "oval": 4457,
      "endive": 4458,
      "getting": 4459,
      "portobell": 4460,
      "kool": 4461,
      "brittle": 4462,
      "ara": 4463,
      "##ues": 4464,
      "torte": 4465,
      "220": 4466,
      "prior": 4467,
      "##acc": 4468,
      "##elt": 4469,
      "ragu": 4470,
      "holid": 4471,
      "pod": 4472,
      "holiday": 4473,
      "cola": 4474,
      "prob": 4475,
      "##iblets": 4476,
      "accent": 4477,
      "##do": 4478,
      "ea": 4479,
      "serrated": 4480,
      "arm": 4481,
      "lumpy": 4482,
      "queso": 4483,
      "island": 4484,
      "tot": 4485,
      "ineapple": 4486,
      "however": 4487,
      "yummy": 4488,
      "sufficient": 4489,
      "millilit": 4490,
      "stainless": 4491,
      "helps": 4492,
      "win": 4493,
      "chex": 4494,
      "##go": 4495,
      "425u00b0f": 4496,
      "spots": 4497,
      "ziploc": 4498,
      "fingertips": 4499,
      "lasagne": 4500,
      "kat": 4501,
      "tid": 4502,
      "flaky": 4503,
      "layered": 4504,
      "thing": 4505,
      "fle": 4506,
      "aw": 4507,
      "standing": 4508,
      "bitter": 4509,
      "deseed": 4510,
      "haban": 4511,
      "cantaloupe": 4512,
      "##rel": 4513,
      "livers": 4514,
      "compote": 4515,
      "1t": 4516,
      "##abs": 4517,
      "meantime": 4518,
      "mass": 4519,
      "talian": 4520,
      "probably": 4521,
      "fres": 4522,
      "syrupy": 4523,
      "papaya": 4524,
      "tim": 4525,
      "daikon": 4526,
      "overh": 4527,
      "freezes": 4528,
      "product": 4529,
      "##quet": 4530,
      "##ius": 4531,
      "font": 4532,
      "cacao": 4533,
      "edamame": 4534,
      "processed": 4535,
      "##utter": 4536,
      "rotate": 4537,
      "##zy": 4538,
      "craw": 4539,
      "mug": 4540,
      "rabb": 4541,
      "coats": 4542,
      "##ged": 4543,
      "sweat": 4544,
      "nutella": 4545,
      "dashi": 4546,
      "##eb": 4547,
      "toward": 4548,
      "ci": 4549,
      "thinner": 4550,
      "aioli": 4551,
      "##ceed": 4552,
      "##hing": 4553,
      "unwrap": 4554,
      "scrambled": 4555,
      "##esar": 4556,
      "doughnuts": 4557,
      "confectioner": 4558,
      "##fine": 4559,
      "clumps": 4560,
      "iceberg": 4561,
      "standard": 4562,
      "san": 4563,
      "overhang": 4564,
      "sout": 4565,
      "##boil": 4566,
      "shaving": 4567,
      "wilt": 4568,
      "rather": 4569,
      "200c": 4570,
      "nestle": 4571,
      "##cooked": 4572,
      "fontina": 4573,
      "##usage": 4574,
      "undern": 4575,
      "##iforn": 4576,
      "underneath": 4577,
      "shimmering": 4578,
      "##don": 4579,
      "proceed": 4580,
      "able": 4581,
      "##12": 4582,
      "northern": 4583,
      "touched": 4584,
      "##uffed": 4585,
      "crem": 4586,
      "holding": 4587,
      "remains": 4588,
      "##illas": 4589,
      "##acts": 4590,
      "##ental": 4591,
      "tidb": 4592,
      "parfa": 4593,
      "alcohol": 4594,
      "flipping": 4595,
      "discarded": 4596,
      "spiral": 4597,
      "hines": 4598,
      "eyes": 4599,
      "hick": 4600,
      "ladyf": 4601,
      "##ifornia": 4602,
      "##ution": 4603,
      "superfine": 4604,
      "oppos": 4605,
      "feed": 4606,
      "##esy": 4607,
      "filets": 4608,
      "crawfish": 4609,
      "lock": 4610,
      "##iter": 4611,
      "scramble": 4612,
      "depends": 4613,
      "duncan": 4614,
      "alongside": 4615,
      "anything": 4616,
      "115": 4617,
      "lavender": 4618,
      "##zu": 4619,
      "mounds": 4620,
      "grater": 4621,
      "##work": 4622,
      "##matic": 4623,
      "proper": 4624,
      "##amel": 4625,
      "mace": 4626,
      "tenders": 4627,
      "hominy": 4628,
      "winter": 4629,
      "indian": 4630,
      "swir": 4631,
      "rotini": 4632,
      "husks": 4633,
      "##mine": 4634,
      "hellmann": 4635,
      "tidbits": 4636,
      "oconut": 4637,
      "silic": 4638,
      "fondue": 4639,
      "##ouille": 4640,
      "southern": 4641,
      "else": 4642,
      "bouquet": 4643,
      "425f": 4644,
      "frank": 4645,
      "case": 4646,
      "vit": 4647,
      "##seed": 4648,
      "##otti": 4649,
      "asi": 4650,
      "##een": 4651,
      "chiff": 4652,
      "change": 4653,
      "cornflour": 4654,
      "slush": 4655,
      "steaming": 4656,
      "body": 4657,
      "devel": 4658,
      "ausage": 4659,
      "casings": 4660,
      "snapper": 4661,
      "portobello": 4662,
      "65": 4663,
      "mostly": 4664,
      "norm": 4665,
      "mixt": 4666,
      "##itch": 4667,
      "seaweed": 4668,
      "##opes": 4669,
      "##aces": 4670,
      "opposite": 4671,
      "belly": 4672,
      "##anc": 4673,
      "flor": 4674,
      "greasing": 4675,
      "mallet": 4676,
      "sauces": 4677,
      "chiffon": 4678,
      "##what": 4679,
      "ww": 4680,
      "semolina": 4681,
      "matzo": 4682,
      "##br": 4683,
      "##ils": 4684,
      "asiago": 4685,
      "isn": 4686,
      "##urry": 4687,
      "haw": 4688,
      "encl": 4689,
      "omemade": 4690,
      "##bean": 4691,
      "9x": 4692,
      "rip": 4693,
      "##ky": 4694,
      "mag": 4695,
      "touching": 4696,
      "somewhat": 4697,
      "ream": 4698,
      "herry": 4699,
      "overbake": 4700,
      "truffles": 4701,
      "pockets": 4702,
      "scorch": 4703,
      "mangoes": 4704,
      "seper": 4705,
      "brick": 4706,
      "##mar": 4707,
      "attached": 4708,
      "something": 4709,
      "lueberry": 4710,
      "catfish": 4711,
      "trif": 4712,
      "aromatic": 4713,
      "liquor": 4714,
      "herbed": 4715,
      "bol": 4716,
      "##ifted": 4717,
      "##aise": 4718,
      "##ico": 4719,
      "pou": 4720,
      "stores": 4721,
      "##yer": 4722,
      "gm": 4723,
      "habanero": 4724,
      "spreadable": 4725,
      "turnip": 4726,
      "wonderful": 4727,
      "shavings": 4728,
      "carving": 4729,
      "distributed": 4730,
      "shoots": 4731,
      "verde": 4732,
      "##ggy": 4733,
      "##vetop": 4734,
      "saturated": 4735,
      "##ganoff": 4736,
      "kno": 4737,
      "suit": 4738,
      "eggn": 4739,
      "##orio": 4740,
      "nacho": 4741,
      "escape": 4742,
      "breads": 4743,
      "deseeded": 4744,
      "eggnog": 4745,
      "ups": 4746,
      "tuffed": 4747,
      "continuing": 4748,
      "pain": 4749,
      "##ili": 4750,
      "rapidly": 4751,
      "seared": 4752,
      "gou": 4753,
      "15x10": 4754,
      "ob": 4755,
      "eart": 4756,
      "giblets": 4757,
      "envelopes": 4758,
      "sauc": 4759,
      "patted": 4760,
      "amp": 4761,
      "filet": 4762,
      "cremini": 4763,
      "##via": 4764,
      "stovetop": 4765,
      "saltine": 4766,
      "mouth": 4767,
      "unsifted": 4768,
      "chia": 4769,
      "##ane": 4770,
      "##atoni": 4771,
      "extracts": 4772,
      "acid": 4773,
      "sparer": 4774,
      "caesar": 4775,
      "wid": 4776,
      "clar": 4777,
      "faj": 4778,
      "sound": 4779,
      "depth": 4780,
      "##pical": 4781,
      "stroganoff": 4782,
      "select": 4783,
      "scraps": 4784,
      "law": 4785,
      "vert": 4786,
      "tanger": 4787,
      "pulled": 4788,
      "arborio": 4789,
      "jigg": 4790,
      "crusted": 4791,
      "blackened": 4792,
      "proven": 4793,
      "bi": 4794,
      "pi": 4795,
      "crystall": 4796,
      "trifle": 4797,
      "face": 4798,
      "##iti": 4799,
      "ribbons": 4800,
      "##zing": 4801,
      "tbls": 4802,
      "desire": 4803,
      "ben": 4804,
      "##burg": 4805,
      "spareribs": 4806,
      "da": 4807,
      "combining": 4808,
      "na": 4809,
      "spoons": 4810,
      "##omb": 4811,
      "##rec": 4812,
      "pral": 4813,
      "groc": 4814,
      "gingerbread": 4815,
      "film": 4816,
      "storage": 4817,
      "pilaf": 4818,
      "juicy": 4819,
      "##icum": 4820,
      "balance": 4821,
      "0206": 4822,
      "microwaveable": 4823,
      "iced": 4824,
      "gumbo": 4825,
      "##ston": 4826,
      "##ware": 4827,
      "##ner": 4828,
      "steps": 4829,
      "aramel": 4830,
      "threads": 4831,
      "crystals": 4832,
      "frypan": 4833,
      "egetable": 4834,
      "crost": 4835,
      "checking": 4836,
      "cels": 4837,
      "capsicum": 4838,
      "rabbit": 4839,
      "celsius": 4840,
      "##affin": 4841,
      "hawaiian": 4842,
      "variations": 4843,
      "paraffin": 4844,
      "##illo": 4845,
      "##ux": 4846,
      "oils": 4847,
      "drying": 4848,
      "9x5": 4849,
      "ele": 4850,
      "yours": 4851,
      "cycle": 4852,
      "weights": 4853,
      "passion": 4854,
      "sat": 4855,
      "jic": 4856,
      "##iest": 4857,
      "bass": 4858,
      "##right": 4859,
      "mixtures": 4860,
      "draw": 4861,
      "fourths": 4862,
      "defrosted": 4863,
      "okay": 4864,
      "##eaten": 4865,
      "sciss": 4866,
      "eff": 4867,
      "rigatoni": 4868,
      "gingers": 4869,
      "california": 4870,
      "unf": 4871,
      "##cal": 4872,
      "jicama": 4873,
      "pizzas": 4874,
      "rubbed": 4875,
      "##geal": 4876,
      "##ify": 4877,
      "kids": 4878,
      "facing": 4879,
      "glo": 4880,
      "handfuls": 4881,
      "masa": 4882,
      "scraped": 4883,
      "140": 4884,
      "cutters": 4885,
      "pith": 4886,
      "ladyfingers": 4887,
      "bli": 4888,
      "acorn": 4889,
      "carb": 4890,
      "curls": 4891,
      "garnishes": 4892,
      "defrost": 4893,
      "450f": 4894,
      "heesy": 4895,
      "oney": 4896,
      "tost": 4897,
      "##bal": 4898,
      "##atta": 4899,
      "debon": 4900,
      "##utes": 4901,
      "600": 4902,
      "##net": 4903,
      "slivers": 4904,
      "quesadillas": 4905,
      "inner": 4906,
      "gg": 4907,
      "##resh": 4908,
      "carn": 4909,
      "flan": 4910,
      "##ung": 4911,
      "dusted": 4912,
      "gingersn": 4913,
      "oc": 4914,
      "points": 4915,
      "switch": 4916,
      "##sch": 4917,
      "##wheat": 4918,
      "hang": 4919,
      "grass": 4920,
      "milliliters": 4921,
      "oreos": 4922,
      "scalloped": 4923,
      "jas": 4924,
      "kabobs": 4925,
      "sizzle": 4926,
      "burrito": 4927,
      "micro": 4928,
      "gouda": 4929,
      "maybe": 4930,
      "apply": 4931,
      "deboned": 4932,
      "chefs": 4933,
      "##akuri": 4934,
      "who": 4935,
      "silicone": 4936,
      "rendered": 4937,
      "insides": 4938,
      "katakuri": 4939,
      "pimientos": 4940,
      "##iterran": 4941,
      "develop": 4942,
      "scald": 4943,
      "katakuriko": 4944,
      "ziti": 4945,
      "chive": 4946,
      "packag": 4947,
      "stopping": 4948,
      "decorating": 4949,
      "##iterranean": 4950,
      "swirling": 4951,
      "##iana": 4952,
      "enclose": 4953,
      "##illy": 4954,
      "prev": 4955,
      "flatt": 4956,
      "moving": 4957,
      "source": 4958,
      "nar": 4959,
      "##aced": 4960,
      "hickory": 4961,
      "scissors": 4962,
      "##ssed": 4963,
      "infused": 4964,
      "carbon": 4965,
      "mess": 4966,
      "butt": 4967,
      "##ud": 4968,
      "beaut": 4969,
      "arbec": 4970,
      "##arole": 4971,
      "##oses": 4972,
      "crowd": 4973,
      "grey": 4974,
      "portab": 4975,
      "urkey": 4976,
      "flute": 4977,
      "tests": 4978,
      "##ented": 4979,
      "cannot": 4980,
      "mrs": 4981,
      "inform": 4982,
      "roaster": 4983,
      "pas": 4984,
      "##jo": 4985,
      "##erie": 4986,
      "pen": 4987,
      "ash": 4988,
      "hearty": 4989,
      "bru": 4990,
      "smoker": 4991,
      "clarified": 4992,
      "curried": 4993,
      "ramekin": 4994,
      "slight": 4995,
      "##ph": 4996,
      "##set": 4997,
      "ceramic": 4998,
      "information": 4999,
      "congeal": 5000,
      "retain": 5001,
      "jasmine": 5002,
      "unbeaten": 5003,
      "sets": 5004,
      "grandma": 5005,
      "peri": 5006,
      "##icotti": 5007,
      "kim": 5008,
      "lou": 5009,
      "freezing": 5010,
      "exact": 5011,
      "biscotti": 5012,
      "##orr": 5013,
      "##for": 5014,
      "##adian": 5015,
      "sealing": 5016,
      "catch": 5017,
      "##etti": 5018,
      "releas": 5019,
      "pli": 5020,
      "##itation": 5021,
      "##iding": 5022,
      "distilled": 5023,
      "equip": 5024,
      "##tes": 5025,
      "omitting": 5026,
      "minimum": 5027,
      "options": 5028,
      "croiss": 5029,
      "equipment": 5030,
      "sund": 5031,
      "narrow": 5032,
      "hite": 5033,
      "raising": 5034,
      "quant": 5035,
      "decorative": 5036,
      "##lee": 5037,
      "teaspoonful": 5038,
      "itself": 5039,
      "fritos": 5040,
      "hen": 5041,
      "toaster": 5042,
      "##alle": 5043,
      "decoration": 5044,
      "ried": 5045,
      "shel": 5046,
      "barbecued": 5047,
      "accum": 5048,
      "twine": 5049,
      "mah": 5050,
      "tir": 5051,
      "plump": 5052,
      "soymilk": 5053,
      "##immon": 5054,
      "net": 5055,
      "##verage": 5056,
      "velvet": 5057,
      "deviled": 5058,
      "assembly": 5059,
      "knorr": 5060,
      "crystallized": 5061,
      "##cellent": 5062,
      "navy": 5063,
      "resemble": 5064,
      "espec": 5065,
      "cured": 5066,
      "mandol": 5067,
      "grocery": 5068,
      "##isserie": 5069,
      "flatbread": 5070,
      "manicotti": 5071,
      "include": 5072,
      "surpr": 5073,
      "dal": 5074,
      "lunch": 5075,
      "##abatta": 5076,
      "##bin": 5077,
      "scotch": 5078,
      "quail": 5079,
      "##osed": 5080,
      "heath": 5081,
      "eaten": 5082,
      "##chamel": 5083,
      "rows": 5084,
      "imitation": 5085,
      "##issa": 5086,
      "##mm": 5087,
      "marz": 5088,
      "label": 5089,
      "##ng": 5090,
      "chestnut": 5091,
      "angle": 5092,
      "ecan": 5093,
      "wort": 5094,
      "##garian": 5095,
      "aged": 5096,
      "fluted": 5097,
      "##hetta": 5098,
      "ciabatta": 5099,
      "ii": 5100,
      "asp": 5101,
      "##recipes": 5102,
      "##aur": 5103,
      "flowerets": 5104,
      "excellent": 5105,
      "toasts": 5106,
      "mil": 5107,
      "vi": 5108,
      "pate": 5109,
      "omato": 5110,
      "##ene": 5111,
      "##irect": 5112,
      "especially": 5113,
      "##10": 5114,
      "##ival": 5115,
      "inger": 5116,
      "rotisserie": 5117,
      "bagel": 5118,
      "pliable": 5119,
      "indirect": 5120,
      "bulbs": 5121,
      "mixes": 5122,
      "rust": 5123,
      "chim": 5124,
      "##aken": 5125,
      "deg": 5126,
      "screw": 5127,
      "subs": 5128,
      "jun": 5129,
      "##ities": 5130,
      "##inz": 5131,
      "bolog": 5132,
      "kisses": 5133,
      "bechamel": 5134,
      "##abet": 5135,
      "wr": 5136,
      "vitam": 5137,
      "ill": 5138,
      "##plate": 5139,
      "dem": 5140,
      "rown": 5141,
      "boston": 5142,
      "gives": 5143,
      "pared": 5144,
      "sweetness": 5145,
      "slo": 5146,
      "buttery": 5147,
      "##iar": 5148,
      "##gy": 5149,
      "oriental": 5150,
      "escarole": 5151,
      "drizzled": 5152,
      "##bergine": 5153,
      "27": 5154,
      "##estern": 5155,
      "hamburg": 5156,
      "burritos": 5157,
      "farro": 5158,
      "falling": 5159,
      "disp": 5160,
      "matchsticks": 5161,
      "gour": 5162,
      "plantains": 5163,
      "##app": 5164,
      "carbohydrate": 5165,
      "peels": 5166,
      "keb": 5167,
      "130": 5168,
      "##day": 5169,
      "silver": 5170,
      "percent": 5171,
      "overlap": 5172,
      "didn": 5173,
      "##oche": 5174,
      "salads": 5175,
      "debone": 5176,
      "amber": 5177,
      "provided": 5178,
      "puffy": 5179,
      "##bles": 5180,
      "##lette": 5181,
      "15x10x1": 5182,
      "decrease": 5183,
      "ric": 5184,
      "currant": 5185,
      "doz": 5186,
      "sar": 5187,
      "finishing": 5188,
      "crabs": 5189,
      "upright": 5190,
      "number": 5191,
      "folded": 5192,
      "2t": 5193,
      "filter": 5194,
      "kor": 5195,
      "slip": 5196,
      "rabe": 5197,
      "parboil": 5198,
      "rope": 5199,
      "##ional": 5200,
      "##ost": 5201,
      "##cup": 5202,
      "proportionately": 5203,
      "##chu": 5204,
      "##ppers": 5205,
      "prof": 5206,
      "lawry": 5207,
      "southw": 5208,
      "planters": 5209,
      "stiffly": 5210,
      "tilt": 5211,
      "145": 5212,
      "sword": 5213,
      "individually": 5214,
      "membranes": 5215,
      "##oil": 5216,
      "heinz": 5217,
      "tossed": 5218,
      "buckwheat": 5219,
      "nonrea": 5220,
      "##whe": 5221,
      "multi": 5222,
      "conf": 5223,
      "9x9": 5224,
      "canadian": 5225,
      "nutty": 5226,
      "nonreactive": 5227,
      "##chas": 5228,
      "got": 5229,
      "eal": 5230,
      "pounded": 5231,
      "creamer": 5232,
      "parfait": 5233,
      "mocha": 5234,
      "fronds": 5235,
      "htt": 5236,
      "seperate": 5237,
      "rid": 5238,
      "hili": 5239,
      "oe": 5240,
      "medall": 5241,
      "shelf": 5242,
      "parsnip": 5243,
      "ce": 5244,
      "85": 5245,
      "crostini": 5246,
      "aco": 5247,
      "##edish": 5248,
      "##dro": 5249,
      "things": 5250,
      "persimmon": 5251,
      "swordfish": 5252,
      "shot": 5253,
      "ment": 5254,
      "dumpling": 5255,
      "##crust": 5256,
      "napa": 5257,
      "ga": 5258,
      "8oz": 5259,
      "yourself": 5260,
      "rnrn": 5261,
      "crisps": 5262,
      "chervil": 5263,
      "provence": 5264,
      "stevia": 5265,
      "cam": 5266,
      "##adas": 5267,
      "##vable": 5268,
      "xant": 5269,
      "116": 5270,
      "purchas": 5271,
      "rises": 5272,
      "malt": 5273,
      "preserved": 5274,
      "caviar": 5275,
      "limp": 5276,
      "brioche": 5277,
      "##eer": 5278,
      "pair": 5279,
      "grm": 5280,
      "visible": 5281,
      "period": 5282,
      "casing": 5283,
      "##hip": 5284,
      "marks": 5285,
      "aubergine": 5286,
      "barrel": 5287,
      "##unt": 5288,
      "barbe": 5289,
      "tag": 5290,
      "saving": 5291,
      "sizzling": 5292,
      "##zer": 5293,
      "##aph": 5294,
      "plun": 5295,
      "crystal": 5296,
      "##eno": 5297,
      "arrow": 5298,
      "33": 5299,
      "indentation": 5300,
      "sambal": 5301,
      "korean": 5302,
      "collard": 5303,
      "towards": 5304,
      "stirred": 5305,
      "adhere": 5306,
      "##adine": 5307,
      "harissa": 5308,
      "worth": 5309,
      "whirl": 5310,
      "bagels": 5311,
      "##ales": 5312,
      "doing": 5313,
      "shuck": 5314,
      "arrot": 5315,
      "##round": 5316,
      "build": 5317,
      "##iki": 5318,
      "motor": 5319,
      "marble": 5320,
      "russian": 5321,
      "##tic": 5322,
      "colors": 5323,
      "omelette": 5324,
      "bias": 5325,
      "delic": 5326,
      "##estion": 5327,
      "outdo": 5328,
      "easter": 5329,
      "##ward": 5330,
      "carve": 5331,
      "achieve": 5332,
      "190c": 5333,
      "emulsified": 5334,
      "kir": 5335,
      "##binado": 5336,
      "tangerine": 5337,
      "ld": 5338,
      "##illi": 5339,
      "skip": 5340,
      "##ior": 5341,
      "##quettes": 5342,
      "surround": 5343,
      "10x": 5344,
      "cyli": 5345,
      "##uschetta": 5346,
      "sol": 5347,
      "##reau": 5348,
      "turbinado": 5349,
      "sloppy": 5350,
      "broiled": 5351,
      "transferring": 5352,
      "asta": 5353,
      "13x9x2": 5354,
      "cooler": 5355,
      "##mi": 5356,
      "suggestion": 5357,
      "andouille": 5358,
      "ligh": 5359,
      "ox": 5360,
      "refresh": 5361,
      "chan": 5362,
      "##ida": 5363,
      "##ising": 5364,
      "pitas": 5365,
      "appetizers": 5366,
      "softens": 5367,
      "160u00b0": 5368,
      "una": 5369,
      "##icles": 5370,
      "pkt": 5371,
      "book": 5372,
      "margarita": 5373,
      "##box": 5374,
      "corre": 5375,
      "coint": 5376,
      "aut": 5377,
      "cole": 5378,
      "accumulated": 5379,
      "gren": 5380,
      "burst": 5381,
      "treats": 5382,
      "grainy": 5383,
      "wise": 5384,
      "franks": 5385,
      "width": 5386,
      "year": 5387,
      "kabocha": 5388,
      "cointreau": 5389,
      "##occ": 5390,
      "##graph": 5391,
      "louis": 5392,
      "##ult": 5393,
      "meaty": 5394,
      "heav": 5395,
      "xanthan": 5396,
      "acon": 5397,
      "americ": 5398,
      "##abag": 5399,
      "gooey": 5400,
      "##gian": 5401,
      "##water": 5402,
      "seem": 5403,
      "knives": 5404,
      "wheel": 5405,
      "front": 5406,
      "bundle": 5407,
      "removable": 5408,
      "rat": 5409,
      "arrowroot": 5410,
      "rench": 5411,
      "restaur": 5412,
      "almon": 5413,
      "##iments": 5414,
      "spacing": 5415,
      "##ler": 5416,
      "vertically": 5417,
      "##icle": 5418,
      "stuck": 5419,
      "young": 5420,
      "##ja": 5421,
      "##butter": 5422,
      "fava": 5423,
      "slurry": 5424,
      "closely": 5425,
      "medallions": 5426,
      "5g": 5427,
      "offset": 5428,
      "stale": 5429,
      "gram": 5430,
      "450u00b0f": 5431,
      "correct": 5432,
      "il": 5433,
      "draining": 5434,
      "equival": 5435,
      "diamond": 5436,
      "motion": 5437,
      "##ral": 5438,
      "membrane": 5439,
      "band": 5440,
      "275u00b0": 5441,
      "paint": 5442,
      "markets": 5443,
      "visit": 5444,
      "spot": 5445,
      "photograph": 5446,
      "mus": 5447,
      "items": 5448,
      "plunge": 5449,
      "ts": 5450,
      "##ugar": 5451,
      "unt": 5452,
      "ziplock": 5453,
      "##inated": 5454,
      "flavorings": 5455,
      "lec": 5456,
      "burg": 5457,
      "held": 5458,
      "##pps": 5459,
      "##ki": 5460,
      "barbeque": 5461,
      "atmeal": 5462,
      "##uds": 5463,
      "chocol": 5464,
      "strands": 5465,
      "rims": 5466,
      "grenadine": 5467,
      "pulls": 5468,
      "microwavable": 5469,
      "##hs": 5470,
      "reduces": 5471,
      "joh": 5472,
      "chopping": 5473,
      "treat": 5474,
      "paghetti": 5475,
      "equivalent": 5476,
      "latt": 5477,
      "panini": 5478,
      "##rem": 5479,
      "smear": 5480,
      "perfectly": 5481,
      "##iso": 5482,
      "kebabs": 5483,
      "##fort": 5484,
      "reheated": 5485,
      "##atel": 5486,
      "outdoor": 5487,
      "##accia": 5488,
      "gloves": 5489,
      "sort": 5490,
      "cobs": 5491,
      "soggy": 5492,
      "emer": 5493,
      "##cts": 5494,
      "bigg": 5495,
      "##overs": 5496,
      "properly": 5497,
      "rain": 5498,
      "places": 5499,
      "neat": 5500,
      "foc": 5501,
      "pinwhe": 5502,
      "lobsters": 5503,
      "portabella": 5504,
      "##eners": 5505,
      "##napps": 5506,
      "##ging": 5507,
      "actually": 5508,
      "##vely": 5509,
      "fettuc": 5510,
      "disks": 5511,
      "youre": 5512,
      "secre": 5513,
      "schnapps": 5514,
      "sided": 5515,
      "##azing": 5516,
      "tangy": 5517,
      "ush": 5518,
      "ann": 5519,
      "dehydr": 5520,
      "target": 5521,
      "##arines": 5522,
      "##urst": 5523,
      "##eade": 5524,
      "guests": 5525,
      "www": 5526,
      "##occan": 5527,
      "max": 5528,
      "##irloom": 5529,
      "criss": 5530,
      "evaporate": 5531,
      "lattice": 5532,
      "cylinder": 5533,
      "##ieved": 5534,
      "circular": 5535,
      "access": 5536,
      "praline": 5537,
      "smoky": 5538,
      "pushing": 5539,
      "##oncini": 5540,
      "surprise": 5541,
      "##ounder": 5542,
      "anyone": 5543,
      "securely": 5544,
      "##gets": 5545,
      "covers": 5546,
      "##undy": 5547,
      "nectarines": 5548,
      "holl": 5549,
      "tu": 5550,
      "herbes": 5551,
      "pouch": 5552,
      "hungarian": 5553,
      "accompaniment": 5554,
      "jug": 5555,
      "bruschetta": 5556,
      "mes": 5557,
      "anal": 5558,
      "singles": 5559,
      "churn": 5560,
      "happ": 5561,
      "appears": 5562,
      "fancy": 5563,
      "prem": 5564,
      "tropical": 5565,
      "##uggets": 5566,
      "meld": 5567,
      "tend": 5568,
      "neuf": 5569,
      "tomatillo": 5570,
      "squeezing": 5571,
      "gourmet": 5572,
      "##urbed": 5573,
      "stru": 5574,
      "adds": 5575,
      "jarred": 5576,
      "restaurant": 5577,
      "totally": 5578,
      "lines": 5579,
      "effect": 5580,
      "carnation": 5581,
      "chilis": 5582,
      "nuggets": 5583,
      "dirt": 5584,
      "vent": 5585,
      "calam": 5586,
      "naan": 5587,
      "snip": 5588,
      "innamon": 5589,
      "dropped": 5590,
      "meringues": 5591,
      "flaxseed": 5592,
      "neufch": 5593,
      "##mond": 5594,
      "bleu": 5595,
      "##yn": 5596,
      "chipped": 5597,
      "##uxe": 5598,
      "saucepot": 5599,
      "##ses": 5600,
      "undist": 5601,
      "holland": 5602,
      "raised": 5603,
      "blanc": 5604,
      "dig": 5605,
      "sard": 5606,
      "magic": 5607,
      "burgundy": 5608,
      "joe": 5609,
      "##ira": 5610,
      "ideal": 5611,
      "tblsp": 5612,
      "undisturbed": 5613,
      "polish": 5614,
      "fus": 5615,
      "butcher": 5616,
      "soya": 5617,
      "##anging": 5618,
      "flounder": 5619,
      "neufchatel": 5620,
      "seams": 5621,
      "moon": 5622,
      "##efore": 5623,
      "focaccia": 5624,
      "##abetic": 5625,
      "frosted": 5626,
      "limeade": 5627,
      "kimchi": 5628,
      "betty": 5629,
      "##olf": 5630,
      "flattened": 5631,
      "aroma": 5632,
      "america": 5633,
      "cone": 5634,
      "beverage": 5635,
      "submerge": 5636,
      "shreds": 5637,
      "300f": 5638,
      "disapp": 5639,
      "risp": 5640,
      "underside": 5641,
      "manner": 5642,
      "gallo": 5643,
      "##wurst": 5644,
      "heavily": 5645,
      "filo": 5646,
      "marinating": 5647,
      "buds": 5648,
      "##imate": 5649,
      "fer": 5650,
      "##ello": 5651,
      "nu": 5652,
      "mary": 5653,
      "##ysis": 5654,
      "dab": 5655,
      "comple": 5656,
      "pico": 5657,
      "wall": 5658,
      "heirloom": 5659,
      "opened": 5660,
      "analysis": 5661,
      "navel": 5662,
      "soba": 5663,
      "imple": 5664,
      "ick": 5665,
      "goose": 5666,
      "##ussel": 5667,
      "dividing": 5668,
      "macaroons": 5669,
      "garni": 5670,
      "meyer": 5671,
      "clust": 5672,
      "seasons": 5673,
      "##iri": 5674,
      "suggested": 5675,
      "##pat": 5676,
      "http": 5677,
      "uncle": 5678,
      "farf": 5679,
      "network": 5680,
      "nachos": 5681,
      "sauteing": 5682,
      "kick": 5683,
      "show": 5684,
      "izz": 5685,
      "##stone": 5686,
      "peeling": 5687,
      "wieners": 5688,
      "mediterranean": 5689,
      "piced": 5690,
      "indic": 5691,
      "##peh": 5692,
      "conve": 5693,
      "180u00b0c": 5694,
      "vitamin": 5695,
      "##del": 5696,
      "pad": 5697,
      "hr": 5698,
      "palms": 5699,
      "grab": 5700,
      "dul": 5701,
      "pep": 5702,
      "##ros": 5703,
      "fresco": 5704,
      "##eak": 5705,
      "edible": 5706,
      "##bing": 5707,
      "comfort": 5708,
      "jim": 5709,
      "leche": 5710,
      "say": 5711,
      "scorching": 5712,
      "donuts": 5713,
      "arlic": 5714,
      "twists": 5715,
      "##arina": 5716,
      "##lin": 5717,
      "##gas": 5718,
      "bob": 5719,
      "precooked": 5720,
      "rocks": 5721,
      "kum": 5722,
      "tasting": 5723,
      "carbohydrates": 5724,
      "rut": 5725,
      "packaged": 5726,
      "devein": 5727,
      "##dger": 5728,
      "##izer": 5729,
      "tied": 5730,
      "therefore": 5731,
      "chiffonade": 5732,
      "amb": 5733,
      "##gi": 5734,
      "miss": 5735,
      "##lied": 5736,
      "convection": 5737,
      "skimming": 5738,
      "randma": 5739,
      "catal": 5740,
      "blossoms": 5741,
      "strea": 5742,
      "tempeh": 5743,
      "ct": 5744,
      "##ci": 5745,
      "aunt": 5746,
      "blot": 5747,
      "##ais": 5748,
      "breaded": 5749,
      "chilling": 5750,
      "spear": 5751,
      "croquettes": 5752,
      "230": 5753,
      "quantity": 5754,
      "reduction": 5755,
      "lastly": 5756,
      "fruity": 5757,
      "petals": 5758,
      "timer": 5759,
      "##ners": 5760,
      "joes": 5761,
      "sizes": 5762,
      "jerk": 5763,
      "upon": 5764,
      "group": 5765,
      "submerged": 5766,
      "hocks": 5767,
      "##icial": 5768,
      "dollops": 5769,
      "pom": 5770,
      "infuse": 5771,
      "lighter": 5772,
      "mahi": 5773,
      "##ousand": 5774,
      "chimich": 5775,
      "snick": 5776,
      "artif": 5777,
      "105": 5778,
      "normal": 5779,
      "easiest": 5780,
      "lose": 5781,
      "briskly": 5782,
      "prune": 5783,
      "fix": 5784,
      "##aid": 5785,
      "rustic": 5786,
      "flavorful": 5787,
      "kraut": 5788,
      "pum": 5789,
      "slash": 5790,
      "##aded": 5791,
      "philly": 5792,
      "calamari": 5793,
      "epper": 5794,
      "##kfast": 5795,
      "mashing": 5796,
      "bigger": 5797,
      "mother": 5798,
      "##acho": 5799,
      "bear": 5800,
      "bull": 5801,
      "started": 5802,
      "crema": 5803,
      "roots": 5804,
      "stewing": 5805,
      "2nd": 5806,
      "settle": 5807,
      "##wood": 5808,
      "rutabag": 5809,
      "sprite": 5810,
      "mid": 5811,
      "refridger": 5812,
      "tamales": 5813,
      "bagg": 5814,
      "braising": 5815,
      "##rowave": 5816,
      "exactly": 5817,
      "forget": 5818,
      "tines": 5819,
      "reakfast": 5820,
      "ugar": 5821,
      "pric": 5822,
      "mould": 5823,
      "result": 5824,
      "hadd": 5825,
      "shoe": 5826,
      "usda": 5827,
      "sult": 5828,
      "spam": 5829,
      "deluxe": 5830,
      "##oulade": 5831,
      "profess": 5832,
      "##ickel": 5833,
      "lifting": 5834,
      "hollandaise": 5835,
      "arinated": 5836,
      "braid": 5837,
      "##icky": 5838,
      "draft": 5839,
      "spritz": 5840,
      "soupy": 5841,
      "quash": 5842,
      "claw": 5843,
      "##uting": 5844,
      "gh": 5845,
      "hol": 5846,
      "reactive": 5847,
      "blister": 5848,
      "sunda": 5849,
      "##ha": 5850,
      "sole": 5851,
      "regularly": 5852,
      "##venly": 5853,
      "knox": 5854,
      "##greek": 5855,
      "dollar": 5856,
      "live": 5857,
      "pastries": 5858,
      "brunch": 5859,
      "feels": 5860,
      "slab": 5861,
      "granular": 5862,
      "clump": 5863,
      "mist": 5864,
      "personal": 5865,
      "aspberry": 5866,
      "exposed": 5867,
      "lmond": 5868,
      "##iper": 5869,
      "ways": 5870,
      "faster": 5871,
      "haddock": 5872,
      "##iful": 5873,
      "cause": 5874,
      "professional": 5875,
      "favour": 5876,
      "komb": 5877,
      "saran": 5878,
      "thousand": 5879,
      "##40": 5880,
      "others": 5881,
      "whisked": 5882,
      "##isc": 5883,
      "friend": 5884,
      "##ugreek": 5885,
      "##vest": 5886,
      "doughnut": 5887,
      "##markets": 5888,
      "unfold": 5889,
      "wontons": 5890,
      "garnishing": 5891,
      "coke": 5892,
      "supermarkets": 5893,
      "##iously": 5894,
      "artificial": 5895,
      "direction": 5896,
      "matcha": 5897,
      "fail": 5898,
      "fift": 5899,
      "##edding": 5900,
      "eighths": 5901,
      "game": 5902,
      "##dew": 5903,
      "fenugreek": 5904,
      "aj": 5905,
      "measured": 5906,
      "360": 5907,
      "dulce": 5908,
      "partners": 5909,
      "supper": 5910,
      "##merc": 5911,
      "0g": 5912,
      "catalina": 5913,
      "ult": 5914,
      "birds": 5915,
      "arbecue": 5916,
      "##lb": 5917,
      "changes": 5918,
      "simmers": 5919,
      "mincemeat": 5920,
      "juniper": 5921,
      "pulling": 5922,
      "##x7": 5923,
      "##pie": 5924,
      "icrowave": 5925,
      "myrecipes": 5926,
      "commerc": 5927,
      "design": 5928,
      "##ignon": 5929,
      "cornish": 5930,
      "runs": 5931,
      "##pacho": 5932,
      "##entine": 5933,
      "partnership": 5934,
      "calc": 5935,
      "ras": 5936,
      "##no": 5937,
      "silken": 5938,
      "nd": 5939,
      "##where": 5940,
      "dil": 5941,
      "myplate": 5942,
      "depend": 5943,
      "simmered": 5944,
      "trove": 5945,
      "millet": 5946,
      "kitchenaid": 5947,
      "unless": 5948,
      "##house": 5949,
      "mandoline": 5950,
      "##topus": 5951,
      "quesadilla": 5952,
      "ing": 5953,
      "shakes": 5954,
      "favourite": 5955,
      "tapen": 5956,
      "spooning": 5957,
      "untill": 5958,
      "shucked": 5959,
      "world": 5960,
      "shortcake": 5961,
      "lovely": 5962,
      "supp": 5963,
      "silpat": 5964,
      "##oise": 5965,
      "fajita": 5966,
      "linguini": 5967,
      "##anas": 5968,
      "contains": 5969,
      "240": 5970,
      "tapenade": 5971,
      "##ends": 5972,
      "##pern": 5973,
      "tus": 5974,
      "pricot": 5975,
      "##oya": 5976,
      "blond": 5977,
      "rozen": 5978,
      "braise": 5979,
      "strings": 5980,
      "amburger": 5981,
      "alth": 5982,
      "saltines": 5983,
      "izza": 5984,
      "ana": 5985,
      "hy": 5986,
      "bringing": 5987,
      "madeira": 5988,
      "##ani": 5989,
      "trying": 5990,
      "burnt": 5991,
      "golf": 5992,
      "##cut": 5993,
      "john": 5994,
      "processing": 5995,
      "purchased": 5996,
      "war": 5997,
      "##anos": 5998,
      "bib": 5999,
      "##tip": 6000,
      "300u00b0f": 6001,
      "husk": 6002,
      "##itan": 6003,
      "honeydew": 6004,
      "sundried": 6005,
      "octopus": 6006,
      "specialty": 6007,
      "fusilli": 6008,
      "york": 6009,
      "mugs": 6010,
      "although": 6011,
      "medley": 6012,
      "released": 6013,
      "##ades": 6014,
      "ate": 6015,
      "cresc": 6016,
      "pits": 6017,
      "##ga": 6018,
      "produce": 6019,
      "poaching": 6020,
      "breakstone": 6021,
      "hardened": 6022,
      "dev": 6023,
      "nam": 6024,
      "neut": 6025,
      "##nam": 6026,
      "rainbow": 6027,
      "##eather": 6028,
      "##13": 6029,
      "##lower": 6030,
      "##liced": 6031,
      "canner": 6032,
      "kaff": 6033,
      "liner": 6034,
      "uses": 6035,
      "farfalle": 6036,
      "##space": 6037,
      "grinds": 6038,
      "bonito": 6039,
      "empan": 6040,
      "ater": 6041,
      "##ield": 6042,
      "spelt": 6043,
      "play": 6044,
      "##easoned": 6045,
      "##fruit": 6046,
      "##pernickel": 6047,
      "skirt": 6048,
      "sprout": 6049,
      "smoothing": 6050,
      "feet": 6051,
      "ushroom": 6052,
      "crescents": 6053,
      "darker": 6054,
      "tuscan": 6055,
      "neutral": 6056,
      "broiling": 6057,
      "secret": 6058,
      "resting": 6059,
      "yam": 6060,
      "repres": 6061,
      "af": 6062,
      "cab": 6063,
      "##mins": 6064,
      "beautiful": 6065,
      "dur": 6066,
      "breadsticks": 6067,
      "kombu": 6068,
      "ini": 6069,
      "shiso": 6070,
      "croissants": 6071,
      "glace": 6072,
      "selt": 6073,
      "included": 6074,
      "##15": 6075,
      "solution": 6076,
      "stout": 6077,
      "clusters": 6078,
      "seltzer": 6079,
      "peak": 6080,
      "39": 6081,
      "breading": 6082,
      "##pepper": 6083,
      "##tens": 6084,
      "##ados": 6085,
      "110u00b0": 6086,
      "emeril": 6087,
      "##hi": 6088,
      "##nic": 6089,
      "liters": 6090,
      "resid": 6091,
      "suggest": 6092,
      "cow": 6093,
      "knuds": 6094,
      "shaping": 6095,
      "bundles": 6096,
      "baile": 6097,
      "safflower": 6098,
      "pats": 6099,
      "##ob": 6100,
      "usual": 6101,
      "icebox": 6102,
      "bisque": 6103,
      "lic": 6104,
      "bakes": 6105,
      "##x3": 6106,
      "marked": 6107,
      "grade": 6108,
      "##etnam": 6109,
      "fillings": 6110,
      "curl": 6111,
      "tubes": 6112,
      "kaffir": 6113,
      "gallons": 6114,
      "##isee": 6115,
      "rewarm": 6116,
      "handled": 6117,
      "##inis": 6118,
      "pumpernickel": 6119,
      "knudsen": 6120,
      "famous": 6121,
      "dredging": 6122,
      "##ucing": 6123,
      "curly": 6124,
      "muddle": 6125,
      "kitchens": 6126,
      "shrink": 6127,
      "butterfly": 6128,
      "incre": 6129,
      "moons": 6130,
      "nest": 6131,
      "rispy": 6132,
      "snacks": 6133,
      "##acker": 6134,
      "tried": 6135,
      "waiting": 6136,
      "tapped": 6137,
      "##ific": 6138,
      "brat": 6139,
      "##bsp": 6140,
      "louisiana": 6141,
      "hope": 6142,
      "stur": 6143,
      "##14": 6144,
      "abb": 6145,
      "commercial": 6146,
      "##iled": 6147,
      "##inness": 6148,
      "poup": 6149,
      "##board": 6150,
      "rump": 6151,
      "funnel": 6152,
      "shave": 6153,
      "poured": 6154,
      "##py": 6155,
      "unseasoned": 6156,
      "37": 6157,
      "poupon": 6158,
      "massage": 6159,
      "##etnamese": 6160,
      "took": 6161,
      "piecrust": 6162,
      "##king": 6163,
      "falls": 6164,
      "##andel": 6165,
      "hai": 6166,
      "roy": 6167,
      "##pany": 6168,
      "cones": 6169,
      "carbonated": 6170,
      "surfaces": 6171,
      "strokes": 6172,
      "popsicle": 6173,
      "chall": 6174,
      "mind": 6175,
      "diabetic": 6176,
      "mont": 6177,
      "tint": 6178,
      "pinching": 6179,
      "sel": 6180,
      "##nay": 6181,
      "uttermilk": 6182,
      "progr": 6183,
      "passing": 6184,
      "directs": 6185,
      "fondant": 6186,
      "##inch": 6187,
      "belgian": 6188,
      "tree": 6189,
      "loses": 6190,
      "wisk": 6191,
      "##aroni": 6192,
      "twenty": 6193,
      "kirsch": 6194,
      "diffic": 6195,
      "market": 6196,
      "trial": 6197,
      "ish": 6198,
      "immer": 6199,
      "caper": 6200,
      "sweeter": 6201,
      "crocker": 6202,
      "higher": 6203,
      "sounds": 6204,
      "##eri": 6205,
      "ly": 6206,
      "##ights": 6207,
      "testing": 6208,
      "chocolates": 6209,
      "exper": 6210,
      "diluted": 6211,
      "##po": 6212,
      "jamb": 6213,
      "gaz": 6214,
      "petite": 6215,
      "ge": 6216,
      "mad": 6217,
      "aren": 6218,
      "dilute": 6219,
      "broccol": 6220,
      "sardines": 6221,
      "##dded": 6222,
      "wilts": 6223,
      "##ense": 6224,
      "defl": 6225,
      "jus": 6226,
      "##atz": 6227,
      "cheeseburger": 6228,
      "erman": 6229,
      "licor": 6230,
      "ummer": 6231,
      "outh": 6232,
      "mason": 6233,
      "pig": 6234,
      "pepitas": 6235,
      "headspace": 6236,
      "chunked": 6237,
      "idea": 6238,
      "watery": 6239,
      "hint": 6240,
      "believe": 6241,
      "courget": 6242,
      "tadd": 6243,
      "reek": 6244,
      "tz": 6245,
      "pinwheels": 6246,
      "gazpacho": 6247,
      "cle": 6248,
      "##itely": 6249,
      "sugared": 6250,
      "dressed": 6251,
      "##fur": 6252,
      "menthe": 6253,
      "##rone": 6254,
      "flavours": 6255,
      "coca": 6256,
      "wan": 6257,
      "es": 6258,
      "terr": 6259,
      "storing": 6260,
      "##oped": 6261,
      "containing": 6262,
      "sealable": 6263,
      "scum": 6264,
      "nine": 6265,
      "##ract": 6266,
      "swedish": 6267,
      "##alaya": 6268,
      "congealed": 6269,
      "watching": 6270,
      "gingersnaps": 6271,
      "roqu": 6272,
      "dom": 6273,
      "11x7": 6274,
      "bic": 6275,
      "##inted": 6276,
      "##ipan": 6277,
      "moroccan": 6278,
      "essent": 6279,
      "200u00b0": 6280,
      "##eans": 6281,
      "foot": 6282,
      "##vre": 6283,
      "butterflied": 6284,
      "microwa": 6285,
      "paella": 6286,
      "##initely": 6287,
      "increments": 6288,
      "gray": 6289,
      "matter": 6290,
      "representation": 6291,
      "alone": 6292,
      "oxtail": 6293,
      "allows": 6294,
      "##aho": 6295,
      "coming": 6296,
      "moment": 6297,
      "prim": 6298,
      "yes": 6299,
      "scraper": 6300,
      "periodically": 6301,
      "peek": 6302,
      "##atziki": 6303,
      "achieved": 6304,
      "ealth": 6305,
      "swans": 6306,
      "early": 6307,
      "cutlet": 6308,
      "scr": 6309,
      "##ilian": 6310,
      "amazing": 6311,
      "##hind": 6312,
      "mochi": 6313,
      "1st": 6314,
      "##ppies": 6315,
      "tablespoonful": 6316,
      "##efort": 6317,
      "##gria": 6318,
      "##held": 6319,
      "jambalaya": 6320,
      "hinese": 6321,
      "cornflake": 6322,
      "##imin": 6323,
      "doesnt": 6324,
      "colada": 6325,
      "opt": 6326,
      "premium": 6327,
      "handheld": 6328,
      "ease": 6329,
      "chai": 6330,
      "pare": 6331,
      "friends": 6332,
      "homog": 6333,
      "##cer": 6334,
      "##ucky": 6335,
      "700": 6336,
      "##estrone": 6337,
      "##grain": 6338,
      "##osing": 6339,
      "goul": 6340,
      "##ridge": 6341,
      "urried": 6342,
      "##heim": 6343,
      "whey": 6344,
      "wrapping": 6345,
      "unwra": 6346,
      "sparagus": 6347,
      "##line": 6348,
      "##kee": 6349,
      "160c": 6350,
      "##urri": 6351,
      "wip": 6352,
      "clou": 6353,
      "##esome": 6354,
      "reducing": 6355,
      "adjusting": 6356,
      "goulash": 6357,
      "##mb": 6358,
      "cracks": 6359,
      "jellyroll": 6360,
      "chess": 6361,
      "idaho": 6362,
      "licorice": 6363,
      "##lek": 6364,
      "800": 6365,
      "sweeten": 6366,
      "##balls": 6367,
      "zi": 6368,
      "washing": 6369,
      "condiments": 6370,
      "115u00b0": 6371,
      "fajitas": 6372,
      "##ished": 6373,
      "spic": 6374,
      "reese": 6375,
      "##bble": 6376,
      "cheer": 6377,
      "bibb": 6378,
      "gy": 6379,
      "carmel": 6380,
      "tell": 6381,
      "##giving": 6382,
      "##asse": 6383,
      "resist": 6384,
      "moked": 6385,
      "##ex": 6386,
      "giant": 6387,
      "list": 6388,
      "indicated": 6389,
      "rubbing": 6390,
      "##lemon": 6391,
      "presentation": 6392,
      "grates": 6393,
      "sumac": 6394,
      "desc": 6395,
      "acaroni": 6396,
      "shown": 6397,
      "pots": 6398,
      "says": 6399,
      "##vers": 6400,
      "discs": 6401,
      "runch": 6402,
      "burners": 6403,
      "grit": 6404,
      "flam": 6405,
      "expand": 6406,
      "ock": 6407,
      "shrim": 6408,
      "bare": 6409,
      "##icc": 6410,
      "anaheim": 6411,
      "lengthways": 6412,
      "orl": 6413,
      "forth": 6414,
      "curdle": 6415,
      "shut": 6416,
      "##hal": 6417,
      "drinking": 6418,
      "marzipan": 6419,
      "strudel": 6420,
      "mung": 6421,
      "gingersnap": 6422,
      "##ati": 6423,
      "glue": 6424,
      "curds": 6425,
      "spooned": 6426,
      "crown": 6427,
      "alternative": 6428,
      "udon": 6429,
      "##ox": 6430,
      "giving": 6431,
      "puddings": 6432,
      "scaled": 6433,
      "##urized": 6434,
      "frankfur": 6435,
      "pon": 6436,
      "skimmed": 6437,
      "bratwurst": 6438,
      "difficult": 6439,
      "soybean": 6440,
      "hoag": 6441,
      "aple": 6442,
      "roquefort": 6443,
      "##imal": 6444,
      "calls": 6445,
      "##othing": 6446,
      "picture": 6447,
      "oelek": 6448,
      "orleans": 6449,
      "perfor": 6450,
      "indent": 6451,
      "content": 6452,
      "oh": 6453,
      "##isins": 6454,
      "2g": 6455,
      "terrine": 6456,
      "sturdy": 6457,
      "##ience": 6458,
      "tony": 6459,
      "tzatziki": 6460,
      "challah": 6461,
      "##kish": 6462,
      "row": 6463,
      "##lot": 6464,
      "##iew": 6465,
      "ew": 6466,
      "##book": 6467,
      "everyone": 6468,
      "guinness": 6469,
      "thanks": 6470,
      "clement": 6471,
      "##olds": 6472,
      "frisee": 6473,
      "childr": 6474,
      "ig": 6475,
      "decoratively": 6476,
      "##ict": 6477,
      "colle": 6478,
      "ferment": 6479,
      "twel": 6480,
      "larg": 6481,
      "chipotles": 6482,
      "##isu": 6483,
      "hu": 6484,
      "tucking": 6485,
      "behind": 6486,
      "##va": 6487,
      "##foil": 6488,
      "lond": 6489,
      "##iesta": 6490,
      "heats": 6491,
      "accordingly": 6492,
      "fleur": 6493,
      "earth": 6494,
      "separating": 6495,
      "##ras": 6496,
      "##ossible": 6497,
      "shank": 6498,
      "##icular": 6499,
      "shrimps": 6500,
      "partly": 6501,
      "hamburgers": 6502,
      "suc": 6503,
      "##chego": 6504,
      "agar": 6505,
      "thickening": 6506,
      "crissc": 6507,
      "chopper": 6508,
      "having": 6509,
      "flex": 6510,
      "children": 6511,
      "papers": 6512,
      "uper": 6513,
      "unwrapped": 6514,
      "sian": 6515,
      "broccolini": 6516,
      "harina": 6517,
      "tupper": 6518,
      "abbage": 6519,
      "sultanas": 6520,
      "##ending": 6521,
      "twelve": 6522,
      "hunt": 6523,
      "fiesta": 6524,
      "ou": 6525,
      "chanter": 6526,
      "tenderness": 6527,
      "park": 6528,
      "reyn": 6529,
      "##ption": 6530,
      "##dor": 6531,
      "sangria": 6532,
      "##zle": 6533,
      "##fts": 6534,
      "meet": 6535,
      "shaken": 6536,
      "rutabaga": 6537,
      "##yl": 6538,
      "cheesecakes": 6539,
      "sits": 6540,
      "manchego": 6541,
      "##ni": 6542,
      "aff": 6543,
      "##ppi": 6544,
      "obtain": 6545,
      "matchstick": 6546,
      "eg": 6547,
      "gumdro": 6548,
      "strata": 6549,
      "drap": 6550,
      "1g": 6551,
      "##jack": 6552,
      "pulsing": 6553,
      "subsides": 6554,
      "handling": 6555,
      "harvest": 6556,
      "shouldn": 6557,
      "slushy": 6558,
      "mount": 6559,
      "skil": 6560,
      "danish": 6561,
      "var": 6562,
      "##iders": 6563,
      "##wards": 6564,
      "chimichurri": 6565,
      "deflate": 6566,
      "dispos": 6567,
      "carc": 6568,
      "hristmas": 6569,
      "##well": 6570,
      "##uble": 6571,
      "##lea": 6572,
      "boys": 6573,
      "saucy": 6574,
      "confit": 6575,
      "##ples": 6576,
      "entirely": 6577,
      "tupperware": 6578,
      "nothing": 6579,
      "poll": 6580,
      "calz": 6581,
      "foaming": 6582,
      "overbeat": 6583,
      "##estive": 6584,
      "vents": 6585,
      "##gry": 6586,
      "spa": 6587,
      "splatter": 6588,
      "means": 6589,
      "hubarb": 6590,
      "hit": 6591,
      "##x12": 6592,
      "kumqu": 6593,
      "pkgs": 6594,
      "beetroot": 6595,
      "paneer": 6596,
      "##iger": 6597,
      "calcium": 6598,
      "stars": 6599,
      "tenderizer": 6600,
      "doubles": 6601,
      "##back": 6602,
      "asic": 6603,
      "bod": 6604,
      "softer": 6605,
      "##uk": 6606,
      "bologna": 6607,
      "descri": 6608,
      "kais": 6609,
      "approximate": 6610,
      "resi": 6611,
      "##imeter": 6612,
      "pepperoncini": 6613,
      "##erve": 6614,
      "perforations": 6615,
      "durkee": 6616,
      "wanted": 6617,
      "extending": 6618,
      "concentrated": 6619,
      "goya": 6620,
      "crisscross": 6621,
      "##0u00b0c": 6622,
      "sauv": 6623,
      "cotta": 6624,
      "extrem": 6625,
      "happy": 6626,
      "##ement": 6627,
      "rinds": 6628,
      "sectioned": 6629,
      "##eriac": 6630,
      "##hentic": 6631,
      "shep": 6632,
      "pierog": 6633,
      "mints": 6634,
      "reynolds": 6635,
      "199": 6636,
      "throughly": 6637,
      "ecl": 6638,
      "types": 6639,
      "##nese": 6640,
      "highest": 6641,
      "sizzles": 6642,
      "nutrition": 6643,
      "frang": 6644,
      "insp": 6645,
      "desicc": 6646,
      "refrigerat": 6647,
      "puppies": 6648,
      "##gel": 6649,
      "tre": 6650,
      "springy": 6651,
      "age": 6652,
      "conven": 6653,
      "shears": 6654,
      "deer": 6655,
      "impro": 6656,
      "sauvignon": 6657,
      "juic": 6658,
      "elimin": 6659,
      "classico": 6660,
      "life": 6661,
      "craisins": 6662,
      "##emp": 6663,
      "os": 6664,
      "stays": 6665,
      "extremely": 6666,
      "desiccated": 6667,
      "royal": 6668,
      "vietnamese": 6669,
      "southwest": 6670,
      "ouble": 6671,
      "dehydrated": 6672,
      "kaiser": 6673,
      "boat": 6674,
      "ruby": 6675,
      "spaced": 6676,
      "burned": 6677,
      "3g": 6678,
      "##att": 6679,
      "##ica": 6680,
      "bonnet": 6681,
      "text": 6682,
      "blocks": 6683,
      "sundae": 6684,
      "disposable": 6685,
      "340": 6686,
      "eclair": 6687,
      "handles": 6688,
      "hardens": 6689,
      "cartons": 6690,
      "pulses": 6691,
      "##tha": 6692,
      "skillets": 6693,
      "absol": 6694,
      "olid": 6695,
      "rocket": 6696,
      "force": 6697,
      "youll": 6698,
      "##cco": 6699,
      "heaped": 6700,
      "celeriac": 6701,
      "31": 6702,
      "popping": 6703,
      "capac": 6704,
      "oliday": 6705,
      "dean": 6706,
      "##inkle": 6707,
      "picnic": 6708,
      "baguettes": 6709,
      "##ugu": 6710,
      "##30": 6711,
      "ricer": 6712,
      "countertop": 6713,
      "##umn": 6714,
      "macker": 6715,
      "cavities": 6716,
      "plank": 6717,
      "willi": 6718,
      "roni": 6719,
      "anilla": 6720,
      "highball": 6721,
      "panna": 6722,
      "joint": 6723,
      "alt": 6724,
      "granita": 6725,
      "broad": 6726,
      "normally": 6727,
      "arbol": 6728,
      "horm": 6729,
      "##arbon": 6730,
      "minestrone": 6731,
      "##anged": 6732,
      "##herd": 6733,
      "ign": 6734,
      "ropes": 6735,
      "64": 6736,
      "ep": 6737,
      "capacity": 6738,
      "cell": 6739,
      "mc": 6740,
      "rehydr": 6741,
      "shir": 6742,
      "baller": 6743,
      "ealthy": 6744,
      "joy": 6745,
      "jale": 6746,
      "pinot": 6747,
      "sze": 6748,
      "coti": 6749,
      "tinfoil": 6750,
      "##stit": 6751,
      "##ghum": 6752,
      "proportions": 6753,
      "wind": 6754,
      "mole": 6755,
      "chic": 6756,
      "##imi": 6757,
      "gummy": 6758,
      "##arbonate": 6759,
      "post": 6760,
      "naturally": 6761,
      "swanson": 6762,
      "mexico": 6763,
      "170c": 6764,
      "bands": 6765,
      "pina": 6766,
      "##cat": 6767,
      "avory": 6768,
      "kon": 6769,
      "chardon": 6770,
      "refer": 6771,
      "carne": 6772,
      "##ena": 6773,
      "consider": 6774,
      "roe": 6775,
      "snug": 6776,
      "stacks": 6777,
      "smoothly": 6778,
      "lining": 6779,
      "cotija": 6780,
      "##not": 6781,
      "##minutes": 6782,
      "##garine": 6783,
      "hoagie": 6784,
      "gizz": 6785,
      "offee": 6786,
      "southwestern": 6787,
      "jimmy": 6788,
      "5cm": 6789,
      "blistered": 6790,
      "##uguese": 6791,
      "turnovers": 6792,
      "nond": 6793,
      "fal": 6794,
      "choc": 6795,
      "##sin": 6796,
      "##chopped": 6797,
      "hormel": 6798,
      "donut": 6799,
      "##sugar": 6800,
      "##enster": 6801,
      "bolognese": 6802,
      "bicarbonate": 6803,
      "tempura": 6804,
      "mackerel": 6805,
      "monkey": 6806,
      "trick": 6807,
      "assembling": 6808,
      "claws": 6809,
      "##mings": 6810,
      "porridge": 6811,
      "gochu": 6812,
      "qts": 6813,
      "knob": 6814,
      "enc": 6815,
      "cupfuls": 6816,
      "malted": 6817,
      "company": 6818,
      "lassic": 6819,
      "##apes": 6820,
      "sorghum": 6821,
      "##jang": 6822,
      "replac": 6823,
      "ener": 6824,
      "galette": 6825,
      "##aican": 6826,
      "smother": 6827,
      "##brown": 6828,
      "mock": 6829,
      "##cover": 6830,
      "delicate": 6831,
      "nondairy": 6832,
      "egan": 6833,
      "soap": 6834,
      "muenster": 6835,
      "cheerios": 6836,
      "calloped": 6837,
      "gift": 6838,
      "master": 6839,
      "custards": 6840,
      "trimmings": 6841,
      "ultimate": 6842,
      "##ugel": 6843,
      "crisped": 6844,
      "chardonnay": 6845,
      "share": 6846,
      "exas": 6847,
      "flexible": 6848,
      "fettucine": 6849,
      "##uns": 6850,
      "ensuring": 6851,
      "hass": 6852,
      "6oz": 6853,
      "local": 6854,
      "##plant": 6855,
      "##tl": 6856,
      "tum": 6857,
      "poor": 6858,
      "100g": 6859,
      "why": 6860,
      "cookbook": 6861,
      "eyeball": 6862,
      "##cchi": 6863,
      "##18": 6864,
      "stops": 6865,
      "turkish": 6866,
      "##acky": 6867,
      "essential": 6868,
      "slee": 6869,
      "bad": 6870,
      "##etida": 6871,
      "916": 6872,
      "streaks": 6873,
      "suggestions": 6874,
      "awesome": 6875,
      "prawn": 6876,
      "rer": 6877,
      "##real": 6878,
      "guava": 6879,
      "savoy": 6880,
      "##ako": 6881,
      "pourable": 6882,
      "picks": 6883,
      "dan": 6884,
      "##color": 6885,
      "ferm": 6886,
      "outhern": 6887,
      "ucumber": 6888,
      "##ient": 6889,
      "absorbent": 6890,
      "##ppa": 6891,
      "sign": 6892,
      "phe": 6893,
      "##fry": 6894,
      "deeply": 6895,
      "jalep": 6896,
      "gala": 6897,
      "##oumi": 6898,
      "##ther": 6899,
      "fingerling": 6900,
      "brulee": 6901,
      "arty": 6902,
      "lighten": 6903,
      "mit": 6904,
      "oo": 6905,
      "##high": 6906,
      "quaker": 6907,
      "carib": 6908,
      "asaf": 6909,
      "42": 6910,
      "ix": 6911,
      "##embled": 6912,
      "demer": 6913,
      "##ku": 6914,
      "##ires": 6915,
      "##atto": 6916,
      "husked": 6917,
      "aka": 6918,
      "trimming": 6919,
      "citron": 6920,
      "particles": 6921,
      "peper": 6922,
      "pheas": 6923,
      "knock": 6924,
      "whit": 6925,
      "blan": 6926,
      "slicer": 6927,
      "pasteurized": 6928,
      "preb": 6929,
      "##bb": 6930,
      "5oz": 6931,
      "copy": 6932,
      "mign": 6933,
      "reroll": 6934,
      "ake": 6935,
      "##mol": 6936,
      "canes": 6937,
      "arranging": 6938,
      "##hell": 6939,
      "cuban": 6940,
      "ru": 6941,
      "##ths": 6942,
      "kinds": 6943,
      "hall": 6944,
      "taken": 6945,
      "za": 6946,
      "##pri": 6947,
      "##dgy": 6948,
      "blitz": 6949,
      "lor": 6950,
      "cheap": 6951,
      "hotter": 6952,
      "##ister": 6953,
      "hungry": 6954,
      "baggie": 6955,
      "uff": 6956,
      "##eli": 6957,
      "##boy": 6958,
      "tbsps": 6959,
      "ponzu": 6960,
      "mud": 6961,
      "decorations": 6962,
      "london": 6963,
      "##elles": 6964,
      "handy": 6965,
      "ef": 6966,
      "hull": 6967,
      "tamale": 6968,
      "mountain": 6969,
      "4g": 6970,
      "guide": 6971,
      "wea": 6972,
      "##icots": 6973,
      "glut": 6974,
      "##fr": 6975,
      "forest": 6976,
      "##wa": 6977,
      "theyre": 6978,
      "tartlets": 6979,
      "peg": 6980,
      "latkes": 6981,
      "cases": 6982,
      "brussel": 6983,
      "##0c": 6984,
      "##erate": 6985,
      "straws": 6986,
      "road": 6987,
      "##era": 6988,
      "##ancy": 6989,
      "scooped": 6990,
      "##dv": 6991,
      "assembled": 6992,
      "1cm": 6993,
      "require": 6994,
      "stren": 6995,
      "lac": 6996,
      "drape": 6997,
      "tilting": 6998,
      "fut": 6999,
      "angost": 7000,
      "##aver": 7001,
      "minus": 7002,
      "ood": 7003,
      "carcass": 7004,
      "completed": 7005,
      "##ject": 7006,
      "demerara": 7007,
      "attract": 7008,
      "marie": 7009,
      "verts": 7010,
      "500u00b0": 7011,
      "##dorf": 7012,
      "dol": 7013,
      "##off": 7014,
      "rev": 7015,
      "continually": 7016,
      "limon": 7017,
      "ink": 7018,
      "4oz": 7019,
      "56": 7020,
      "angostura": 7021,
      "nectarine": 7022,
      "tiram": 7023,
      "##ghorn": 7024,
      "darken": 7025,
      "runchy": 7026,
      "coul": 7027,
      "ms": 7028,
      "rt": 7029,
      "##ital": 7030,
      "farms": 7031,
      "refridgerate": 7032,
      "##oori": 7033,
      "thirty": 7034,
      "##enos": 7035,
      "chevre": 7036,
      "eaf": 7037,
      "poblanos": 7038,
      "spider": 7039,
      "packs": 7040,
      "tagli": 7041,
      "recon": 7042,
      "ggplant": 7043,
      "##gate": 7044,
      "##erd": 7045,
      "ripened": 7046,
      "milky": 7047,
      "135": 7048,
      "carameliz": 7049,
      "##cello": 7050,
      "57": 7051,
      "toasting": 7052,
      "leafy": 7053,
      "wedding": 7054,
      "braz": 7055,
      "dense": 7056,
      "wrea": 7057,
      "##stir": 7058,
      "##ocado": 7059,
      "largest": 7060,
      "bloom": 7061,
      "thats": 7062,
      "loll": 7063,
      "drafts": 7064,
      "calv": 7065,
      "##ampi": 7066,
      "haricots": 7067,
      "empanadas": 7068,
      "##cel": 7069,
      "##the": 7070,
      "spe": 7071,
      "longhorn": 7072,
      "##acao": 7073,
      "croissant": 7074,
      "nose": 7075,
      "armesan": 7076,
      "hots": 7077,
      "##uccino": 7078,
      "ayer": 7079,
      "absolut": 7080,
      "##ups": 7081,
      "known": 7082,
      "pointed": 7083,
      "wont": 7084,
      "reconstit": 7085,
      "pub": 7086,
      "toasty": 7087,
      "bind": 7088,
      "caution": 7089,
      "##crow": 7090,
      "tiramisu": 7091,
      "##place": 7092,
      "resistant": 7093,
      "outhw": 7094,
      "cores": 7095,
      "gremol": 7096,
      "coulis": 7097,
      "lemony": 7098,
      "env": 7099,
      "exch": 7100,
      "155": 7101,
      "tet": 7102,
      "tomatoe": 7103,
      "hush": 7104,
      "##pa": 7105,
      "chopsticks": 7106,
      "crim": 7107,
      "scampi": 7108,
      "frankfurters": 7109,
      "##riger": 7110,
      "saltpepper": 7111,
      "poly": 7112,
      "fant": 7113,
      "jet": 7114,
      "##uan": 7115,
      "curacao": 7116,
      "hollowed": 7117,
      "zipper": 7118,
      "begun": 7119,
      "eliminate": 7120,
      "torch": 7121,
      "saved": 7122,
      "saucer": 7123,
      "##chuan": 7124,
      "md": 7125,
      "calvados": 7126,
      "preserve": 7127,
      "appropri": 7128,
      "worked": 7129,
      "future": 7130,
      "mama": 7131,
      "##low": 7132,
      "squirt": 7133,
      "ell": 7134,
      "immerse": 7135,
      "##oman": 7136,
      "deter": 7137,
      "ngel": 7138,
      "incorpor": 7139,
      "tand": 7140,
      "silky": 7141,
      "200u00b0c": 7142,
      "lollip": 7143,
      "squish": 7144,
      "overwork": 7145,
      "parmes": 7146,
      "elic": 7147,
      "##inny": 7148,
      "ild": 7149,
      "typ": 7150,
      "reason": 7151,
      "luten": 7152,
      "##di": 7153,
      "remoulade": 7154,
      "clay": 7155,
      "smart": 7156,
      "piqu": 7157,
      "sitting": 7158,
      "##ned": 7159,
      "ook": 7160,
      "sliders": 7161,
      "olden": 7162,
      "slather": 7163,
      "##uben": 7164,
      "overcrow": 7165,
      "##atore": 7166,
      "mangos": 7167,
      "trader": 7168,
      "due": 7169,
      "rtich": 7170,
      "##shine": 7171,
      "certain": 7172,
      "discolor": 7173,
      "fermented": 7174,
      "##ardi": 7175,
      "arbecued": 7176,
      "##erdood": 7177,
      "turtle": 7178,
      "maz": 7179,
      "thanksgiving": 7180,
      "##elloni": 7181,
      "authentic": 7182,
      "8x4": 7183,
      "strength": 7184,
      "##atelle": 7185,
      "##eye": 7186,
      "various": 7187,
      "gremolata": 7188,
      "combo": 7189,
      "ango": 7190,
      "grating": 7191,
      "tp": 7192,
      "morels": 7193,
      "vocado": 7194,
      "parfaits": 7195,
      "suitable": 7196,
      "pleas": 7197,
      "hav": 7198,
      "patting": 7199,
      "papp": 7200,
      "filtered": 7201,
      "hallow": 7202,
      "lazy": 7203,
      "##avera": 7204,
      "quince": 7205,
      "fifteen": 7206,
      "kash": 7207,
      "extend": 7208,
      "prose": 7209,
      "dropping": 7210,
      "##eric": 7211,
      "inspired": 7212,
      "1oz": 7213,
      "manufacturers": 7214,
      "##bac": 7215,
      "##rol": 7216,
      "satay": 7217,
      "ja": 7218,
      "sold": 7219,
      "##licky": 7220,
      "pla": 7221,
      "ragout": 7222,
      "success": 7223,
      "fa": 7224,
      "##ho": 7225,
      "coins": 7226,
      "##reg": 7227,
      "grinding": 7228,
      "##lier": 7229,
      "##into": 7230,
      "years": 7231,
      "watchers": 7232,
      "crazy": 7233,
      "##alt": 7234,
      "suet": 7235,
      "smoother": 7236,
      "montreal": 7237,
      "maldon": 7238,
      "pples": 7239,
      "ask": 7240,
      "likely": 7241,
      "ist": 7242,
      "##zon": 7243,
      "capp": 7244,
      "interior": 7245,
      "ayered": 7246,
      "##pples": 7247,
      "mignon": 7248,
      "prosecco": 7249,
      "pun": 7250,
      "##rich": 7251,
      "##atouille": 7252,
      "milksh": 7253,
      "trip": 7254,
      "primavera": 7255,
      "sett": 7256,
      "imported": 7257,
      "purposes": 7258,
      "ideally": 7259,
      "typically": 7260,
      "pulver": 7261,
      "shoot": 7262,
      "eafood": 7263,
      "inte": 7264,
      "alla": 7265,
      "collards": 7266,
      "caribbean": 7267,
      "jellied": 7268,
      "men": 7269,
      "tech": 7270,
      "dippers": 7271,
      "yuzu": 7272,
      "ort": 7273,
      "contact": 7274,
      "##ression": 7275,
      "##efish": 7276,
      "friendly": 7277,
      "lt": 7278,
      "shots": 7279,
      "prom": 7280,
      "tetra": 7281,
      "bento": 7282,
      "##etzle": 7283,
      "preheating": 7284,
      "##afel": 7285,
      "tumeric": 7286,
      "came": 7287,
      "divan": 7288,
      "eastern": 7289,
      "galang": 7290,
      "blog": 7291,
      "ratio": 7292,
      "##uv": 7293,
      "rite": 7294,
      "absorbs": 7295,
      "woody": 7296,
      "panish": 7297,
      "tongue": 7298,
      "fab": 7299,
      "difference": 7300,
      "ajar": 7301,
      "tru": 7302,
      "ickled": 7303,
      "utterscotch": 7304,
      "dir": 7305,
      "fruitcake": 7306,
      "worches": 7307,
      "##zzini": 7308,
      "dampened": 7309,
      "eer": 7310,
      "shellfish": 7311,
      "inverted": 7312,
      "messy": 7313,
      "twink": 7314,
      "particular": 7315,
      "boysen": 7316,
      "##acles": 7317,
      "shor": 7318,
      "ajun": 7319,
      "lazed": 7320,
      "auliflower": 7321,
      "##ase": 7322,
      "meatless": 7323,
      "melba": 7324,
      "##cil": 7325,
      "sofr": 7326,
      "faced": 7327,
      "accompany": 7328,
      "jud": 7329,
      "appearance": 7330,
      "gras": 7331,
      "crowding": 7332,
      "##rosia": 7333,
      "bus": 7334,
      "crouton": 7335,
      "tomatos": 7336,
      "ountry": 7337,
      "##together": 7338,
      "previous": 7339,
      "daily": 7340,
      "veins": 7341,
      "bosc": 7342,
      "##oyu": 7343,
      "geor": 7344,
      "sunday": 7345,
      "halloween": 7346,
      "72": 7347,
      "disappear": 7348,
      "warming": 7349,
      "nion": 7350,
      "##quite": 7351,
      "elicious": 7352,
      "##lett": 7353,
      "england": 7354,
      "cartil": 7355,
      "emulsify": 7356,
      "smells": 7357,
      "bruised": 7358,
      "unused": 7359,
      "pool": 7360,
      "sofrito": 7361,
      "##inity": 7362,
      "height": 7363,
      "tetrazzini": 7364,
      "compact": 7365,
      "200g": 7366,
      "hurry": 7367,
      "crisply": 7368,
      "prime": 7369,
      "t1": 7370,
      "spaetzle": 7371,
      "jamaican": 7372,
      "##ddy": 7373,
      "##inium": 7374,
      "ight": 7375,
      "mellow": 7376,
      "##lava": 7377,
      "ghir": 7378,
      "trace": 7379,
      "160f": 7380,
      "awaiian": 7381,
      "exam": 7382,
      "##rey": 7383,
      "rell": 7384,
      "bullion": 7385,
      "kef": 7386,
      "heavenly": 7387,
      "han": 7388,
      "control": 7389,
      "bloody": 7390,
      "hree": 7391,
      "shortcakes": 7392,
      "##nde": 7393,
      "flameproof": 7394,
      "his": 7395,
      "said": 7396,
      "realemon": 7397,
      "pralines": 7398,
      "snugly": 7399,
      "rtichoke": 7400,
      "substituting": 7401,
      "212": 7402,
      "6g": 7403,
      "ay": 7404,
      "##bi": 7405,
      "shepherd": 7406,
      "##des": 7407,
      "fettucini": 7408,
      "##cks": 7409,
      "cartilage": 7410,
      "gher": 7411,
      "florentine": 7412,
      "earty": 7413,
      "stil": 7414,
      "dribble": 7415,
      "##ellogg": 7416,
      "portuguese": 7417,
      "##uro": 7418,
      "crimini": 7419,
      "increa": 7420,
      "appetit": 7421,
      "snickers": 7422,
      "kellogg": 7423,
      "lam": 7424,
      "shoyu": 7425,
      "cacci": 7426,
      "seas": 7427,
      "v8": 7428,
      "piment": 7429,
      "erbed": 7430,
      "tagine": 7431,
      "lun": 7432,
      "##steak": 7433,
      "earlier": 7434,
      "sant": 7435,
      "##ref": 7436,
      "mayonaise": 7437,
      "crushing": 7438,
      "whil": 7439,
      "nicoise": 7440,
      "flavoured": 7441,
      "dirty": 7442,
      "ced": 7443,
      "20cm": 7444,
      "shimmers": 7445,
      "tagliatelle": 7446,
      "teak": 7447,
      "die": 7448,
      "toll": 7449,
      "vess": 7450,
      "cornich": 7451,
      "martha": 7452,
      "uss": 7453,
      "aluminium": 7454,
      "##band": 7455,
      "##arti": 7456,
      "##ude": 7457,
      "zucch": 7458,
      "##viche": 7459,
      "coloured": 7460,
      "shows": 7461,
      "##x8": 7462,
      "ina": 7463,
      "tentacles": 7464,
      "conver": 7465,
      "brushed": 7466,
      "pplesauce": 7467,
      "sauted": 7468,
      "wiss": 7469,
      "##ppo": 7470,
      "900": 7471,
      "sich": 7472,
      "serv": 7473,
      "7g": 7474,
      "galangal": 7475,
      "##hane": 7476,
      "shime": 7477,
      "ray": 7478,
      "##ives": 7479,
      "milnot": 7480,
      "enam": 7481,
      "##flour": 7482,
      "pheasant": 7483,
      "whether": 7484,
      "##margarine": 7485,
      "maximum": 7486,
      "din": 7487,
      "##mother": 7488,
      "##otic": 7489,
      "prevents": 7490,
      "##ichever": 7491,
      "##clun": 7492,
      "dam": 7493,
      "cardamon": 7494,
      "##garlic": 7495,
      "arils": 7496,
      "tempered": 7497,
      "cotton": 7498,
      "guaj": 7499,
      "mandolin": 7500,
      "orecchi": 7501,
      "seitan": 7502,
      "jerky": 7503,
      "##gen": 7504,
      "erb": 7505,
      "pace": 7506,
      "whichever": 7507,
      "sack": 7508,
      "ich": 7509,
      "mesclun": 7510,
      "mesquite": 7511,
      "limoncello": 7512,
      "carbonara": 7513,
      "paso": 7514,
      "neatly": 7515,
      "hip": 7516,
      "##oki": 7517,
      "carbs": 7518,
      "kumquats": 7519,
      "pinea": 7520,
      "progress": 7521,
      "gochujang": 7522,
      "stron": 7523,
      "##fully": 7524,
      "stands": 7525,
      "glazing": 7526,
      "sunny": 7527,
      "refreshing": 7528,
      "flames": 7529,
      "##hl": 7530,
      "pasty": 7531,
      "bart": 7532,
      "fuji": 7533,
      "vac": 7534,
      "alas": 7535,
      "ries": 7536,
      "##erts": 7537,
      "145u00b0": 7538,
      "alfal": 7539,
      "beau": 7540,
      "170u00b0": 7541,
      "gumdrops": 7542,
      "shimeji": 7543,
      "stronger": 7544,
      "220c": 7545,
      "bush": 7546,
      "avac": 7547,
      "orecchiette": 7548,
      "killet": 7549,
      "marbled": 7550,
      "tostadas": 7551,
      "thins": 7552,
      "##ophane": 7553,
      "fits": 7554,
      "disappears": 7555,
      "##tipast": 7556,
      "tt": 7557,
      "ime": 7558,
      "alfalfa": 7559,
      "inserting": 7560,
      "herring": 7561,
      "nor": 7562,
      "sichuan": 7563,
      "colouring": 7564,
      "textured": 7565,
      "##owing": 7566,
      "east": 7567,
      "monk": 7568,
      "dietary": 7569,
      "stones": 7570,
      "anch": 7571,
      "horizon": 7572,
      "cafe": 7573,
      "enameled": 7574,
      "hemp": 7575,
      "altogether": 7576,
      "smuck": 7577,
      "##agna": 7578,
      "##afing": 7579,
      "boy": 7580,
      "firmer": 7581,
      "2cm": 7582,
      "185": 7583,
      "##ulous": 7584,
      "##oxing": 7585,
      "appropriate": 7586,
      "havarti": 7587,
      "awhile": 7588,
      "coarsley": 7589,
      "rotary": 7590,
      "mazola": 7591,
      "aute": 7592,
      "name": 7593,
      "ignite": 7594,
      "cellophane": 7595,
      "trust": 7596,
      "##embert": 7597,
      "cacciatore": 7598,
      "shorter": 7599,
      "previously": 7600,
      "example": 7601,
      "cukes": 7602,
      "##ational": 7603,
      "caber": 7604,
      "hor": 7605,
      "shaoxing": 7606,
      "##350": 7607,
      "trail": 7608,
      "marzano": 7609,
      "##outs": 7610,
      "##ulate": 7611,
      "foams": 7612,
      "boats": 7613,
      "mores": 7614,
      "ais": 7615,
      "spare": 7616,
      "szechuan": 7617,
      "powders": 7618,
      "backbone": 7619,
      "striped": 7620,
      "incorporating": 7621,
      "##atini": 7622,
      "paralle": 7623,
      "whilst": 7624,
      "cabernet": 7625,
      "chafing": 7626,
      "44": 7627,
      "ive": 7628,
      "dunk": 7629,
      "onoff": 7630,
      "grouper": 7631,
      "##ela": 7632,
      "hill": 7633,
      "carob": 7634,
      "liquef": 7635,
      "##zarella": 7636,
      "##ardelle": 7637,
      "milkshake": 7638,
      "fudgy": 7639,
      "stilton": 7640,
      "desserts": 7641,
      "sic": 7642,
      "monte": 7643,
      "iss": 7644,
      "##itakes": 7645,
      "##jool": 7646,
      "butterfinger": 7647,
      "souffles": 7648,
      "ovens": 7649,
      "casseroles": 7650,
      "editerranean": 7651,
      "uniformly": 7652,
      "wiener": 7653,
      "persian": 7654,
      "udge": 7655,
      "comments": 7656,
      "passionfruit": 7657,
      "kugel": 7658,
      "##hire": 7659,
      "wells": 7660,
      "##accioli": 7661,
      "floret": 7662,
      "##estyle": 7663,
      "colorful": 7664,
      "slc": 7665,
      "riesling": 7666,
      "113": 7667,
      "dandel": 7668,
      "wear": 7669,
      "litre": 7670,
      "fizz": 7671,
      "##meats": 7672,
      "sazon": 7673,
      "250g": 7674,
      "tass": 7675,
      "fatty": 7676,
      "parallel": 7677,
      "potatos": 7678,
      "##oza": 7679,
      "bench": 7680,
      "##achet": 7681,
      "crispix": 7682,
      "flap": 7683,
      "beefsteak": 7684,
      "msg": 7685,
      "homogen": 7686,
      "huge": 7687,
      "geno": 7688,
      "foie": 7689,
      "##reeze": 7690,
      "swirls": 7691,
      "##oned": 7692,
      "##sel": 7693,
      "grahams": 7694,
      "pch": 7695,
      "notice": 7696,
      "residual": 7697,
      "cardboard": 7698,
      "relatively": 7699,
      "timing": 7700,
      "achi": 7701,
      "chamb": 7702,
      "wedish": 7703,
      "separates": 7704,
      "ie": 7705,
      "lag": 7706,
      "acidity": 7707,
      "festive": 7708,
      "allowed": 7709,
      "goodness": 7710,
      "burns": 7711,
      "falafel": 7712,
      "dampen": 7713,
      "micropl": 7714,
      "spicier": 7715,
      "spill": 7716,
      "anywhere": 7717,
      "du": 7718,
      "field": 7719,
      "tapping": 7720,
      "clinging": 7721,
      "egetarian": 7722,
      "techni": 7723,
      "74": 7724,
      "fact": 7725,
      "tandoori": 7726,
      "oft": 7727,
      "##ville": 7728,
      "amaretti": 7729,
      "auteed": 7730,
      "refrigeration": 7731,
      "arth": 7732,
      "##men": 7733,
      "gelato": 7734,
      "lotus": 7735,
      "##son": 7736,
      "##hel": 7737,
      "sab": 7738,
      "reheating": 7739,
      "baklava": 7740,
      "chambord": 7741,
      "littl": 7742,
      "fasten": 7743,
      "orte": 7744,
      "nutmeats": 7745,
      "medjool": 7746,
      "aleppo": 7747,
      "sleeve": 7748,
      "marrow": 7749,
      "esame": 7750,
      "vessel": 7751,
      "##nod": 7752,
      "##date": 7753,
      "haven": 7754,
      "guess": 7755,
      "prebaked": 7756,
      "publ": 7757,
      "scratch": 7758,
      "guajillo": 7759,
      "worms": 7760,
      "camembert": 7761,
      "highly": 7762,
      "raita": 7763,
      "heddar": 7764,
      "##olo": 7765,
      "husband": 7766,
      "pasilla": 7767,
      "afric": 7768,
      "##mark": 7769,
      "tends": 7770,
      "blondies": 7771,
      "favorites": 7772,
      "43": 7773,
      "rins": 7774,
      "##pari": 7775,
      "expl": 7776,
      "lager": 7777,
      "lidded": 7778,
      "##za": 7779,
      "spraying": 7780,
      "##cture": 7781,
      "littlene": 7782,
      "50g": 7783,
      "tacky": 7784,
      "creat": 7785,
      "ratatouille": 7786,
      "buttermargarine": 7787,
      "##selves": 7788,
      "achiote": 7789,
      "roasts": 7790,
      "##gu": 7791,
      "ceviche": 7792,
      "chur": 7793,
      "##ardelli": 7794,
      "##ippi": 7795,
      "kill": 7796,
      "acting": 7797,
      "gyoza": 7798,
      "rish": 7799,
      "prego": 7800,
      "mexic": 7801,
      "##uckle": 7802,
      "sorrel": 7803,
      "##ju": 7804,
      "whisky": 7805,
      "##la": 7806,
      "salata": 7807,
      "decide": 7808,
      "horizontal": 7809,
      "impossible": 7810,
      "320": 7811,
      "bq": 7812,
      "loc": 7813,
      "cost": 7814,
      "erry": 7815,
      "erfect": 7816,
      "165u00b0": 7817,
      "##ustr": 7818,
      "x13": 7819,
      "##igr": 7820,
      "generally": 7821,
      "##mit": 7822,
      "softly": 7823,
      "decorator": 7824,
      "##tional": 7825,
      "waldorf": 7826,
      "proceeding": 7827,
      "##like": 7828,
      "pumpkins": 7829,
      "##issippi": 7830,
      "tef": 7831,
      "##cheese": 7832,
      "##zes": 7833,
      "packing": 7834,
      "closest": 7835,
      "view": 7836,
      "toweling": 7837,
      "chee": 7838,
      "holder": 7839,
      "##tose": 7840,
      "multigrain": 7841,
      "##intosh": 7842,
      "enoki": 7843,
      "substitutes": 7844,
      "slashes": 7845,
      "ume": 7846,
      "vein": 7847,
      "frangel": 7848,
      "curdled": 7849,
      "converted": 7850,
      "oppy": 7851,
      "returns": 7852,
      "##osh": 7853,
      "ah": 7854,
      "tep": 7855,
      "floating": 7856,
      "303": 7857,
      "likes": 7858,
      "##rd": 7859,
      "##ird": 7860,
      "bailey": 7861,
      "nn": 7862,
      "bud": 7863,
      "endives": 7864,
      "bartlett": 7865,
      "mounding": 7866,
      "1c": 7867,
      "ducks": 7868,
      "unop": 7869,
      "becoming": 7870,
      "##oor": 7871,
      "halloumi": 7872,
      "parmesean": 7873,
      "merlot": 7874,
      "tonight": 7875,
      "lackberry": 7876,
      "ortega": 7877,
      "cannelloni": 7878,
      "##uum": 7879,
      "##ripe": 7880,
      "quantities": 7881,
      "unopened": 7882,
      "tangerines": 7883,
      "themselves": 7884,
      "chol": 7885,
      "als": 7886,
      "wheels": 7887,
      "nibs": 7888,
      "deb": 7889,
      "##van": 7890,
      "specified": 7891,
      "amin": 7892,
      "roo": 7893,
      "santa": 7894,
      "unch": 7895,
      "##deg": 7896,
      "tbake": 7897,
      "u00b0": 7898,
      "##uces": 7899,
      "##zan": 7900,
      "##owel": 7901,
      "mediumhigh": 7902,
      "vo": 7903,
      "published": 7904,
      "creaming": 7905,
      "gills": 7906,
      "risk": 7907,
      "resistance": 7908,
      "##comb": 7909,
      "parboiled": 7910,
      "crump": 7911,
      "##got": 7912,
      "une": 7913,
      "mussel": 7914,
      "##uits": 7915,
      "baileys": 7916,
      "pineapples": 7917,
      "##dock": 7918,
      "##urre": 7919,
      "mostaccioli": 7920,
      "##rami": 7921,
      "eleg": 7922,
      "equals": 7923,
      "areas": 7924,
      "hat": 7925,
      "##uel": 7926,
      "##ternut": 7927,
      "peppered": 7928,
      "scored": 7929,
      "cappuccino": 7930,
      "definitely": 7931,
      "boull": 7932,
      "##uda": 7933,
      "12c": 7934,
      "##achio": 7935,
      "popovers": 7936,
      "shiitakes": 7937,
      "##rod": 7938,
      "court": 7939,
      "worchestershire": 7940,
      "child": 7941,
      "##aa": 7942,
      "snaps": 7943,
      "##cing": 7944,
      "elder": 7945,
      "demi": 7946,
      "pappardelle": 7947,
      "floats": 7948,
      "##ision": 7949,
      "pav": 7950,
      "girl": 7951,
      "musc": 7952,
      "richer": 7953,
      "##fro": 7954,
      "drips": 7955,
      "penn": 7956,
      "##ifully": 7957,
      "##rabi": 7958,
      "95": 7959,
      "courgettes": 7960,
      "mam": 7961,
      "chance": 7962,
      "lifted": 7963,
      "element": 7964,
      "jalepeno": 7965,
      "chay": 7966,
      "##uca": 7967,
      "##tipasto": 7968,
      "aisle": 7969,
      "49": 7970,
      "slabs": 7971,
      "365": 7972,
      "latte": 7973,
      "ghirardelli": 7974,
      "stab": 7975,
      "monkfish": 7976,
      "wreath": 7977,
      "##zos": 7978,
      "120u00b0": 7979,
      "dandelion": 7980,
      "##cheon": 7981,
      "emulsion": 7982,
      "##isf": 7983,
      "cha": 7984,
      "burdock": 7985,
      "cornichons": 7986,
      "stretching": 7987,
      "fool": 7988,
      "garlicky": 7989,
      "campari": 7990,
      "utternut": 7991,
      "##inf": 7992,
      "##iles": 7993,
      "brought": 7994,
      "refrigerating": 7995,
      "##iang": 7996,
      "sterile": 7997,
      "rinsing": 7998,
      "dital": 7999,
      "tm": 8000,
      "overfl": 8001,
      "##oule": 8002,
      "stacked": 8003,
      "kohl": 8004,
      "1lb": 8005,
      "beautifully": 8006,
      "bes": 8007,
      "aisin": 8008,
      "greaseproof": 8009,
      "lagasse": 8010,
      "oll": 8011,
      "##dish": 8012,
      "##asted": 8013,
      "william": 8014,
      "personally": 8015,
      "oxtails": 8016,
      "frangelico": 8017,
      "farmer": 8018,
      "lettuces": 8019,
      "234": 8020,
      "pernod": 8021,
      "tartlet": 8022,
      "requires": 8023,
      "increasing": 8024,
      "smokies": 8025,
      "ala": 8026,
      "bases": 8027,
      "uck": 8028,
      "cure": 8029,
      "shops": 8030,
      "applewood": 8031,
      "##uchen": 8032,
      "devour": 8033,
      "bodies": 8034,
      "##lest": 8035,
      "asagna": 8036,
      "stripes": 8037,
      "boullion": 8038,
      "sle": 8039,
      "tool": 8040,
      "zucchinis": 8041,
      "shock": 8042,
      "##ruits": 8043,
      "pac": 8044,
      "collect": 8045,
      "created": 8046,
      "experiment": 8047,
      "microplane": 8048,
      "cassis": 8049,
      "##apeno": 8050,
      "attractive": 8051,
      "abura": 8052,
      "west": 8053,
      "sele": 8054,
      "proble": 8055,
      "##onc": 8056,
      "certo": 8057,
      "0207": 8058,
      "hib": 8059,
      "scented": 8060,
      "jess": 8061,
      "bey": 8062,
      "##ibr": 8063,
      "dim": 8064,
      "##ingly": 8065,
      "475u00b0": 8066,
      "absolutely": 8067,
      "ahi": 8068,
      "##nes": 8069,
      "laying": 8070,
      "nog": 8071,
      "##hes": 8072,
      "##ya": 8073,
      "autumn": 8074,
      "##chool": 8075,
      "istachio": 8076,
      "imper": 8077,
      "tsps": 8078,
      "shade": 8079,
      "##peg": 8080,
      "tostada": 8081,
      "clover": 8082,
      "smothered": 8083,
      "##ensive": 8084,
      "overcrowd": 8085,
      "macaroon": 8086,
      "energy": 8087,
      "copycat": 8088,
      "happens": 8089,
      "ool": 8090,
      "##fire": 8091,
      "##esco": 8092,
      "##ona": 8093,
      "##raeli": 8094,
      "beurre": 8095,
      "vacuum": 8096,
      "suey": 8097,
      "roughy": 8098,
      "bing": 8099,
      "monde": 8100,
      "compress": 8101,
      "stripped": 8102,
      "##ining": 8103,
      "thinned": 8104,
      "wiped": 8105,
      "##rie": 8106,
      "thumbpr": 8107,
      "andy": 8108,
      "##pared": 8109,
      "enrich": 8110,
      "condiment": 8111,
      "littleneck": 8112,
      "eggie": 8113,
      "creamier": 8114,
      "##olli": 8115,
      "sterilize": 8116,
      "lollipop": 8117,
      "##rese": 8118,
      "satisf": 8119,
      "ixed": 8120,
      "pastrami": 8121,
      "measurements": 8122,
      "itrus": 8123,
      "boursin": 8124,
      "##itionally": 8125,
      "jew": 8126,
      "succ": 8127,
      "milder": 8128,
      "hydr": 8129,
      "ul": 8130,
      "dots": 8131,
      "speck": 8132,
      "##market": 8133,
      "creams": 8134,
      "corriander": 8135,
      "lan": 8136,
      "varieties": 8137,
      "bucket": 8138,
      "1tsp": 8139,
      "##aku": 8140,
      "refrigeratet": 8141,
      "event": 8142,
      "##erdoodles": 8143,
      "beyond": 8144,
      "85u00b0": 8145,
      "random": 8146,
      "##thday": 8147,
      "patch": 8148,
      "rocky": 8149,
      "88": 8150,
      "##esli": 8151,
      "persimmons": 8152,
      "blow": 8153,
      "##haps": 8154,
      "corks": 8155,
      "180u00b0": 8156,
      "omitted": 8157,
      "ramps": 8158,
      "ound": 8159,
      "##bling": 8160,
      "280": 8161,
      "3t": 8162,
      "chap": 8163,
      "##ram": 8164,
      "moulds": 8165,
      "happen": 8166,
      "##baking": 8167,
      "floury": 8168,
      "ello": 8169,
      "microwaving": 8170,
      "##oug": 8171,
      "##estring": 8172,
      "##iscus": 8173,
      "##ua": 8174,
      "##anth": 8175,
      "9x12": 8176,
      "##ott": 8177,
      "##uyu": 8178,
      "##eros": 8179,
      "cordon": 8180,
      "perhaps": 8181,
      "skor": 8182,
      "reuben": 8183,
      "fantastic": 8184,
      "8g": 8185,
      "##sy": 8186,
      "breaks": 8187,
      "##gines": 8188,
      "kohlrabi": 8189,
      "beefy": 8190,
      "##pect": 8191,
      "##kg": 8192,
      "chac": 8193,
      "miner": 8194,
      "##medium": 8195,
      "powered": 8196,
      "perr": 8197,
      "flattening": 8198,
      "altit": 8199,
      "##crew": 8200,
      "microwaved": 8201,
      "bacardi": 8202,
      "school": 8203,
      "okara": 8204,
      "140u00b0": 8205,
      "##boshi": 8206,
      "sifter": 8207,
      "soybeans": 8208,
      "mexicorn": 8209,
      "98": 8210,
      "250f": 8211,
      "ustard": 8212,
      "taro": 8213,
      "auber": 8214,
      "elegant": 8215,
      "##egg": 8216,
      "relax": 8217,
      "state": 8218,
      "smucker": 8219,
      "##nie": 8220,
      "bakery": 8221,
      "ropical": 8222,
      "crustless": 8223,
      "includes": 8224,
      "shoepeg": 8225,
      "ett": 8226,
      "italiano": 8227,
      "capon": 8228,
      "jiggly": 8229,
      "quik": 8230,
      "crumbling": 8231,
      "consistancy": 8232,
      "hashbrown": 8233,
      "x9": 8234,
      "skinny": 8235,
      "clementine": 8236,
      "##aper": 8237,
      "tepid": 8238,
      "##ington": 8239,
      "luncheon": 8240,
      "3oz": 8241,
      "##ouleh": 8242,
      "spi": 8243,
      "gizzards": 8244,
      "nests": 8245,
      "collins": 8246,
      "##ulf": 8247,
      "lev": 8248,
      "sanding": 8249,
      "twinkies": 8250,
      "##nadd": 8251,
      "2oz": 8252,
      "##mies": 8253,
      "supermarket": 8254,
      "voila": 8255,
      "##kk": 8256,
      "brined": 8257,
      "cord": 8258,
      "cloud": 8259,
      "dull": 8260,
      "mms": 8261,
      "north": 8262,
      "brickle": 8263,
      "##abl": 8264,
      "blind": 8265,
      "knot": 8266,
      "courgette": 8267,
      "ideas": 8268,
      "vinegars": 8269,
      "ditalini": 8270,
      "seasonal": 8271,
      "vertical": 8272,
      "##ilt": 8273,
      "intens": 8274,
      "alsa": 8275,
      "angla": 8276,
      "ummy": 8277,
      "dries": 8278,
      "500g": 8279,
      "##ingle": 8280,
      "ladleful": 8281,
      "schn": 8282,
      "ack": 8283,
      "imag": 8284,
      "poked": 8285,
      "protect": 8286,
      "slim": 8287,
      "inverting": 8288,
      "accompanied": 8289,
      "aubergines": 8290,
      "bend": 8291,
      "exc": 8292,
      "blacken": 8293,
      "scooping": 8294,
      "utens": 8295,
      "##hers": 8296,
      "pete": 8297,
      "calzones": 8298,
      "##lit": 8299,
      "fresno": 8300,
      "wel": 8301,
      "10x1": 8302,
      "130u00b0": 8303,
      "african": 8304,
      "gaps": 8305,
      "reamed": 8306,
      "juicer": 8307,
      "##pean": 8308,
      "tonic": 8309,
      "miz": 8310,
      "##bu": 8311,
      "homestyle": 8312,
      "tenderize": 8313,
      "buc": 8314,
      "airy": 8315,
      "ant": 8316,
      "##osa": 8317,
      "depression": 8318,
      "550": 8319,
      "measures": 8320,
      "drinks": 8321,
      "spun": 8322,
      "flatbreads": 8323,
      "present": 8324,
      "shoestring": 8325,
      "fragrance": 8326,
      "bav": 8327,
      "rost": 8328,
      "fly": 8329,
      "trisc": 8330,
      "165f": 8331,
      "muesli": 8332,
      "shitake": 8333,
      "##aca": 8334,
      "outsides": 8335,
      "wak": 8336,
      "pimenton": 8337,
      "ingrediants": 8338,
      "##zzle": 8339,
      "unsliced": 8340,
      "madele": 8341,
      "pollo": 8342,
      "accommo": 8343,
      "anglaise": 8344,
      "moj": 8345,
      "indef": 8346,
      "ers": 8347,
      "technique": 8348,
      "ama": 8349,
      "daiqu": 8350,
      "kin": 8351,
      "1993": 8352,
      "##hand": 8353,
      "exter": 8354,
      "scone": 8355,
      "ambrosia": 8356,
      "pantry": 8357,
      "##mes": 8358,
      "walla": 8359,
      "iv": 8360,
      "decorated": 8361,
      "collap": 8362,
      "nick": 8363,
      "##ashi": 8364,
      "sens": 8365,
      "mozzer": 8366,
      "hanging": 8367,
      "switching": 8368,
      "jessie": 8369,
      "##chee": 8370,
      "delights": 8371,
      "grandmother": 8372,
      "satin": 8373,
      "cutouts": 8374,
      "parsely": 8375,
      "shortly": 8376,
      "varies": 8377,
      "lav": 8378,
      "carolina": 8379,
      "indentations": 8380,
      "brats": 8381,
      "loaded": 8382,
      "basically": 8383,
      "corkscrew": 8384,
      "sicilian": 8385,
      "pand": 8386,
      "##onion": 8387,
      "tostitos": 8388,
      "##entsuyu": 8389,
      "##ffe": 8390,
      "150g": 8391,
      "madras": 8392,
      "hibiscus": 8393,
      "maid": 8394,
      "overhanging": 8395,
      "reconstituted": 8396,
      "creative": 8397,
      "accommodate": 8398,
      "##ker": 8399,
      "##pare": 8400,
      "12oz": 8401,
      "function": 8402,
      "kh": 8403,
      "##zuki": 8404,
      "pring": 8405,
      "perrins": 8406,
      "bella": 8407,
      "fettuccini": 8408,
      "unref": 8409,
      "##kuwa": 8410,
      "bain": 8411,
      "parma": 8412,
      "dsh": 8413,
      "cult": 8414,
      "manual": 8415,
      "zinf": 8416,
      "alapeno": 8417,
      "israeli": 8418,
      "ida": 8419,
      "service": 8420,
      "jiggle": 8421,
      "residue": 8422,
      "beach": 8423,
      "wakame": 8424,
      "det": 8425,
      "whoo": 8426,
      "leak": 8427,
      "concentric": 8428,
      "twisting": 8429,
      "basin": 8430,
      "hatch": 8431,
      "cereals": 8432,
      "truss": 8433,
      "12t": 8434,
      "nuoc": 8435,
      "##lon": 8436,
      "starchy": 8437,
      "##ered": 8438,
      "##angas": 8439,
      "dv": 8440,
      "magg": 8441,
      "mentsuyu": 8442,
      "##oro": 8443,
      "unto": 8444,
      "##rif": 8445,
      "sac": 8446,
      "chou": 8447,
      "overcooked": 8448,
      "multip": 8449,
      "scale": 8450,
      "##iva": 8451,
      "helpful": 8452,
      "##aka": 8453,
      "##roz": 8454,
      "birthday": 8455,
      "osemary": 8456,
      "og": 8457,
      "feeling": 8458,
      "bakers": 8459,
      "verb": 8460,
      "ornbread": 8461,
      "grapefruits": 8462,
      "clea": 8463,
      "major": 8464,
      "zests": 8465,
      "canister": 8466,
      "morrow": 8467,
      "gem": 8468,
      "##atar": 8469,
      "esty": 8470,
      "blt": 8471,
      "blint": 8472,
      "crispness": 8473,
      "##oetida": 8474,
      "town": 8475,
      "lardons": 8476,
      "cigar": 8477,
      "aminos": 8478,
      "68": 8479,
      "hew": 8480,
      "pouches": 8481,
      "skewered": 8482,
      "joints": 8483,
      "fist": 8484,
      "bragg": 8485,
      "bert": 8486,
      "eri": 8487,
      "##bar": 8488,
      "roulade": 8489,
      "dee": 8490,
      "tv": 8491,
      "mojo": 8492,
      "brazil": 8493,
      "crud": 8494,
      "rested": 8495,
      "tumb": 8496,
      "recommendation": 8497,
      "cin": 8498,
      "athen": 8499,
      "stringy": 8500,
      "zinfandel": 8501,
      "##mented": 8502,
      "chanterelle": 8503,
      "macerate": 8504,
      "coupe": 8505,
      "quicker": 8506,
      "online": 8507,
      "225u00b0": 8508,
      "chanterelles": 8509,
      "indefinitely": 8510,
      "saw": 8511,
      "chikuwa": 8512,
      "yak": 8513,
      "##rown": 8514,
      "210": 8515,
      "pavlo": 8516,
      "spirals": 8517,
      "salts": 8518,
      "popsicles": 8519,
      "cowboy": 8520,
      "segment": 8521,
      "##bacore": 8522,
      "potatoe": 8523,
      "amaranth": 8524,
      "albacore": 8525,
      "heel": 8526,
      "resulting": 8527,
      "overly": 8528,
      "##sters": 8529,
      "tripled": 8530,
      "exterior": 8531,
      "pleat": 8532,
      "verbena": 8533,
      "entil": 8534,
      "238": 8535,
      "pict": 8536,
      "fol": 8537,
      "chicory": 8538,
      "grid": 8539,
      "79": 8540,
      "carmelized": 8541,
      "rellenos": 8542,
      "##fin": 8543,
      "roiled": 8544,
      "unit": 8545,
      "passata": 8546,
      "##izing": 8547,
      "##credi": 8548,
      "##otle": 8549,
      "perf": 8550,
      "##itter": 8551,
      "morton": 8552,
      "description": 8553,
      "euro": 8554,
      "pak": 8555,
      "asafoetida": 8556,
      "9x5x3": 8557,
      "seep": 8558,
      "ndian": 8559,
      "uffalo": 8560,
      "##done": 8561,
      "stacking": 8562,
      "confetti": 8563,
      "fabulous": 8564,
      "kefir": 8565,
      "dome": 8566,
      "searing": 8567,
      "conventional": 8568,
      "##lbs": 8569,
      "##bert": 8570,
      "##car": 8571,
      "million": 8572,
      "kiwis": 8573,
      "tirsch": 8574,
      "progresso": 8575,
      "0mg": 8576,
      "supple": 8577,
      "atar": 8578,
      "maxwell": 8579,
      "parmigiana": 8580,
      "##dog": 8581,
      "eleph": 8582,
      "tinned": 8583,
      "ust": 8584,
      "conne": 8585,
      "baskets": 8586,
      "instructed": 8587,
      "job": 8588,
      "earl": 8589,
      "integr": 8590,
      "latin": 8591,
      "mop": 8592,
      "replacer": 8593,
      "marry": 8594,
      "lie": 8595,
      "oy": 8596,
      "##ilo": 8597,
      "crackle": 8598,
      "##ouns": 8599,
      "shaggy": 8600,
      "hano": 8601,
      "##oky": 8602,
      "oily": 8603,
      "pract": 8604,
      "son": 8605,
      "spaces": 8606,
      "consum": 8607,
      "avacado": 8608,
      "bee": 8609,
      "youve": 8610,
      "##utions": 8611,
      "400g": 8612,
      "writ": 8613,
      "rus": 8614,
      "mozarella": 8615,
      "aniseed": 8616,
      "enriched": 8617,
      "squir": 8618,
      "shirat": 8619,
      "smal": 8620,
      "##more": 8621,
      "entree": 8622,
      "##banese": 8623,
      "224": 8624,
      "swe": 8625,
      "##uitto": 8626,
      "distur": 8627,
      "mention": 8628,
      "program": 8629,
      "cleaning": 8630,
      "kent": 8631,
      "activ": 8632,
      "papery": 8633,
      "related": 8634,
      "provide": 8635,
      "islands": 8636,
      "described": 8637,
      "sunshine": 8638,
      "average": 8639,
      "bened": 8640,
      "sachet": 8641,
      "##etr": 8642,
      "##rad": 8643,
      "##kan": 8644,
      "cant": 8645,
      "shredding": 8646,
      "glu": 8647,
      "sandy": 8648,
      "##using": 8649,
      "passed": 8650,
      "sweetcorn": 8651,
      "god": 8652,
      "purchase": 8653,
      "eep": 8654,
      "mou": 8655,
      "sifting": 8656,
      "cedar": 8657,
      "securing": 8658,
      "choco": 8659,
      "load": 8660,
      "##boiled": 8661,
      "ke": 8662,
      "##x11": 8663,
      "pinwheel": 8664,
      "elephant": 8665,
      "tun": 8666,
      "whenever": 8667,
      "250u00b0f": 8668,
      "##bake": 8669,
      "tearing": 8670,
      "straining": 8671,
      "curve": 8672,
      "114": 8673,
      "cracking": 8674,
      "macarons": 8675,
      "aburaage": 8676,
      "lost": 8677,
      "ghost": 8678,
      "monouns": 8679,
      "expose": 8680,
      "comfortably": 8681,
      "chachere": 8682,
      "offer": 8683,
      "living": 8684,
      "optionally": 8685,
      "swell": 8686,
      "positions": 8687,
      "western": 8688,
      "muslin": 8689,
      "outhwestern": 8690,
      "##lar": 8691,
      "fingertip": 8692,
      "##rian": 8693,
      "parties": 8694,
      "copper": 8695,
      "oroccan": 8696,
      "##agn": 8697,
      "ark": 8698,
      "oam": 8699,
      "pearls": 8700,
      "feather": 8701,
      "cute": 8702,
      "musco": 8703,
      "gherkins": 8704,
      "dad": 8705,
      "##aged": 8706,
      "ovals": 8707,
      "mod": 8708,
      "##wash": 8709,
      "blanco": 8710,
      "uni": 8711,
      "buttons": 8712,
      "changing": 8713,
      "grown": 8714,
      "milligr": 8715,
      "init": 8716,
      "wholemeal": 8717,
      "frito": 8718,
      "drumstick": 8719,
      "chopstick": 8720,
      "preferable": 8721,
      "jigger": 8722,
      "umeboshi": 8723,
      "lily": 8724,
      "##cur": 8725,
      "perimeter": 8726,
      "mitts": 8727,
      "ott": 8728,
      "darkened": 8729,
      "mcintosh": 8730,
      "##45": 8731,
      "##tered": 8732,
      "traditionally": 8733,
      "altitude": 8734,
      "noir": 8735,
      "removal": 8736,
      "hotel": 8737,
      "cannoli": 8738,
      "200f": 8739,
      "rhod": 8740,
      "koft": 8741,
      "##rise": 8742,
      "##tilla": 8743,
      "eavenly": 8744,
      "kikk": 8745,
      "benedict": 8746,
      "##stand": 8747,
      "##ayan": 8748,
      "milligrams": 8749,
      "spout": 8750,
      "arranged": 8751,
      "krispie": 8752,
      "##imo": 8753,
      "1000": 8754,
      "matzoh": 8755,
      "##drogen": 8756,
      "rush": 8757,
      "##ali": 8758,
      "hewy": 8759,
      "common": 8760,
      "fills": 8761,
      "register": 8762,
      "antipasto": 8763,
      "index": 8764,
      "delicately": 8765,
      "oamc": 8766,
      "castor": 8767,
      "hotdog": 8768,
      "bison": 8769,
      "##geon": 8770,
      "drumettes": 8771,
      "##cups": 8772,
      "##ught": 8773,
      "humid": 8774,
      "atermelon": 8775,
      "nab": 8776,
      "doughy": 8777,
      "clementines": 8778,
      "paleo": 8779,
      "wring": 8780,
      "pepp": 8781,
      "centimeter": 8782,
      "dole": 8783,
      "9g": 8784,
      "ery": 8785,
      "thought": 8786,
      "daiquiri": 8787,
      "bocc": 8788,
      "mineral": 8789,
      "teas": 8790,
      "pencil": 8791,
      "pierogi": 8792,
      "##400": 8793,
      "##antly": 8794,
      "30g": 8795,
      "alcoholic": 8796,
      "ashed": 8797,
      "bertolli": 8798,
      "hay": 8799,
      "hammer": 8800,
      "##fill": 8801,
      "abt": 8802,
      "sufficiently": 8803,
      "ussian": 8804,
      "##atsu": 8805,
      "annatto": 8806,
      "debear": 8807,
      "wider": 8808,
      "teamed": 8809,
      "alnut": 8810,
      "##coa": 8811,
      "angy": 8812,
      "whoopie": 8813,
      "##isbury": 8814,
      "aramelized": 8815,
      "widthwise": 8816,
      "##hesive": 8817,
      "##inia": 8818,
      "##ifies": 8819,
      "fleshed": 8820,
      "sieved": 8821,
      "limas": 8822,
      "rear": 8823,
      "kiwif": 8824,
      "paul": 8825,
      "tik": 8826,
      "poppyseed": 8827,
      "ingerbread": 8828,
      "rehydrated": 8829,
      "dips": 8830,
      "waxy": 8831,
      "##ui": 8832,
      "ingu": 8833,
      "blank": 8834,
      "emment": 8835,
      "les": 8836,
      "kikkoman": 8837,
      "mut": 8838,
      "divinity": 8839,
      "nature": 8840,
      "tabb": 8841,
      "##17": 8842,
      "flush": 8843,
      "shri": 8844,
      "burrata": 8845,
      "cleaver": 8846,
      "##ndra": 8847,
      "##opp": 8848,
      "1116": 8849,
      "polyuns": 8850,
      "alsamic": 8851,
      "##uffy": 8852,
      "sauter": 8853,
      "releases": 8854,
      "63": 8855,
      "rob": 8856,
      "branches": 8857,
      "andied": 8858,
      "##ablespoon": 8859,
      "roti": 8860,
      "##umet": 8861,
      "folds": 8862,
      "grana": 8863,
      "polyunsaturated": 8864,
      "##eau": 8865,
      "##remove": 8866,
      "##otes": 8867,
      "parc": 8868,
      "christ": 8869,
      "ingred": 8870,
      "mak": 8871,
      "##vado": 8872,
      "##adent": 8873,
      "penetr": 8874,
      "roman": 8875,
      "##leaf": 8876,
      "##glish": 8877,
      "particularly": 8878,
      "arthur": 8879,
      "420": 8880,
      "##inous": 8881,
      "mojito": 8882,
      "##itzel": 8883,
      "accompaniments": 8884,
      "##oma": 8885,
      "##bly": 8886,
      "choke": 8887,
      "##ddles": 8888,
      "mozzerella": 8889,
      "pb": 8890,
      "##redded": 8891,
      "repeating": 8892,
      "mp": 8893,
      "anyway": 8894,
      "gf": 8895,
      "##cker": 8896,
      "##hot": 8897,
      "kam": 8898,
      "passover": 8899,
      "##jou": 8900,
      "skimmer": 8901,
      "milled": 8902,
      "parkay": 8903,
      "hipotle": 8904,
      "lace": 8905,
      "buttering": 8906,
      "segmented": 8907,
      "##otash": 8908,
      "spaghett": 8909,
      "rosewater": 8910,
      "sparingly": 8911,
      "riple": 8912,
      "padano": 8913,
      "3rd": 8914,
      "##beat": 8915,
      "cla": 8916,
      "ocean": 8917,
      "problem": 8918,
      "kentucky": 8919,
      "parcels": 8920,
      "bill": 8921,
      "stamp": 8922,
      "heaven": 8923,
      "redi": 8924,
      "##gio": 8925,
      "eet": 8926,
      "arden": 8927,
      "bist": 8928,
      "##with": 8929,
      "bavarian": 8930,
      "roses": 8931,
      "tiger": 8932,
      "flash": 8933,
      "jagg": 8934,
      "##isan": 8935,
      "bliss": 8936,
      "16oz": 8937,
      "bulgar": 8938,
      "triangular": 8939,
      "125g": 8940,
      "hing": 8941,
      "##ginia": 8942,
      "##easpoon": 8943,
      "raz": 8944,
      "chayote": 8945,
      "eviled": 8946,
      "figure": 8947,
      "inv": 8948,
      "proscuitto": 8949,
      "produc": 8950,
      "##assium": 8951,
      "homogene": 8952,
      "carry": 8953,
      "true": 8954,
      "nglish": 8955,
      "weather": 8956,
      "andarin": 8957,
      "##olved": 8958,
      "##assionally": 8959,
      "mode": 8960,
      "bocconcini": 8961,
      "##otta": 8962,
      "##din": 8963,
      "##edients": 8964,
      "bittern": 8965,
      "fac": 8966,
      "mission": 8967,
      "poppers": 8968,
      "picc": 8969,
      "##uvres": 8970,
      "hanout": 8971,
      "kne": 8972,
      "citric": 8973,
      "sip": 8974,
      "consistent": 8975,
      "splashes": 8976,
      "seen": 8977,
      "hardboiled": 8978,
      "vital": 8979,
      "##stock": 8980,
      "##imet": 8981,
      "potassium": 8982,
      "clings": 8983,
      "herbal": 8984,
      "solidify": 8985,
      "##rigerator": 8986,
      "bitterness": 8987,
      "cact": 8988,
      "carp": 8989,
      "rever": 8990,
      "##atures": 8991,
      "hog": 8992,
      "pay": 8993,
      "caprese": 8994,
      "##amate": 8995,
      "96": 8996,
      "tad": 8997,
      "hon": 8998,
      "kneaded": 8999,
      "##nyaku": 9000,
      "150c": 9001,
      "distributing": 9002,
      "evening": 9003,
      "amish": 9004,
      "backs": 9005,
      "forced": 9006,
      "slider": 9007,
      "riental": 9008,
      "plumped": 9009,
      "nilla": 9010,
      "medal": 9011,
      "urry": 9012,
      "monounsaturated": 9013,
      "general": 9014,
      "##sey": 9015,
      "##osas": 9016,
      "guar": 9017,
      "##drogenated": 9018,
      "cohesive": 9019,
      "konnyaku": 9020,
      "nig": 9021,
      "##olor": 9022,
      "##panese": 9023,
      "meals": 9024,
      "fran": 9025,
      "maria": 9026,
      "unrefined": 9027,
      "homogeneous": 9028,
      "shar": 9029,
      "calzone": 9030,
      "reo": 9031,
      "##most": 9032,
      "adher": 9033,
      "harder": 9034,
      "cactus": 9035,
      "rehydrate": 9036,
      "fresca": 9037,
      "##non": 9038,
      "maggi": 9039,
      "tabbouleh": 9040,
      "##bag": 9041,
      "##fgas": 9042,
      "roller": 9043,
      "thank": 9044,
      "ary": 9045,
      "66": 9046,
      "buil": 9047,
      "tripe": 9048,
      "mats": 9049,
      "pierogies": 9050,
      "aji": 9051,
      "dew": 9052,
      "500f": 9053,
      "keebler": 9054,
      "##azote": 9055,
      "athenos": 9056,
      "nib": 9057,
      "##onds": 9058,
      "battered": 9059,
      "brands": 9060,
      "moments": 9061,
      "kiwifruit": 9062,
      "54": 9063,
      "hef": 9064,
      "extrav": 9065,
      "plating": 9066,
      "fritter": 9067,
      "faces": 9068,
      "200u00b0f": 9069,
      "anjou": 9070,
      "lovers": 9071,
      "wondra": 9072,
      "himal": 9073,
      "##lers": 9074,
      "##atelli": 9075,
      "bom": 9076,
      "lol": 9077,
      "changed": 9078,
      "##green": 9079,
      "epazote": 9080,
      "muscovado": 9081,
      "##sen": 9082,
      "incredi": 9083,
      "ortilla": 9084,
      "wat": 9085,
      "stoned": 9086,
      "##acy": 9087,
      "enhan": 9088,
      "scalding": 9089,
      "overbrown": 9090,
      "nonal": 9091,
      "molded": 9092,
      "fed": 9093,
      "sin": 9094,
      "onkey": 9095,
      "kasha": 9096,
      "##bby": 9097,
      "closer": 9098,
      "walls": 9099,
      "imperial": 9100,
      "indoor": 9101,
      "fort": 9102,
      "shio": 9103,
      "undercooked": 9104,
      "bunny": 9105,
      "aromatics": 9106,
      "refrigeratetill": 9107,
      "az": 9108,
      "enne": 9109,
      "sundaes": 9110,
      "##light": 9111,
      "##gerine": 9112,
      "dav": 9113,
      "ties": 9114,
      "enamel": 9115,
      "adjusted": 9116,
      "window": 9117,
      "frosty": 9118,
      "taff": 9119,
      "##self": 9120,
      "##ath": 9121,
      "##chicken": 9122,
      "crispier": 9123,
      "capellini": 9124,
      "saltiness": 9125,
      "determine": 9126,
      "stiring": 9127,
      "##nets": 9128,
      "newsp": 9129,
      "##unk": 9130,
      "balm": 9131,
      "porter": 9132,
      "smokey": 9133,
      "1tbsp": 9134,
      "luck": 9135,
      "canapes": 9136,
      "icy": 9137,
      "mature": 9138,
      "##eng": 9139,
      "tighten": 9140,
      "8x8x2": 9141,
      "debearded": 9142,
      "apanese": 9143,
      "noug": 9144,
      "##jiang": 9145,
      "12x8": 9146,
      "floor": 9147,
      "esto": 9148,
      "gut": 9149,
      "t2": 9150,
      "##enuts": 9151,
      "##inkles": 9152,
      "mintues": 9153,
      "diamonds": 9154,
      "milliliter": 9155,
      "##mboli": 9156,
      "uinoa": 9157,
      "exchange": 9158,
      "himalayan": 9159,
      "##ppe": 9160,
      "liked": 9161,
      "##ribute": 9162,
      "alic": 9163,
      "beneath": 9164,
      "piquillo": 9165,
      "eventually": 9166,
      "blades": 9167,
      "roul": 9168,
      "ine": 9169,
      "rests": 9170,
      "seals": 9171,
      "substitutions": 9172,
      "blanket": 9173,
      "oj": 9174,
      "sak": 9175,
      "luffy": 9176,
      "beforehand": 9177,
      "vide": 9178,
      "cleanly": 9179,
      "rashers": 9180,
      "taffy": 9181,
      "##lor": 9182,
      "whl": 9183,
      "160u00b0f": 9184,
      "oeuvres": 9185,
      "choux": 9186,
      "boun": 9187,
      "thinning": 9188,
      "##ulas": 9189,
      "bother": 9190,
      "jiggles": 9191,
      "spit": 9192,
      "##acks": 9193,
      "manis": 9194,
      "##esse": 9195,
      "sash": 9196,
      "9oz": 9197,
      "overs": 9198,
      "recover": 9199,
      "excessive": 9200,
      "vegies": 9201,
      "succotash": 9202,
      "##afout": 9203,
      "lebanese": 9204,
      "mizuna": 9205,
      "tape": 9206,
      "##lies": 9207,
      "jelled": 9208,
[...]
