{
  "version": "1.0",
  "truncation": null,
  "padding": null,
  "added_tokens": [
    {
      "id": 0,
      "content": "[PAD]",
      "single_word": false,
      "lstrip": false,
      "rstrip": false,
      "normalized": false,
      "special": true
    },
    {
      "id": 1,
      "content": "[UNK]",
      "single_word": false,
      "lstrip": false,
      "rstrip": false,
      "normalized": false,
      "special": true
    },
    {
      "id": 2,
      "content": "<end_ingredients>",
      "single_word": false,
      "lstrip": false,
      "rstrip": false,
      "normalized": false,
      "special": true
    },
    {
      "id": 3,
      "content": "<end>",
      "single_word": false,
      "lstrip": false,
      "rstrip": false,
      "normalized": false,
      "special": true
    }
  ],
  "normalizer": {
    "type": "Sequence",
    "normalizers": [
      {
        "type": "NFD"
      },
      {
        "type": "Lowercase"
      },
      {
        "type": "StripAccents"
      }
    ]
  },
  "pre_tokenizer": {
    "type": "Sequence",
    "pretokenizers": [
      {
        "type": "WhitespaceSplit"
      },
      {
        "type": "Punctuation",
        "behavior": "Isolated"
      }
    ]
  },
  "post_processor": null,
  "decoder": null,
  "model": {
    "type": "WordPiece",
    "unk_token": "[UNK]",
    "continuing_subword_prefix": "##",
    "max_input_chars_per_word": 100,
    "vocab": {
      "[PAD]": 0,
      "[UNK]": 1,
      "<end_ingredients>": 2,
      "<end>": 3,
      "!": 4,
      "\"": 5,
      "'": 6,
      "(": 7,
      ")": 8,
      ",": 9,
      "-": 10,
      ".": 11,
      "0": 12,
      "1": 13,
      "2": 14,
      "3": 15,
      "4": 16,
      "5": 17,
      "6": 18,
      "7": 19,
      "8": 20,
      "9": 21,
      ":": 22,
      ";": 23,
      "<": 24,
      ">": 25,
      "?": 26,
      "_": 27,
      "a": 28,
      "b": 29,
      "c": 30,
      "d": 31,
      "e": 32,
      "f": 33,
      "g": 34,
      "h": 35,
      "i": 36,
      "j": 37,
      "k": 38,
      "l": 39,
      "m": 40,
      "n": 41,
      "o": 42,
      "p": 43,
      "q": 44,
      "r": 45,
      "s": 46,
      "t": 47,
      "u": 48,
      "v": 49,
      "w": 50,
      "x": 51,
      "y": 52,
      "z": 53,
      "##c": 54,
      "##r": 55,
      "##a": 56,
      "##s": 57,
      "##l": 58,
      "##m": 59,
      "##e": 60,
      "##i": 61,
      "##t": 62,
      "##7": 63,
      "##1": 64,
      "##3": 65,
      "##0": 66,
      "##g": 67,
      "##h": 68,
      "##k": 69,
      "##n": 70,
      "##u": 71,
      "##o": 72,
      "##p": 73,
      "##2": 74,
      "##6": 75,
      "##d": 76,
      "##v": 77,
      "##f": 78,
      "##b": 79,
      "##w": 80,
      "##y": 81,
      "##j": 82,
      "##x": 83,
      "##5": 84,
      "##8": 85,
      "##4": 86,
      "##z": 87,
      "##9": 88,
      "##q": 89,
      "##in": 90,
      "##er": 91,
      "##nd": 92,
      "##ed": 93,
      "##es": 94,
      "##he": 95,
      "##ea": 96,
      "in": 97,
      "##on": 98,
      "and": 99,
      "##ar": 100,
      "##il": 101,
      "the": 102,
      "##ut": 103,
      "##en": 104,
      "to": 105,
      "##at": 106,
      "##ing": 107,
      "##ou": 108,
      "##ic": 109,
      "co": 110,
      "##an": 111,
      "##al": 112,
      "##or": 113,
      "##th": 114,
      "cu": 115,
      "##re": 116,
      "ch": 117,
      "##sp": 118,
      "end": 119,
      "##ow": 120,
      "##pp": 121,
      "##el": 122,
      "##oon": 123,
      "##le": 124,
      "cup": 125,
      "12": 126,
      "##edi": 127,
      "##ts": 128,
      "##ac": 129,
      "on": 130,
      "##st": 131,
      "wi": 132,
      "st": 133,
      "##ak": 134,
      "with": 135,
      "##our": 136,
      "un": 137,
      "min": 138,
      "##ge": 139,
      "of": 140,
      "##dd": 141,
      "##gr": 142,
      "##ro": 143,
      "##til": 144,
      "##ents": 145,
      "ingr": 146,
      "ingredi": 147,
      "mi": 148,
      "ingredients": 149,
      "add": 150,
      "or": 151,
      "##eat": 152,
      "until": 153,
      "for": 154,
      "mix": 155,
      "coo": 156,
      "##ter": 157,
      "##rea": 158,
      "##ve": 159,
      "##ver": 160,
      "##ab": 161,
      "##ce": 162,
      "##gar": 163,
      "##les": 164,
      "##ly": 165,
      "minut": 166,
      "sal": 167,
      "##is": 168,
      "##to": 169,
      "pe": 170,
      "##ion": 171,
      "##em": 172,
      "##gh": 173,
      "su": 174,
      "##ir": 175,
      "minutes": 176,
      "##et": 177,
      "##ot": 178,
      "salt": 179,
      "##poon": 180,
      "##ra": 181,
      "cho": 182,
      "##ri": 183,
      "tea": 184,
      "##ch": 185,
      "cook": 186,
      "th": 187,
      "##lic": 188,
      "##ables": 189,
      "##spoon": 190,
      "teaspoon": 191,
      "##ol": 192,
      "##ick": 193,
      "bak": 194,
      "##ill": 195,
      "fl": 196,
      "sugar": 197,
      "sa": 198,
      "##um": 199,
      "##ine": 200,
      "but": 201,
      "##pper": 202,
      "tables": 203,
      "tablespoon": 204,
      "pepper": 205,
      "into": 206,
      "sp": 207,
      "14": 208,
      "##as": 209,
      "butter": 210,
      "heat": 211,
      "wh": 212,
      "##pped": 213,
      "##uce": 214,
      "##it": 215,
      "##id": 216,
      "##gg": 217,
      "over": 218,
      "pl": 219,
      "br": 220,
      "##ast": 221,
      "stir": 222,
      "##ure": 223,
      "egg": 224,
      "che": 225,
      "oil": 226,
      "##ese": 227,
      "chopped": 228,
      "onion": 229,
      "gr": 230,
      "##ater": 231,
      "al": 232,
      "cheese": 233,
      "water": 234,
      "##igh": 235,
      "flour": 236,
      "##ice": 237,
      "tsp": 238,
      "##ream": 239,
      "rem": 240,
      "##res": 241,
      "sauce": 242,
      "cream": 243,
      "##all": 244,
      "##ack": 245,
      "so": 246,
      "pan": 247,
      "lar": 248,
      "##un": 249,
      "sh": 250,
      "cr": 251,
      "can": 252,
      "large": 253,
      "##ell": 254,
      "be": 255,
      "##ato": 256,
      "cups": 257,
      "##ces": 258,
      "##us": 259,
      "##oo": 260,
      "##ur": 261,
      "##own": 262,
      "##ound": 263,
      "##am": 264,
      "gar": 265,
      "tablespoons": 266,
      "bow": 267,
      "##ven": 268,
      "bowl": 269,
      "##im": 270,
      "slic": 271,
      "ab": 272,
      "##ry": 273,
      "com": 274,
      "sm": 275,
      "##out": 276,
      "ju": 277,
      "ser": 278,
      "##icken": 279,
      "##ture": 280,
      "mixture": 281,
      "##ate": 282,
      "##ace": 283,
      "##ay": 284,
      "about": 285,
      "fro": 286,
      "medi": 287,
      "medium": 288,
      "at": 289,
      "##ilk": 290,
      "bo": 291,
      "brown": 292,
      "##ight": 293,
      "bake": 294,
      "##ough": 295,
      "baking": 296,
      "chicken": 297,
      "##se": 298,
      "it": 299,
      "all": 300,
      "garlic": 301,
      "##ef": 302,
      "place": 303,
      "tb": 304,
      "##ie": 305,
      "##ther": 306,
      "cut": 307,
      "is": 308,
      "milk": 309,
      "##00": 310,
      "##ish": 311,
      "oven": 312,
      "##ake": 313,
      "##ves": 314,
      "tbsp": 315,
      "##der": 316,
      "##ain": 317,
      "##ely": 318,
      "##ove": 319,
      "top": 320,
      "pre": 321,
      "oun": 322,
      "##read": 323,
      "fres": 324,
      "fresh": 325,
      "inch": 326,
      "comb": 327,
      "##ip": 328,
      "##ach": 329,
      "##atoes": 330,
      "##ap": 331,
      "##ean": 332,
      "as": 333,
      "eggs": 334,
      "##ted": 335,
      "pow": 336,
      "cover": 337,
      "##rain": 338,
      "##ated": 339,
      "pot": 340,
      "powder": 341,
      "##ide": 342,
      "boil": 343,
      "se": 344,
      "##ush": 345,
      "juice": 346,
      "##li": 347,
      "from": 348,
      "cool": 349,
      "pour": 350,
      "##eas": 351,
      "tom": 352,
      "par": 353,
      "well": 354,
      "##ore": 355,
      "combine": 356,
      "small": 357,
      "10": 358,
      "red": 359,
      "cl": 360,
      "remove": 361,
      "pie": 362,
      "serve": 363,
      "beat": 364,
      "an": 365,
      "##illa": 366,
      "sk": 367,
      "##qu": 368,
      "van": 369,
      "ground": 370,
      "vanilla": 371,
      "then": 372,
      "oz": 373,
      "##ul": 374,
      "##50": 375,
      "##b0": 376,
      "##00b0": 377,
      "##u00b0": 378,
      "oli": 379,
      "##nder": 380,
      "drain": 381,
      "##aste": 382,
      "##emon": 383,
      "lemon": 384,
      "hal": 385,
      "##ad": 386,
      "you": 387,
      "##ink": 388,
      "mel": 389,
      "34": 390,
      "##me": 391,
      "mar": 392,
      "each": 393,
      "hour": 394,
      "lea": 395,
      "let": 396,
      "##let": 397,
      "##gether": 398,
      "together": 399,
      "if": 400,
      "##ger": 401,
      "de": 402,
      "lb": 403,
      "spr": 404,
      "##ightly": 405,
      "##ent": 406,
      "sliced": 407,
      "con": 408,
      "remain": 409,
      "##col": 410,
      "gre": 411,
      "##old": 412,
      "##ft": 413,
      "olive": 414,
      "13": 415,
      "bl": 416,
      "350": 417,
      "##ite": 418,
      "##ust": 419,
      "remaining": 420,
      "ex": 421,
      "she": 422,
      "green": 423,
      "car": 424,
      "cor": 425,
      "##ant": 426,
      "##co": 427,
      "##mer": 428,
      "sprink": 429,
      "teaspoons": 430,
      "##eason": 431,
      "##umb": 432,
      "bro": 433,
      "set": 434,
      "##ff": 435,
      "season": 436,
      "di": 437,
      "##tion": 438,
      "##age": 439,
      "##sing": 440,
      "##urn": 441,
      "ble": 442,
      "##ood": 443,
      "##ard": 444,
      "##ole": 445,
      "corn": 446,
      "##oll": 447,
      "sprinkle": 448,
      "ve": 449,
      "##uts": 450,
      "##ving": 451,
      "onions": 452,
      "##heat": 453,
      "##ash": 454,
      "##one": 455,
      "##ers": 456,
      "half": 457,
      "taste": 458,
      "##ced": 459,
      "hot": 460,
      "bread": 461,
      "15": 462,
      "li": 463,
      "are": 464,
      "dough": 465,
      "##ag": 466,
      "low": 467,
      "##om": 468,
      "##ring": 469,
      "##ery": 470,
      "sim": 471,
      "##edd": 472,
      "##and": 473,
      "##ru": 474,
      "dri": 475,
      "ounce": 476,
      "dry": 477,
      "chocol": 478,
      "ounces": 479,
      "chocolate": 480,
      "##sed": 481,
      "##get": 482,
      "##par": 483,
      "tomatoes": 484,
      "stirring": 485,
      "##ans": 486,
      "re": 487,
      "pin": 488,
      "##oup": 489,
      "simmer": 490,
      "##illet": 491,
      "veget": 492,
      "30": 493,
      "dish": 494,
      "white": 495,
      "roll": 496,
      "##ck": 497,
      "fin": 498,
      "##inn": 499,
      "##os": 500,
      "soft": 501,
      "sl": 502,
      "##ime": 503,
      "not": 504,
      "up": 505,
      "##we": 506,
      "rice": 507,
      "skillet": 508,
      "ref": 509,
      "potatoes": 510,
      "cooked": 511,
      "##ks": 512,
      "black": 513,
      "refri": 514,
      "te": 515,
      "out": 516,
      "##est": 517,
      "##ber": 518,
      "pack": 519,
      "app": 520,
      "minced": 521,
      "peel": 522,
      "soup": 523,
      "preheat": 524,
      "##ld": 525,
      "put": 526,
      "##ee": 527,
      "refriger": 528,
      "bring": 529,
      "meat": 530,
      "ext": 531,
      "pap": 532,
      "##ally": 533,
      "si": 534,
      "slices": 535,
      "grated": 536,
      "qu": 537,
      "high": 538,
      "melted": 539,
      "crumb": 540,
      "vine": 541,
      "blend": 542,
      "bean": 543,
      "vinegar": 544,
      "serving": 545,
      "##gre": 546,
      "pieces": 547,
      "cake": 548,
      "##ise": 549,
      "spread": 550,
      "gra": 551,
      "20": 552,
      "your": 553,
      "##iced": 554,
      "beef": 555,
      "##ange": 556,
      "tender": 557,
      "##amon": 558,
      "mush": 559,
      "##innamon": 560,
      "cinnamon": 561,
      "clo": 562,
      "##hen": 563,
      "sod": 564,
      "##room": 565,
      "##ass": 566,
      "##ze": 567,
      "mushroom": 568,
      "use": 569,
      "##ke": 570,
      "turn": 571,
      "more": 572,
      "ne": 573,
      "lightly": 574,
      "hea": 575,
      "finely": 576,
      "##arm": 577,
      "##ries": 578,
      "##ley": 579,
      "diced": 580,
      "hours": 581,
      "grea": 582,
      "##pan": 583,
      "seed": 584,
      "350u00b0": 585,
      "degre": 586,
      "##ened": 587,
      "##akes": 588,
      "sc": 589,
      "##weet": 590,
      "lay": 591,
      "##cess": 592,
      "pro": 593,
      "en": 594,
      "spoon": 595,
      "past": 596,
      "pars": 597,
      "whole": 598,
      "make": 599,
      "##ile": 600,
      "aside": 601,
      "bot": 602,
      "saucepan": 603,
      "tomato": 604,
      "##isk": 605,
      "when": 606,
      "##ps": 607,
      "##ute": 608,
      "beans": 609,
      "parsley": 610,
      "##fer": 611,
      "##ies": 612,
      "may": 613,
      "fill": 614,
      "smoo": 615,
      "thin": 616,
      "smooth": 617,
      "cooking": 618,
      "cloves": 619,
      "stick": 620,
      "##able": 621,
      "degrees": 622,
      "pk": 623,
      "##ved": 624,
      "warm": 625,
      "op": 626,
      "##uff": 627,
      "margar": 628,
      "margarine": 629,
      "them": 630,
      "pkg": 631,
      "shr": 632,
      "one": 633,
      "sheet": 634,
      "soda": 635,
      "##zz": 636,
      "##eal": 637,
      "##ave": 638,
      "cel": 639,
      "bef": 640,
      "before": 641,
      "this": 642,
      "pound": 643,
      "##atter": 644,
      "side": 645,
      "##ork": 646,
      "##ss": 647,
      "celery": 648,
      "whisk": 649,
      "gold": 650,
      "chill": 651,
      "just": 652,
      "sour": 653,
      "ar": 654,
      "thick": 655,
      "ro": 656,
      "tr": 657,
      "##pping": 658,
      "cont": 659,
      "broth": 660,
      "fir": 661,
      "chil": 662,
      "##cc": 663,
      "golden": 664,
      "squ": 665,
      "shredd": 666,
      "shredded": 667,
      "dried": 668,
      "leaves": 669,
      "carro": 670,
      "crush": 671,
      "18": 672,
      "fry": 673,
      "fre": 674,
      "##mo": 675,
      "will": 676,
      "##ue": 677,
      "prepar": 678,
      "trans": 679,
      "using": 680,
      "##tom": 681,
      "bottom": 682,
      "##zen": 683,
      "##av": 684,
      "##art": 685,
      "##ray": 686,
      "mo": 687,
      "drained": 688,
      "##ips": 689,
      "bac": 690,
      "brea": 691,
      "bacon": 692,
      "saute": 693,
      "##ins": 694,
      "##tional": 695,
      "paper": 696,
      "thr": 697,
      "##per": 698,
      "sweet": 699,
      "do": 700,
      "crushed": 701,
      "##ub": 702,
      "##rim": 703,
      "ra": 704,
      "cub": 705,
      "nuts": 706,
      "wine": 707,
      "##ately": 708,
      "peeled": 709,
      "optional": 710,
      "bas": 711,
      "liqu": 712,
      "##act": 713,
      "must": 714,
      "des": 715,
      "dis": 716,
      "orange": 717,
      "##inger": 718,
      "frozen": 719,
      "through": 720,
      "vegetable": 721,
      "mushrooms": 722,
      "##vy": 723,
      "transfer": 724,
      "layer": 725,
      "by": 726,
      "fat": 727,
      "mustard": 728,
      "##mes": 729,
      "##ose": 730,
      "almo": 731,
      "##ock": 732,
      "##berries": 733,
      "time": 734,
      "roast": 735,
      "refrigerate": 736,
      "##rap": 737,
      "chips": 738,
      "slice": 739,
      "##ently": 740,
      "res": 741,
      "##ges": 742,
      "##ature": 743,
      "tem": 744,
      "##ess": 745,
      "##fe": 746,
      "##ides": 747,
      "##nds": 748,
      "toss": 749,
      "even": 750,
      "melt": 751,
      "##ressing": 752,
      "garn": 753,
      "seasoning": 754,
      "##ib": 755,
      "gl": 756,
      "spray": 757,
      "##ead": 758,
      "pur": 759,
      "ginger": 760,
      "##ct": 761,
      "##tle": 762,
      "##ten": 763,
      "##ired": 764,
      "div": 765,
      "extr": 766,
      "free": 767,
      "garnish": 768,
      "off": 769,
      "##sh": 770,
      "coat": 771,
      "crumbs": 772,
      "purp": 773,
      "parmes": 774,
      "crust": 775,
      "##na": 776,
      "sides": 777,
      "parmesan": 778,
      "extract": 779,
      "sy": 780,
      "greased": 781,
      "##ction": 782,
      "fo": 783,
      "desired": 784,
      "##rup": 785,
      "process": 786,
      "syrup": 787,
      "liquid": 788,
      "reduce": 789,
      "##con": 790,
      "batter": 791,
      "ice": 792,
      "pasta": 793,
      "##ew": 794,
      "pork": 795,
      "temper": 796,
      "crack": 797,
      "purpose": 798,
      "grill": 799,
      "##stant": 800,
      "cold": 801,
      "##pple": 802,
      "##conut": 803,
      "pinea": 804,
      "coconut": 805,
      "pineapple": 806,
      "package": 807,
      "boiling": 808,
      "temperature": 809,
      "peppers": 810,
      "rack": 811,
      "pec": 812,
      "##ong": 813,
      "##ano": 814,
      "##avor": 815,
      "onto": 816,
      "beaten": 817,
      "##ll": 818,
      "minute": 819,
      "filling": 820,
      "softened": 821,
      "dressing": 822,
      "pres": 823,
      "lo": 824,
      "##ade": 825,
      "light": 826,
      "carrots": 827,
      "vegetables": 828,
      "slightly": 829,
      "food": 830,
      "stea": 831,
      "##ined": 832,
      "fold": 833,
      "chili": 834,
      "##ars": 835,
      "kn": 836,
      "heavy": 837,
      "tw": 838,
      "##75": 839,
      "stock": 840,
      "bag": 841,
      "whi": 842,
      "browned": 843,
      "##ist": 844,
      "down": 845,
      "form": 846,
      "basil": 847,
      "uns": 848,
      "lime": 849,
      "##ipe": 850,
      "##eddar": 851,
      "cheddar": 852,
      "16": 853,
      "seeds": 854,
      "that": 855,
      "comp": 856,
      "23": 857,
      "mayon": 858,
      "ball": 859,
      "soy": 860,
      "pean": 861,
      "##ne": 862,
      "##naise": 863,
      "##enter": 864,
      "pea": 865,
      "mayonnaise": 866,
      "tor": 867,
      "center": 868,
      "##oom": 869,
      "evenly": 870,
      "##tt": 871,
      "rin": 872,
      "nut": 873,
      "reser": 874,
      "cookie": 875,
      "salad": 876,
      "room": 877,
      "pecans": 878,
      "freshly": 879,
      "gently": 880,
      "foil": 881,
      "##ini": 882,
      "toast": 883,
      "stand": 884,
      "po": 885,
      "hand": 886,
      "25": 887,
      "complet": 888,
      "other": 889,
      "##ame": 890,
      "occ": 891,
      "very": 892,
      "##oney": 893,
      "extra": 894,
      "pinch": 895,
      "thinly": 896,
      "honey": 897,
      "##ionally": 898,
      "nood": 899,
      "apples": 900,
      "kee": 901,
      "occas": 902,
      "any": 903,
      "done": 904,
      "##led": 905,
      "while": 906,
      "once": 907,
      "have": 908,
      "ham": 909,
      "occasionally": 910,
      "shor": 911,
      "shall": 912,
      "they": 913,
      "##gin": 914,
      "whip": 915,
      "##ould": 916,
      "##rimp": 917,
      "lit": 918,
      "45": 919,
      "completely": 920,
      "saus": 921,
      "need": 922,
      "too": 923,
      "##ire": 924,
      "noodles": 925,
      "##other": 926,
      "bell": 927,
      "##raw": 928,
      "little": 929,
      "another": 930,
      "##oughly": 931,
      "##nuts": 932,
      "keep": 933,
      "shell": 934,
      "size": 935,
      "cans": 936,
      "plate": 937,
      "##25": 938,
      "ed": 939,
      "ore": 940,
      "shrimp": 941,
      "##yme": 942,
      "like": 943,
      "thyme": 944,
      "some": 945,
      "paste": 946,
      "##ous": 947,
      "##fter": 948,
      "##pe": 949,
      "flavor": 950,
      "cass": 951,
      "prepared": 952,
      "yol": 953,
      "press": 954,
      "##arch": 955,
      "##ka": 956,
      "im": 957,
      "375": 958,
      "casser": 959,
      "thicken": 960,
      "skin": 961,
      "##antro": 962,
      "after": 963,
      "cil": 964,
      "marin": 965,
      "casserole": 966,
      "##risp": 967,
      "cilantro": 968,
      "##els": 969,
      "wrap": 970,
      "##ian": 971,
      "##ition": 972,
      "##row": 973,
      "firm": 974,
      "##ich": 975,
      "##uc": 976,
      "##min": 977,
      "two": 978,
      "topping": 979,
      "##ary": 980,
      "col": 981,
      "##ets": 982,
      "allow": 983,
      "mixing": 984,
      "sausage": 985,
      "powdered": 986,
      "tur": 987,
      "##till": 988,
      "clean": 989,
      "covered": 990,
      "stri": 991,
      "##meg": 992,
      "tortill": 993,
      "nutmeg": 994,
      "first": 995,
      "enough": 996,
      "mixer": 997,
      "wor": 998,
      "##aw": 999,
      "400": 1000,
      "fish": 1001,
      "seco": 1002,
      "straw": 1003,
      "##gano": 1004,
      "slow": 1005,
      "blender": 1006,
      "mic": 1007,
      "##af": 1008,
      "oregano": 1009,
      "cher": 1010,
      "contain": 1011,
      "##ruit": 1012,
      "##tening": 1013,
      "spin": 1014,
      "##eed": 1015,
      "cubes": 1016,
      "non": 1017,
      "crisp": 1018,
      "pure": 1019,
      "shortening": 1020,
      "contin": 1021,
      "##starch": 1022,
      "##astic": 1023,
      "dire": 1024,
      "cornstarch": 1025,
      "spinach": 1026,
      "brush": 1027,
      "##sol": 1028,
      "peanut": 1029,
      "blended": 1030,
      "microw": 1031,
      "##her": 1032,
      "##cor": 1033,
      "ban": 1034,
      "##ump": 1035,
      "##ites": 1036,
      "drizz": 1037,
      "dissol": 1038,
      "least": 1039,
      "##ided": 1040,
      "mash": 1041,
      "##ep": 1042,
      "##ser": 1043,
      "banan": 1044,
      "gran": 1045,
      "wal": 1046,
      "zest": 1047,
      "apple": 1048,
      "till": 1049,
      "read": 1050,
      "rais": 1051,
      "##ually": 1052,
      "##ator": 1053,
      "coco": 1054,
      "bon": 1055,
      "broc": 1056,
      "broccol": 1057,
      "##ices": 1058,
      "cocoa": 1059,
      "##udd": 1060,
      "flakes": 1061,
      "tow": 1062,
      "grease": 1063,
      "whites": 1064,
      "##ches": 1065,
      "has": 1066,
      "papri": 1067,
      "pos": 1068,
      "cumin": 1069,
      "paprika": 1070,
      "broccoli": 1071,
      "processor": 1072,
      "makes": 1073,
      "rest": 1074,
      "box": 1075,
      "am": 1076,
      "round": 1077,
      "rec": 1078,
      "40": 1079,
      "separ": 1080,
      "plastic": 1081,
      "microwave": 1082,
      "strips": 1083,
      "pudd": 1084,
      "refrigerator": 1085,
      "divided": 1086,
      "pudding": 1087,
      "addition": 1088,
      "should": 1089,
      "##og": 1090,
      "few": 1091,
      "clove": 1092,
      "jar": 1093,
      "##ellow": 1094,
      "##medi": 1095,
      "fruit": 1096,
      "arr": 1097,
      "dro": 1098,
      "##ked": 1099,
      "pat": 1100,
      "##ment": 1101,
      "drizzle": 1102,
      "glass": 1103,
      "dash": 1104,
      "immedi": 1105,
      "continue": 1106,
      "whipped": 1107,
      "potato": 1108,
      "##ric": 1109,
      "shap": 1110,
      "##alted": 1111,
      "##cover": 1112,
      "immediately": 1113,
      "yellow": 1114,
      "sur": 1115,
      "sea": 1116,
      "ret": 1117,
      "container": 1118,
      "plus": 1119,
      "pastry": 1120,
      "arrange": 1121,
      "##berry": 1122,
      "uncover": 1123,
      "unsalted": 1124,
      "quar": 1125,
      "thor": 1126,
      "##enne": 1127,
      "##ang": 1128,
      "##zed": 1129,
      "raisins": 1130,
      "thoroughly": 1131,
      "quart": 1132,
      "len": 1133,
      "##ctions": 1134,
      "##ble": 1135,
      "chop": 1136,
      "##its": 1137,
      "oat": 1138,
      "##key": 1139,
      "overn": 1140,
      "##milk": 1141,
      "speed": 1142,
      "fork": 1143,
      "overnight": 1144,
      "surf": 1145,
      "##urt": 1146,
      "squar": 1147,
      "bay": 1148,
      "return": 1149,
      "constant": 1150,
      "cur": 1151,
      "lett": 1152,
      "walnuts": 1153,
      "leaf": 1154,
      "##wh": 1155,
      "rep": 1156,
      "constantly": 1157,
      "surface": 1158,
      "mean": 1159,
      "yea": 1160,
      "##shire": 1161,
      "no": 1162,
      "recipe": 1163,
      "peas": 1164,
      "##ella": 1165,
      "don": 1166,
      "##tershire": 1167,
      "##sib": 1168,
      "almonds": 1169,
      "ital": 1170,
      "toasted": 1171,
      "worces": 1172,
      "possib": 1173,
      "around": 1174,
      "buttermilk": 1175,
      "##ding": 1176,
      "worcestershire": 1177,
      "italian": 1178,
      "yolks": 1179,
      "per": 1180,
      "bun": 1181,
      "##abb": 1182,
      "muff": 1183,
      "kos": 1184,
      "ready": 1185,
      "yog": 1186,
      "yeast": 1187,
      "kosher": 1188,
      "yogurt": 1189,
      "##ully": 1190,
      "chun": 1191,
      "packed": 1192,
      "cookies": 1193,
      "##sts": 1194,
      "loaf": 1195,
      "turkey": 1196,
      "take": 1197,
      "cro": 1198,
      "##irgin": 1199,
      "prepare": 1200,
      "##onger": 1201,
      "flat": 1202,
      "combined": 1203,
      "grad": 1204,
      "pounds": 1205,
      "fine": 1206,
      "mixed": 1207,
      "virgin": 1208,
      "breasts": 1209,
      "##ucch": 1210,
      "lettuce": 1211,
      "##while": 1212,
      "wa": 1213,
      "kni": 1214,
      "zucch": 1215,
      "ml": 1216,
      "back": 1217,
      "longer": 1218,
      "scall": 1219,
      "##oun": 1220,
      "zucchini": 1221,
      "##gs": 1222,
      "cabb": 1223,
      "##wise": 1224,
      "meanwhile": 1225,
      "##ting": 1226,
      "pans": 1227,
      "cabbage": 1228,
      "edges": 1229,
      "gradually": 1230,
      "floured": 1231,
      "inches": 1232,
      "balls": 1233,
      "##ive": 1234,
      "pul": 1235,
      "both": 1236,
      "thaw": 1237,
      "ses": 1238,
      "sesame": 1239,
      "acc": 1240,
      "caref": 1241,
      "knife": 1242,
      "disc": 1243,
      "ag": 1244,
      "##ark": 1245,
      "cann": 1246,
      "day": 1247,
      "line": 1248,
      "coars": 1249,
      "color": 1250,
      "mozz": 1251,
      "crackers": 1252,
      "bub": 1253,
      "bet": 1254,
      "needed": 1255,
      "##arella": 1256,
      "##ulated": 1257,
      "##oc": 1258,
      "##ates": 1259,
      "##oy": 1260,
      "##ings": 1261,
      "broil": 1262,
      "seconds": 1263,
      "coarsely": 1264,
      "cay": 1265,
      "mozzarella": 1266,
      "comes": 1267,
      "cayenne": 1268,
      "repeat": 1269,
      "wire": 1270,
      "fri": 1271,
      "loo": 1272,
      "##med": 1273,
      "##fl": 1274,
      "puree": 1275,
      "frying": 1276,
      "olives": 1277,
      "##so": 1278,
      "remo": 1279,
      "av": 1280,
      "##ms": 1281,
      "##ful": 1282,
      "instant": 1283,
      "##orated": 1284,
      "discard": 1285,
      "shape": 1286,
      "squash": 1287,
      "uncovered": 1288,
      "divide": 1289,
      "##pt": 1290,
      "granulated": 1291,
      "bis": 1292,
      "jell": 1293,
      "slowly": 1294,
      "##ots": 1295,
      "strawberries": 1296,
      "store": 1297,
      "wed": 1298,
      "dip": 1299,
      "pi": 1300,
      "325": 1301,
      "35": 1302,
      "##kin": 1303,
      "wash": 1304,
      "drop": 1305,
      "quarter": 1306,
      "##joy": 1307,
      "cuc": 1308,
      "dou": 1309,
      "accor": 1310,
      "cucumb": 1311,
      "enjoy": 1312,
      "##way": 1313,
      "according": 1314,
      "frost": 1315,
      "bar": 1316,
      "##stick": 1317,
      "ad": 1318,
      "##less": 1319,
      "bit": 1320,
      "##eless": 1321,
      "piece": 1322,
      "turning": 1323,
      "##ear": 1324,
      "dark": 1325,
      "##gth": 1326,
      "parch": 1327,
      "sheets": 1328,
      "her": 1329,
      "parchment": 1330,
      "boneless": 1331,
      "lbs": 1332,
      "bubb": 1333,
      "trim": 1334,
      "sift": 1335,
      "cubed": 1336,
      "length": 1337,
      "stuff": 1338,
      "work": 1339,
      "##ows": 1340,
      "jal": 1341,
      "##ula": 1342,
      "pump": 1343,
      "##apen": 1344,
      "long": 1345,
      "##ds": 1346,
      "##up": 1347,
      "strain": 1348,
      "appro": 1349,
      "again": 1350,
      "breast": 1351,
      "##ta": 1352,
      "blue": 1353,
      "pumpkin": 1354,
      "deep": 1355,
      "##uch": 1356,
      "thawed": 1357,
      "50": 1358,
      "grams": 1359,
      "additional": 1360,
      "marinade": 1361,
      "muffin": 1362,
      "##ling": 1363,
      "rolls": 1364,
      "bananas": 1365,
      "ever": 1366,
      "jalapen": 1367,
      "steak": 1368,
      "carrot": 1369,
      "##urger": 1370,
      "##ander": 1371,
      "##ddle": 1372,
      "separate": 1373,
      "##mall": 1374,
      "approx": 1375,
      "marsh": 1376,
      "cran": 1377,
      "possibly": 1378,
      "exce": 1379,
      "##coo": 1380,
      "marshmall": 1381,
      "mint": 1382,
      "##xt": 1383,
      "mins": 1384,
      "inser": 1385,
      "used": 1386,
      "except": 1387,
      "sw": 1388,
      "##arp": 1389,
      "gel": 1390,
      "##mon": 1391,
      "good": 1392,
      "smo": 1393,
      "chilled": 1394,
      "thickened": 1395,
      "##als": 1396,
      "ev": 1397,
      "fluff": 1398,
      "stem": 1399,
      "directions": 1400,
      "chunks": 1401,
      "sure": 1402,
      "##ig": 1403,
      "pick": 1404,
      "##ower": 1405,
      "every": 1406,
      "tortillas": 1407,
      "seal": 1408,
      "rub": 1409,
      "wheat": 1410,
      "wedges": 1411,
      "canned": 1412,
      "spri": 1413,
      "rib": 1414,
      "plain": 1415,
      "##ions": 1416,
      "next": 1417,
      "crumbled": 1418,
      "part": 1419,
      "fr": 1420,
      "##oni": 1421,
      "##meal": 1422,
      "lid": 1423,
      "quick": 1424,
      "redu": 1425,
      "sticks": 1426,
      "pit": 1427,
      "adding": 1428,
      "ros": 1429,
      "reserved": 1430,
      "##ount": 1431,
      "heated": 1432,
      "375u00b0": 1433,
      "ele": 1434,
      "11": 1435,
      "##atin": 1436,
      "halved": 1437,
      "chi": 1438,
      "ther": 1439,
      "freeze": 1440,
      "oats": 1441,
      "soak": 1442,
      "##fection": 1443,
      "##sa": 1444,
      "almond": 1445,
      "cooled": 1446,
      "start": 1447,
      "confection": 1448,
      "caram": 1449,
      "break": 1450,
      "we": 1451,
      "carefully": 1452,
      "##lets": 1453,
      "##cu": 1454,
      "cracker": 1455,
      "##emary": 1456,
      "moist": 1457,
      "rosemary": 1458,
      "##ola": 1459,
      "prefer": 1460,
      "scrap": 1461,
      "shallow": 1462,
      "##imes": 1463,
      "elect": 1464,
      "evap": 1465,
      "electric": 1466,
      "fil": 1467,
      "cherry": 1468,
      "dill": 1469,
      "bat": 1470,
      "##hett": 1471,
      "salmon": 1472,
      "get": 1473,
      "##heated": 1474,
      "##bst": 1475,
      "reduced": 1476,
      "halves": 1477,
      "seeded": 1478,
      "bra": 1479,
      "cand": 1480,
      "por": 1481,
      "chops": 1482,
      "also": 1483,
      "##ween": 1484,
      "between": 1485,
      "##ham": 1486,
      "##tern": 1487,
      "ca": 1488,
      "##aghett": 1489,
      "herb": 1490,
      "note": 1491,
      "spaghett": 1492,
      "graham": 1493,
      "cons": 1494,
      "salsa": 1495,
      "tart": 1496,
      "biscu": 1497,
      "24": 1498,
      "none": 1499,
      "spaghetti": 1500,
      "##ffee": 1501,
      "gelatin": 1502,
      "approxim": 1503,
      "squee": 1504,
      "confectioners": 1505,
      "##uck": 1506,
      "servings": 1507,
      "ket": 1508,
      "mac": 1509,
      "nonstick": 1510,
      "go": 1511,
      "qt": 1512,
      "hard": 1513,
      "##ocad": 1514,
      "mashed": 1515,
      "wax": 1516,
      "avocad": 1517,
      "##eta": 1518,
      "fluffy": 1519,
      "##aking": 1520,
      "creamy": 1521,
      "under": 1522,
      "##cooked": 1523,
      "sharp": 1524,
      "preheated": 1525,
      "##aze": 1526,
      "##pl": 1527,
      "rinse": 1528,
      "leave": 1529,
      "eas": 1530,
      "cond": 1531,
      "lengthwise": 1532,
      "approximately": 1533,
      "freez": 1534,
      "roasted": 1535,
      "tooth": 1536,
      "reserve": 1537,
      "salted": 1538,
      "400u00b0": 1539,
      "coated": 1540,
      "lined": 1541,
      "##iff": 1542,
      "inserted": 1543,
      "run": 1544,
      "tortilla": 1545,
      "##flower": 1546,
      "excess": 1547,
      "##pick": 1548,
      "spices": 1549,
      "toothpick": 1550,
      "##spar": 1551,
      "frosting": 1552,
      "still": 1553,
      "caramel": 1554,
      "knead": 1555,
      "cherries": 1556,
      "##fted": 1557,
      "jalapeno": 1558,
      "stal": 1559,
      "want": 1560,
      "platter": 1561,
      "conden": 1562,
      "curry": 1563,
      "pizz": 1564,
      "##cy": 1565,
      "dut": 1566,
      "sem": 1567,
      "removed": 1568,
      "evaporated": 1569,
      "uncooked": 1570,
      "##ider": 1571,
      "condensed": 1572,
      "cre": 1573,
      "chives": 1574,
      "squares": 1575,
      "juices": 1576,
      "coffee": 1577,
      "spat": 1578,
      "towel": 1579,
      "##cr": 1580,
      "amount": 1581,
      "##amb": 1582,
      "hamb": 1583,
      "head": 1584,
      "double": 1585,
      "wood": 1586,
      "rasp": 1587,
      "##dge": 1588,
      "spatula": 1589,
      "marshmallows": 1590,
      "##cessary": 1591,
      "rinsed": 1592,
      "stiff": 1593,
      "necessary": 1594,
      "scoo": 1595,
      "rise": 1596,
      "##red": 1597,
      "ripe": 1598,
      "consist": 1599,
      "shallots": 1600,
      "##iel": 1601,
      "pizza": 1602,
      "##riander": 1603,
      "ole": 1604,
      "beating": 1605,
      "scallions": 1606,
      "glaze": 1607,
      "beg": 1608,
      "##ull": 1609,
      "only": 1610,
      "whipping": 1611,
      "##lo": 1612,
      "air": 1613,
      "##ium": 1614,
      "spice": 1615,
      "##op": 1616,
      "bou": 1617,
      "##sor": 1618,
      "##nel": 1619,
      "oleo": 1620,
      "##ation": 1621,
      "skinless": 1622,
      "dissolved": 1623,
      "cider": 1624,
      "coriander": 1625,
      "layers": 1626,
      "##side": 1627,
      "##ok": 1628,
      "altern": 1629,
      "##weetened": 1630,
      "sever": 1631,
      "serves": 1632,
      "unsweetened": 1633,
      "##ency": 1634,
      "##ton": 1635,
      "##ages": 1636,
      "macar": 1637,
      "several": 1638,
      "##ec": 1639,
      "hamburger": 1640,
      "shake": 1641,
      "lef": 1642,
      "dissolve": 1643,
      "eggpl": 1644,
      "sifted": 1645,
      "sized": 1646,
      "aspar": 1647,
      "freezer": 1648,
      "##agus": 1649,
      "sit": 1650,
      "asparagus": 1651,
      "brand": 1652,
      "mon": 1653,
      "canola": 1654,
      "towels": 1655,
      "consistency": 1656,
      "tin": 1657,
      "ber": 1658,
      "325u00b0": 1659,
      "bite": 1660,
      "ribs": 1661,
      "##crumb": 1662,
      "##te": 1663,
      "##ench": 1664,
      "##ener": 1665,
      "##chup": 1666,
      "sand": 1667,
      "sprigs": 1668,
      "breadcrumb": 1669,
      "ketchup": 1670,
      "subst": 1671,
      "me": 1672,
      "meas": 1673,
      "cucumber": 1674,
      "pear": 1675,
      "same": 1676,
      "substit": 1677,
      "##arse": 1678,
      "crab": 1679,
      "coarse": 1680,
      "fillets": 1681,
      "hands": 1682,
      "##ular": 1683,
      "pink": 1684,
      "shells": 1685,
      "##quently": 1686,
      "macaroni": 1687,
      "sher": 1688,
      "bunch": 1689,
      "last": 1690,
      "frequently": 1691,
      "##part": 1692,
      "inc": 1693,
      "cap": 1694,
      "french": 1695,
      "##sc": 1696,
      "such": 1697,
      "##cake": 1698,
      "along": 1699,
      "##jon": 1700,
      "##eased": 1701,
      "##meric": 1702,
      "##fat": 1703,
      "##ai": 1704,
      "dijon": 1705,
      "square": 1706,
      "full": 1707,
      "grain": 1708,
      "see": 1709,
      "scoop": 1710,
      "425": 1711,
      "spl": 1712,
      "apart": 1713,
      "dutch": 1714,
      "made": 1715,
      "##yle": 1716,
      "bab": 1717,
      "##aple": 1718,
      "mini": 1719,
      "##ron": 1720,
      "buttered": 1721,
      "wooden": 1722,
      "maple": 1723,
      "##aked": 1724,
      "baked": 1725,
      "seasoned": 1726,
      "##ia": 1727,
      "##thing": 1728,
      "reg": 1729,
      "times": 1730,
      "sodium": 1731,
      "baby": 1732,
      "##ously": 1733,
      "raw": 1734,
      "style": 1735,
      "bouill": 1736,
      "jello": 1737,
      "##corn": 1738,
      "##ind": 1739,
      "avocado": 1740,
      "tops": 1741,
      "patt": 1742,
      "##amic": 1743,
      "60": 1744,
      "cranberries": 1745,
      "breadcrumbs": 1746,
      "almost": 1747,
      "##cent": 1748,
      "##vel": 1749,
      "middle": 1750,
      "chilies": 1751,
      "bouillon": 1752,
      "stuffing": 1753,
      "star": 1754,
      "##greased": 1755,
      "##ino": 1756,
      "##uring": 1757,
      "##wich": 1758,
      "##ness": 1759,
      "ungreased": 1760,
      "lamb": 1761,
      "banana": 1762,
      "ris": 1763,
      "yiel": 1764,
      "sandwich": 1765,
      "##unch": 1766,
      "##cing": 1767,
      "tightly": 1768,
      "##just": 1769,
      "burn": 1770,
      "greens": 1771,
      "broiler": 1772,
      "four": 1773,
      "tac": 1774,
      "##anch": 1775,
      "adjust": 1776,
      "peaches": 1777,
      "equ": 1778,
      "bowls": 1779,
      "300": 1780,
      "ind": 1781,
      "stems": 1782,
      "##ree": 1783,
      "eggplant": 1784,
      "##iv": 1785,
      "seasonings": 1786,
      "dust": 1787,
      "icing": 1788,
      "much": 1789,
      "spring": 1790,
      "cau": 1791,
      "##iss": 1792,
      "trimmed": 1793,
      "##icot": 1794,
      "##de": 1795,
      "##elly": 1796,
      "fit": 1797,
      "than": 1798,
      "skim": 1799,
      "ap": 1800,
      "making": 1801,
      "my": 1802,
      "cauli": 1803,
      "##bed": 1804,
      "##irc": 1805,
      "sn": 1806,
      "roasting": 1807,
      "cauliflower": 1808,
      "foll": 1809,
      "moder": 1810,
      "##anges": 1811,
      "dice": 1812,
      "cutting": 1813,
      "rind": 1814,
      "finish": 1815,
      "und": 1816,
      "circ": 1817,
      "bubbly": 1818,
      "cornmeal": 1819,
      "bals": 1820,
      "##adish": 1821,
      "fra": 1822,
      "loos": 1823,
      "balsamic": 1824,
      "cooker": 1825,
      "##of": 1826,
      "##ball": 1827,
      "blueberries": 1828,
      "peanuts": 1829,
      "often": 1830,
      "boiled": 1831,
      "quartered": 1832,
      "days": 1833,
      "best": 1834,
      "portion": 1835,
      "edge": 1836,
      "##ily": 1837,
      "taco": 1838,
      "incor": 1839,
      "bits": 1840,
      "incorp": 1841,
      "cer": 1842,
      "sage": 1843,
      "le": 1844,
      "strawberry": 1845,
      "rea": 1846,
      "inst": 1847,
      "##ild": 1848,
      "yolk": 1849,
      "350f": 1850,
      "jars": 1851,
      "art": 1852,
      "##ori": 1853,
      "##una": 1854,
      "berries": 1855,
      "sherry": 1856,
      "##x1": 1857,
      "open": 1858,
      "steaks": 1859,
      "gener": 1860,
      "apric": 1861,
      "biscuits": 1862,
      "450": 1863,
      "plates": 1864,
      "ricot": 1865,
      "lee": 1866,
      "lower": 1867,
      "ricotta": 1868,
      "sweetened": 1869,
      "steam": 1870,
      "depe": 1871,
      "soften": 1872,
      "cott": 1873,
      "its": 1874,
      "marinate": 1875,
      "way": 1876,
      "thir": 1877,
      "been": 1878,
      "##ale": 1879,
      "chile": 1880,
      "##ney": 1881,
      "oranges": 1882,
      "three": 1883,
      "tub": 1884,
      "fen": 1885,
      "second": 1886,
      "tuna": 1887,
      "squeeze": 1888,
      "substitute": 1889,
      "smoked": 1890,
      "stew": 1891,
      "bottle": 1892,
      "##asses": 1893,
      "crock": 1894,
      "##nut": 1895,
      "sel": 1896,
      "fridge": 1897,
      "ph": 1898,
      "mol": 1899,
      "leaving": 1900,
      "rum": 1901,
      "jelly": 1902,
      "200": 1903,
      "unb": 1904,
      "absor": 1905,
      "pulse": 1906,
      "now": 1907,
      "puff": 1908,
      "scrape": 1909,
      "##ating": 1910,
      "tray": 1911,
      "without": 1912,
      "less": 1913,
      "jack": 1914,
      "bu": 1915,
      "del": 1916,
      "molasses": 1917,
      "batches": 1918,
      "skew": 1919,
      "herbs": 1920,
      "##spice": 1921,
      "candy": 1922,
      "rom": 1923,
      "meal": 1924,
      "stalks": 1925,
      "##head": 1926,
      "grap": 1927,
      "inside": 1928,
      "alum": 1929,
      "##orm": 1930,
      "cottage": 1931,
      "allspice": 1932,
      "##raft": 1933,
      "quickly": 1934,
      "##yst": 1935,
      "roughly": 1936,
      "rel": 1937,
      "fennel": 1938,
      "board": 1939,
      "refrigerated": 1940,
      "jam": 1941,
      "lean": 1942,
      "ho": 1943,
      "artich": 1944,
      "patties": 1945,
      "hold": 1946,
      "firmly": 1947,
      "##int": 1948,
      "ahead": 1949,
      "peaks": 1950,
      "wet": 1951,
      "favor": 1952,
      "sing": 1953,
      "beco": 1954,
      "##ters": 1955,
      "##tight": 1956,
      "airtight": 1957,
      "meatball": 1958,
      "chiles": 1959,
      "##uss": 1960,
      "##od": 1961,
      "ac": 1962,
      "barb": 1963,
      "stove": 1964,
      "rolling": 1965,
      "pim": 1966,
      "##fuls": 1967,
      "pitted": 1968,
      "##ento": 1969,
      "everything": 1970,
      "gravy": 1971,
      "##ey": 1972,
      "ha": 1973,
      "packages": 1974,
      "depend": 1975,
      "cas": 1976,
      "man": 1977,
      "##ably": 1978,
      "begin": 1979,
      "favorite": 1980,
      "rect": 1981,
      "feta": 1982,
      "##zo": 1983,
      "cal": 1984,
      "rectang": 1985,
      "##if": 1986,
      "tof": 1987,
      "mold": 1988,
      "tar": 1989,
      "bri": 1990,
      "away": 1991,
      "choice": 1992,
      "sun": 1993,
      "##ied": 1994,
      "real": 1995,
      "100": 1996,
      "vegg": 1997,
      "##cted": 1998,
      "##inum": 1999,
      "tofu": 2000,
      "cereal": 2001,
      "begins": 2002,
      "weight": 2003,
      "semi": 2004,
      "##amp": 2005,
      "kraft": 2006,
      "rim": 2007,
      "bul": 2008,
      "aluminum": 2009,
      "split": 2010,
      "decor": 2011,
      "these": 2012,
      "which": 2013,
      "ends": 2014,
      "thermo": 2015,
      "step": 2016,
      "meatballs": 2017,
      "##meter": 2018,
      "regular": 2019,
      "##ier": 2020,
      "mor": 2021,
      "thermometer": 2022,
      "med": 2023,
      "sli": 2024,
      "lad": 2025,
      "tri": 2026,
      "crumble": 2027,
      "safe": 2028,
      "##uted": 2029,
      "fried": 2030,
      "350u00b0f": 2031,
      "single": 2032,
      "##cakes": 2033,
      "depending": 2034,
      "ker": 2035,
      "##ity": 2036,
      "kid": 2037,
      "cris": 2038,
      "swiss": 2039,
      "dripping": 2040,
      "##elp": 2041,
      "##ail": 2042,
      "##gon": 2043,
      "there": 2044,
      "##tal": 2045,
      "el": 2046,
      "thickens": 2047,
      "lowfat": 2048,
      "directed": 2049,
      "added": 2050,
      "##ecue": 2051,
      "cucumbers": 2052,
      "wra": 2053,
      "barbecue": 2054,
      "##20": 2055,
      "##ingers": 2056,
      "gri": 2057,
      "hear": 2058,
      "spro": 2059,
      "wide": 2060,
      "check": 2061,
      "tbs": 2062,
      "cat": 2063,
      "thickness": 2064,
      "bars": 2065,
      "drippings": 2066,
      "cross": 2067,
      "bone": 2068,
      "mang": 2069,
      "wok": 2070,
      "coloring": 2071,
      "touch": 2072,
      "dates": 2073,
      "their": 2074,
      "##king": 2075,
      "flip": 2076,
      "##otted": 2077,
      "shallot": 2078,
      "crisco": 2079,
      "##ici": 2080,
      "clam": 2081,
      "melts": 2082,
      "cust": 2083,
      "wee": 2084,
      "does": 2085,
      "##bon": 2086,
      "creamed": 2087,
      "turmeric": 2088,
      "beer": 2089,
      "equal": 2090,
      "great": 2091,
      "mas": 2092,
      "custard": 2093,
      "eat": 2094,
      "rising": 2095,
      "kit": 2096,
      "raspberries": 2097,
      "whisking": 2098,
      "flatten": 2099,
      "##ah": 2100,
      "##ops": 2101,
      "##tail": 2102,
      "cored": 2103,
      "racks": 2104,
      "##emb": 2105,
      "250": 2106,
      "28": 2107,
      "rings": 2108,
      "iron": 2109,
      "##chen": 2110,
      "slotted": 2111,
      "chip": 2112,
      "flavored": 2113,
      "##pro": 2114,
      "##elve": 2115,
      "self": 2116,
      "reserving": 2117,
      "mango": 2118,
      "##dr": 2119,
      "kitchen": 2120,
      "pt": 2121,
      "pop": 2122,
      "buns": 2123,
      "sprouts": 2124,
      "kidney": 2125,
      "most": 2126,
      "tab": 2127,
      "##erm": 2128,
      "##ieve": 2129,
      "crispy": 2130,
      "##tover": 2131,
      "incorporated": 2132,
      "##ari": 2133,
      "cast": 2134,
      "peppercorn": 2135,
      "att": 2136,
      "plum": 2137,
      "veggies": 2138,
      "leftover": 2139,
      "##auce": 2140,
      "lentil": 2141,
      "##vent": 2142,
      "##loin": 2143,
      "thigh": 2144,
      "cock": 2145,
      "##asco": 2146,
      "forms": 2147,
      "rounds": 2148,
      "##ilad": 2149,
      "##rease": 2150,
      "rot": 2151,
      "##ual": 2152,
      "absorbed": 2153,
      "coup": 2154,
      "fragr": 2155,
      "chest": 2156,
      "##ized": 2157,
      "tube": 2158,
      "tip": 2159,
      "follow": 2160,
      "cube": 2161,
      "right": 2162,
      "creme": 2163,
      "prevent": 2164,
      "cocktail": 2165,
      "tartar": 2166,
      "applesauce": 2167,
      "##gl": 2168,
      "tabasco": 2169,
      "waxed": 2170,
      "fully": 2171,
      "##ning": 2172,
      "velve": 2173,
      "transl": 2174,
      "base": 2175,
      "preferably": 2176,
      "oatmeal": 2177,
      "##bled": 2178,
      "measure": 2179,
      "creat": 2180,
      "cranberry": 2181,
      "alternately": 2182,
      "##bo": 2183,
      "transluc": 2184,
      "chick": 2185,
      "fragrant": 2186,
      "dr": 2187,
      "us": 2188,
      "pears": 2189,
      "##ragon": 2190,
      "moderate": 2191,
      "couple": 2192,
      "monter": 2193,
      "##cho": 2194,
      "among": 2195,
      "##proof": 2196,
      "##bread": 2197,
      "cakes": 2198,
      "point": 2199,
      "tarragon": 2200,
      "180": 2201,
      "translucent": 2202,
      "##atch": 2203,
      "rolled": 2204,
      "preser": 2205,
      "easily": 2206,
      "simmering": 2207,
      "clear": 2208,
      "old": 2209,
      "##rained": 2210,
      "monterey": 2211,
      "lentils": 2212,
      "boiler": 2213,
      "char": 2214,
      "foam": 2215,
      "pr": 2216,
      "##com": 2217,
      "peppercorns": 2218,
      "how": 2219,
      "velveeta": 2220,
      "possible": 2221,
      "quarts": 2222,
      "ass": 2223,
      "##ivid": 2224,
      "hor": 2225,
      "come": 2226,
      "fi": 2227,
      "pint": 2228,
      "##ek": 2229,
      "sec": 2230,
      "undrained": 2231,
      "individ": 2232,
      "parts": 2233,
      "oyst": 2234,
      "lemons": 2235,
      "##iano": 2236,
      "nice": 2237,
      "vin": 2238,
      "##kra": 2239,
      "degree": 2240,
      "crosswise": 2241,
      "separated": 2242,
      "big": 2243,
      "##zel": 2244,
      "raspberry": 2245,
      "circle": 2246,
      "removing": 2247,
      "##eur": 2248,
      "##ons": 2249,
      "##ken": 2250,
      "ladle": 2251,
      "flavoring": 2252,
      "total": 2253,
      "starts": 2254,
      "grate": 2255,
      "##oul": 2256,
      "liqueur": 2257,
      "drops": 2258,
      "17": 2259,
      "five": 2260,
      "##u00b0f": 2261,
      "chestnuts": 2262,
      "short": 2263,
      "washed": 2264,
      "punch": 2265,
      "##ere": 2266,
      "instru": 2267,
      "flavors": 2268,
      "pine": 2269,
      "sliver": 2270,
      "##tte": 2271,
      "pull": 2272,
      "##use": 2273,
      "attach": 2274,
      "sol": 2275,
      "9x1": 2276,
      "##ye": 2277,
      "above": 2278,
      "mer": 2279,
      "beets": 2280,
      "capers": 2281,
      "##lu": 2282,
      "mir": 2283,
      "third": 2284,
      "##arin": 2285,
      "careful": 2286,
      "##grette": 2287,
      "increase": 2288,
      "##aigrette": 2289,
      "card": 2290,
      "vinaigrette": 2291,
      "halfway": 2292,
      "sugars": 2293,
      "broken": 2294,
      "##irl": 2295,
      "##seradish": 2296,
      "##ially": 2297,
      "fingers": 2298,
      "horseradish": 2299,
      "chickp": 2300,
      "ranch": 2301,
      "wil": 2302,
      "left": 2303,
      "roma": 2304,
      "chees": 2305,
      "cutter": 2306,
      "generously": 2307,
      "yield": 2308,
      "leeks": 2309,
      "ancho": 2310,
      "sieve": 2311,
      "175": 2312,
      "scraping": 2313,
      "##aker": 2314,
      "pimento": 2315,
      "during": 2316,
      "muffins": 2317,
      "##pot": 2318,
      "better": 2319,
      "give": 2320,
      "heap": 2321,
      "instructions": 2322,
      "dist": 2323,
      "scallops": 2324,
      "brandy": 2325,
      "quarters": 2326,
      "##etal": 2327,
      "save": 2328,
      "biscuit": 2329,
      "loosely": 2330,
      "wings": 2331,
      "coating": 2332,
      "##agon": 2333,
      "shred": 2334,
      "unbaked": 2335,
      "thru": 2336,
      "mild": 2337,
      "mand": 2338,
      "##are": 2339,
      "carton": 2340,
      "9x13": 2341,
      "chunk": 2342,
      "##air": 2343,
      "hom": 2344,
      "##icy": 2345,
      "##ko": 2346,
      "dump": 2347,
      "##ussels": 2348,
      "bones": 2349,
      "mering": 2350,
      "diagon": 2351,
      "las": 2352,
      "metal": 2353,
      "dozen": 2354,
      "ang": 2355,
      "##ctive": 2356,
      "goat": 2357,
      "chipot": 2358,
      "doubled": 2359,
      "concent": 2360,
      "gu": 2361,
      "cres": 2362,
      "working": 2363,
      "was": 2364,
      "mayo": 2365,
      "burger": 2366,
      "dent": 2367,
      "flaked": 2368,
      "bund": 2369,
      "simp": 2370,
      "##oke": 2371,
      "##ants": 2372,
      "envel": 2373,
      "rectangle": 2374,
      "##ny": 2375,
      "##gan": 2376,
      "individual": 2377,
      "served": 2378,
      "##x9": 2379,
      "##esto": 2380,
      "##ither": 2381,
      "##ca": 2382,
      "##ease": 2383,
      "yields": 2384,
      "mex": 2385,
      "##usts": 2386,
      "pesto": 2387,
      "19": 2388,
      "apricot": 2389,
      "torn": 2390,
      "starting": 2391,
      "skewers": 2392,
      "peach": 2393,
      "##ett": 2394,
      "close": 2395,
      "pecan": 2396,
      "cooling": 2397,
      "om": 2398,
      "##rug": 2399,
      "artichoke": 2400,
      "solid": 2401,
      "##ette": 2402,
      "##ght": 2403,
      "lasag": 2404,
      "either": 2405,
      "##ence": 2406,
      "dente": 2407,
      "clams": 2408,
      "##amom": 2409,
      "concentr": 2410,
      "crusts": 2411,
      "delici": 2412,
      "##umps": 2413,
      "020": 2414,
      "thighs": 2415,
      "cheeses": 2416,
      "tex": 2417,
      "arug": 2418,
      "##orets": 2419,
      "preserves": 2420,
      "kale": 2421,
      "florets": 2422,
      "won": 2423,
      "moistened": 2424,
      "##tc": 2425,
      "deve": 2426,
      "arugula": 2427,
      "would": 2428,
      "delicious": 2429,
      "em": 2430,
      "mexic": 2431,
      "glasses": 2432,
      "##ance": 2433,
      "sticky": 2434,
      "cats": 2435,
      "##ppy": 2436,
      "##emble": 2437,
      "chickpeas": 2438,
      "catsup": 2439,
      "warmed": 2440,
      "cardamom": 2441,
      "pressing": 2442,
      "juli": 2443,
      "##meat": 2444,
      "try": 2445,
      "##inner": 2446,
      "heaping": 2447,
      "lift": 2448,
      "skins": 2449,
      "##atur": 2450,
      "bags": 2451,
      "inver": 2452,
      "handle": 2453,
      "colander": 2454,
      "##ross": 2455,
      "bubbles": 2456,
      "chipotle": 2457,
      "order": 2458,
      "##thy": 2459,
      "squeezed": 2460,
      "plac": 2461,
      "sau": 2462,
      "hearts": 2463,
      "portions": 2464,
      "##oz": 2465,
      "##hew": 2466,
      "stor": 2467,
      "ori": 2468,
      "grind": 2469,
      "etc": 2470,
      "##ths": 2471,
      "blanch": 2472,
      "bel": 2473,
      "meringue": 2474,
      "##inoa": 2475,
      "reaches": 2476,
      "##eel": 2477,
      "chuck": 2478,
      "quinoa": 2479,
      "calor": 2480,
      "##aves": 2481,
      "slivered": 2482,
      "cashew": 2483,
      "measuring": 2484,
      "til": 2485,
      "rh": 2486,
      "outs": 2487,
      "##form": 2488,
      "crescent": 2489,
      "##warm": 2490,
      "tap": 2491,
      "grape": 2492,
      "packet": 2493,
      "cous": 2494,
      "marshmallow": 2495,
      "##rs": 2496,
      "dred": 2497,
      "strainer": 2498,
      "crumbly": 2499,
      "grapes": 2500,
      "tes": 2501,
      "greek": 2502,
      "miniature": 2503,
      "##bl": 2504,
      "lin": 2505,
      "##ched": 2506,
      "vod": 2507,
      "##inning": 2508,
      "##ffle": 2509,
      "vodka": 2510,
      "loaves": 2511,
      "##rib": 2512,
      "##ala": 2513,
      "apricots": 2514,
      "dipping": 2515,
      "partially": 2516,
      "radish": 2517,
      "cracked": 2518,
      "##arb": 2519,
      "concentrate": 2520,
      "ent": 2521,
      "tos": 2522,
      "tast": 2523,
      "inclu": 2524,
      "loosen": 2525,
      "vari": 2526,
      "rame": 2527,
      "pist": 2528,
      "running": 2529,
      "gall": 2530,
      "##achi": 2531,
      "lu": 2532,
      "pulp": 2533,
      "##eness": 2534,
      "hazel": 2535,
      "500": 2536,
      "across": 2537,
      "easy": 2538,
      "##cous": 2539,
      "spicy": 2540,
      "##bs": 2541,
      "bisqu": 2542,
      "mexican": 2543,
      "sprayed": 2544,
      "##iche": 2545,
      "rhub": 2546,
      "create": 2547,
      "veal": 2548,
      "300u00b0": 2549,
      "americ": 2550,
      "ale": 2551,
      "rhubarb": 2552,
      "look": 2553,
      "really": 2554,
      "doll": 2555,
      "mach": 2556,
      "outside": 2557,
      "deveined": 2558,
      "mandarin": 2559,
      "oiled": 2560,
      "become": 2561,
      "kern": 2562,
      "150": 2563,
      "couscous": 2564,
      "filled": 2565,
      "##ata": 2566,
      "pret": 2567,
      "##kins": 2568,
      "invert": 2569,
      "pistachi": 2570,
      "finger": 2571,
      "beginning": 2572,
      "##afers": 2573,
      "semis": 2574,
      "help": 2575,
      "crabmeat": 2576,
      "machine": 2577,
      "later": 2578,
      "wafers": 2579,
      "handful": 2580,
      "semisweet": 2581,
      "425u00b0": 2582,
      "origin": 2583,
      "55": 2584,
      "##inned": 2585,
      "soaked": 2586,
      "fitted": 2587,
      "##lesh": 2588,
      "lasagna": 2589,
      "near": 2590,
      "duck": 2591,
      "##chi": 2592,
      "gi": 2593,
      "heal": 2594,
      "texture": 2595,
      "##otch": 2596,
      "flesh": 2597,
      "engl": 2598,
      "##ope": 2599,
      "kernels": 2600,
      "luke": 2601,
      "beca": 2602,
      "entire": 2603,
      "because": 2604,
      "flu": 2605,
      "jalapenos": 2606,
      "new": 2607,
      "diame": 2608,
      "level": 2609,
      "diameter": 2610,
      "doneness": 2611,
      "13x9": 2612,
      "bisquick": 2613,
      "fluid": 2614,
      "crout": 2615,
      "envelope": 2616,
      "cleaned": 2617,
      "root": 2618,
      "##itz": 2619,
      "english": 2620,
      "bundt": 2621,
      "griddle": 2622,
      "dishes": 2623,
      "larger": 2624,
      "desser": 2625,
      "tins": 2626,
      "table": 2627,
      "usually": 2628,
      "becomes": 2629,
      "zip": 2630,
      "lukewarm": 2631,
      "distrib": 2632,
      "##ax": 2633,
      "sha": 2634,
      "rimmed": 2635,
      "saff": 2636,
      "tight": 2637,
      "sandwiches": 2638,
      "swirl": 2639,
      "##ress": 2640,
      "setting": 2641,
      "wrapper": 2642,
      "stalk": 2643,
      "drink": 2644,
      "##eled": 2645,
      "hash": 2646,
      "recom": 2647,
      "sprig": 2648,
      "dot": 2649,
      "dissolves": 2650,
      "original": 2651,
      "dredge": 2652,
      "assemble": 2653,
      "fillet": 2654,
      "fu": 2655,
      "twice": 2656,
      "pancake": 2657,
      "##ial": 2658,
      "recomme": 2659,
      "tenderloin": 2660,
      "ll": 2661,
      "##ort": 2662,
      "pier": 2663,
      "skewer": 2664,
      "cornbread": 2665,
      "panko": 2666,
      "leek": 2667,
      "decorate": 2668,
      "##okes": 2669,
      "poppy": 2670,
      "bott": 2671,
      "reheat": 2672,
      "lim": 2673,
      "smaller": 2674,
      "pol": 2675,
      "doesn": 2676,
      "test": 2677,
      "chin": 2678,
      "crunch": 2679,
      "##ont": 2680,
      "cm": 2681,
      "recommend": 2682,
      "grnd": 2683,
      "grilled": 2684,
      "angel": 2685,
      "six": 2686,
      "dessert": 2687,
      "moderately": 2688,
      "flame": 2689,
      "mound": 2690,
      "strip": 2691,
      "candied": 2692,
      "32": 2693,
      "esp": 2694,
      "position": 2695,
      "##top": 2696,
      "sticking": 2697,
      "push": 2698,
      "instead": 2699,
      "croutons": 2700,
      "direct": 2701,
      "lumps": 2702,
      "core": 2703,
      "nonfat": 2704,
      "##ty": 2705,
      "tam": 2706,
      "tossing": 2707,
      "str": 2708,
      "juiced": 2709,
      "parm": 2710,
      "##jor": 2711,
      "pa": 2712,
      "smoke": 2713,
      "0209": 2714,
      "##0u00b0": 2715,
      "triang": 2716,
      "holes": 2717,
      "avocados": 2718,
      "saut": 2719,
      "##iluted": 2720,
      "bast": 2721,
      "weeks": 2722,
      "chinese": 2723,
      "skinned": 2724,
      "cupcakes": 2725,
      "00": 2726,
      "resemb": 2727,
      "##ank": 2728,
      "pw": 2729,
      "pita": 2730,
      "topped": 2731,
      "ow": 2732,
      "romaine": 2733,
      "walnut": 2734,
      "being": 2735,
      "bubbling": 2736,
      "cheesecake": 2737,
      "bitters": 2738,
      "rubber": 2739,
      "##agle": 2740,
      "##iut": 2741,
      "eagle": 2742,
      "pressure": 2743,
      "attachment": 2744,
      "artichokes": 2745,
      "serr": 2746,
      "starch": 2747,
      "scra": 2748,
      "##iutto": 2749,
      "wilted": 2750,
      "pwdr": 2751,
      "american": 2752,
      "prosc": 2753,
      "follows": 2754,
      "##emade": 2755,
      "pic": 2756,
      "ritz": 2757,
      "pickle": 2758,
      "prosciutto": 2759,
      "active": 2760,
      "sunflower": 2761,
      "resembles": 2762,
      "pam": 2763,
      "homemade": 2764,
      "sausages": 2765,
      "scatter": 2766,
      "lemonade": 2767,
      "release": 2768,
      "own": 2769,
      "secure": 2770,
      "ty": 2771,
      "phy": 2772,
      "basting": 2773,
      "springform": 2774,
      "slicing": 2775,
      "##fish": 2776,
      "below": 2777,
      "generous": 2778,
      "##oli": 2779,
      "##peeled": 2780,
      "bran": 2781,
      "rounded": 2782,
      "##llo": 2783,
      "phyllo": 2784,
      "bath": 2785,
      "pickles": 2786,
      "##joram": 2787,
      "bour": 2788,
      "##ipes": 2789,
      "wild": 2790,
      "bagu": 2791,
      "lobst": 2792,
      "ramekins": 2793,
      "##chino": 2794,
      "oyster": 2795,
      "##scotch": 2796,
      "mince": 2797,
      "rn": 2798,
      "butterscotch": 2799,
      "nect": 2800,
      "marjoram": 2801,
      "maras": 2802,
      "##ens": 2803,
      "##ines": 2804,
      "saffron": 2805,
      "chunky": 2806,
      "brisk": 2807,
      "pancakes": 2808,
      "dinner": 2809,
      "pale": 2810,
      "toppings": 2811,
      "maraschino": 2812,
      "##acle": 2813,
      "cashews": 2814,
      "ench": 2815,
      "##orate": 2816,
      "finished": 2817,
      "browns": 2818,
      "relish": 2819,
      "pepperoni": 2820,
      "germ": 2821,
      "seedless": 2822,
      "nic": 2823,
      "enchilad": 2824,
      "375f": 2825,
      "cav": 2826,
      "curd": 2827,
      "fire": 2828,
      "thread": 2829,
      "miracle": 2830,
      "week": 2831,
      "##cher": 2832,
      "tail": 2833,
      "unpeeled": 2834,
      "450u00b0": 2835,
      "##que": 2836,
      "browning": 2837,
      "weed": 2838,
      "##ears": 2839,
      "kernel": 2840,
      "caps": 2841,
      "cupcake": 2842,
      "##ned": 2843,
      "scallion": 2844,
      "stewed": 2845,
      "75": 2846,
      "seam": 2847,
      "125": 2848,
      "##uf": 2849,
      "scal": 2850,
      "proof": 2851,
      "turns": 2852,
      "thirds": 2853,
      "prov": 2854,
      "##sted": 2855,
      "works": 2856,
      "loin": 2857,
      "organ": 2858,
      "gal": 2859,
      "##tos": 2860,
      "calories": 2861,
      "prote": 2862,
      "##hia": 2863,
      "mes": 2864,
      "diagonally": 2865,
      "popcorn": 2866,
      "bourbon": 2867,
      "could": 2868,
      "##elphia": 2869,
      "##ellini": 2870,
      "string": 2871,
      "diff": 2872,
      "##iladelphia": 2873,
      "##ina": 2874,
      "##rew": 2875,
      "limes": 2876,
      "damp": 2877,
      "organic": 2878,
      "barley": 2879,
      "gallon": 2880,
      "philadelphia": 2881,
      "hrs": 2882,
      "400f": 2883,
      "super": 2884,
      "vig": 2885,
      "smash": 2886,
      "##ality": 2887,
      "tie": 2888,
      "sprinkling": 2889,
      "find": 2890,
      "watch": 2891,
      "tong": 2892,
      "andor": 2893,
      "##kraut": 2894,
      "dollop": 2895,
      "sauer": 2896,
      "##ather": 2897,
      "kind": 2898,
      "undiluted": 2899,
      "pureed": 2900,
      "quality": 2901,
      "pers": 2902,
      "glut": 2903,
      "brief": 2904,
      "##enta": 2905,
      "bulk": 2906,
      "##oss": 2907,
      "wipe": 2908,
      "stack": 2909,
      "sauerkraut": 2910,
      "vigor": 2911,
      "rare": 2912,
      "sear": 2913,
      "##tta": 2914,
      "##ought": 2915,
      "fryer": 2916,
      "natur": 2917,
      "mill": 2918,
      "pal": 2919,
      "fall": 2920,
      "briefly": 2921,
      "circles": 2922,
      "bur": 2923,
      "polenta": 2924,
      "cloth": 2925,
      "burgers": 2926,
      "hazelnuts": 2927,
      "baguette": 2928,
      "pressed": 2929,
      "colored": 2930,
      "def": 2931,
      "granu": 2932,
      "parmig": 2933,
      "##cetta": 2934,
      "romano": 2935,
      "##ti": 2936,
      "nicely": 2937,
      "shelled": 2938,
      "mussels": 2939,
      "##mel": 2940,
      "400u00b0f": 2941,
      "pancetta": 2942,
      "##atever": 2943,
      "ovenproof": 2944,
      "pipe": 2945,
      "chori": 2946,
      "whatever": 2947,
      "grapef": 2948,
      "legs": 2949,
      "##ways": 2950,
      "simple": 2951,
      "##ara": 2952,
      "ling": 2953,
      "crusty": 2954,
      "vigorously": 2955,
      "caramelized": 2956,
      "puffed": 2957,
      "log": 2958,
      "##ith": 2959,
      "cornfl": 2960,
      "parmigiano": 2961,
      "fudge": 2962,
      "##ments": 2963,
      "boxes": 2964,
      "omit": 2965,
      "steamed": 2966,
      "sir": 2967,
      "combin": 2968,
      "chorizo": 2969,
      "##lea": 2970,
      "temp": 2971,
      "moisture": 2972,
      "##ug": 2973,
      "curr": 2974,
      "granules": 2975,
      "spoonfuls": 2976,
      "foamy": 2977,
      "##nda": 2978,
      "insert": 2979,
      "stre": 2980,
      "spreading": 2981,
      "easier": 2982,
      "##bet": 2983,
      "coun": 2984,
      "barely": 2985,
      "##sticks": 2986,
      "##lings": 2987,
      "count": 2988,
      "fraiche": 2989,
      "verm": 2990,
      "baste": 2991,
      "butternut": 2992,
      "anise": 2993,
      "shi": 2994,
      "protein": 2995,
      "continu": 2996,
      "brushing": 2997,
      "ring": 2998,
      "##hey": 2999,
      "chilli": 3000,
      "##bow": 3001,
      "overl": 3002,
      "tips": 3003,
      "dusting": 3004,
      "what": 3005,
      "mors": 3006,
      "##root": 3007,
      "lingu": 3008,
      "stuffed": 3009,
      "moisten": 3010,
      "##clo": 3011,
      "radishes": 3012,
      "pass": 3013,
      "containers": 3014,
      "fash": 3015,
      "##cm": 3016,
      "fashion": 3017,
      "##ydr": 3018,
      "directly": 3019,
      "##ailable": 3020,
      "##try": 3021,
      "##rub": 3022,
      "##ize": 3023,
      "counter": 3024,
      "gas": 3025,
      "cooks": 3026,
      "julien": 3027,
      "tongs": 3028,
      "ending": 3029,
      "tear": 3030,
      "36": 3031,
      "##ugh": 3032,
      "sub": 3033,
      "21": 3034,
      "22": 3035,
      "okra": 3036,
      "twist": 3037,
      "##aro": 3038,
      "##megr": 3039,
      "##resso": 3040,
      "grapefruit": 3041,
      "##ioli": 3042,
      "kettle": 3043,
      "cryst": 3044,
      "sauteed": 3045,
      "stop": 3046,
      "##ively": 3047,
      "julienned": 3048,
      "quite": 3049,
      "morsels": 3050,
      "bb": 3051,
      "gluten": 3052,
      "nectar": 3053,
      "cent": 3054,
      "regist": 3055,
      "180c": 3056,
      "lump": 3057,
      "lobster": 3058,
      "bubble": 3059,
      "pomegr": 3060,
      "##zels": 3061,
      "brownie": 3062,
      "slide": 3063,
      "here": 3064,
      "masala": 3065,
      "##kon": 3066,
      "pomegran": 3067,
      "blanched": 3068,
      "pretzels": 3069,
      "including": 3070,
      "scrub": 3071,
      "strong": 3072,
      "bbq": 3073,
      "##ggiano": 3074,
      "sirloin": 3075,
      "grin": 3076,
      "rye": 3077,
      "thai": 3078,
      "splash": 3079,
      "espresso": 3080,
      "lard": 3081,
      "spec": 3082,
      "##oid": 3083,
      "bottoms": 3084,
      "wait": 3085,
      "##ruits": 3086,
      "##ls": 3087,
      "many": 3088,
      "brisket": 3089,
      "ess": 3090,
      "figs": 3091,
      "poul": 3092,
      "reggiano": 3093,
      "notes": 3094,
      "wedge": 3095,
      "eye": 3096,
      "##ipped": 3097,
      "##anish": 3098,
      "wish": 3099,
      "imp": 3100,
      "##cook": 3101,
      "dumplings": 3102,
      "batch": 3103,
      "avoid": 3104,
      "liver": 3105,
      "snow": 3106,
      "remainder": 3107,
      "chard": 3108,
      "sple": 3109,
      "##outh": 3110,
      "power": 3111,
      "shapes": 3112,
      "karo": 3113,
      "brownies": 3114,
      "ver": 3115,
      "throw": 3116,
      "move": 3117,
      "natural": 3118,
      "refried": 3119,
      "available": 3120,
      "##ix": 3121,
      "repl": 3122,
      "liners": 3123,
      "160": 3124,
      "##eri": 3125,
      "shaker": 3126,
      "splenda": 3127,
      "incorporate": 3128,
      "coals": 3129,
      "heads": 3130,
      "looks": 3131,
      "flax": 3132,
      "distribute": 3133,
      "##arpone": 3134,
      "masc": 3135,
      "##mal": 3136,
      "pinto": 3137,
      "##food": 3138,
      "differ": 3139,
      "prick": 3140,
      "crunchy": 3141,
      "##uy": 3142,
      "smith": 3143,
      "poultry": 3144,
      "sil": 3145,
      "pomegranate": 3146,
      "##ns": 3147,
      "##estle": 3148,
      "stemmed": 3149,
      "ado": 3150,
      "mascarpone": 3151,
      "stage": 3152,
      "months": 3153,
      "fur": 3154,
      "##away": 3155,
      "##hydr": 3156,
      "99": 3157,
      "krisp": 3158,
      "##avour": 3159,
      "##mat": 3160,
      "granny": 3161,
      "mesh": 3162,
      "##cloth": 3163,
      "##ory": 3164,
      "recipes": 3165,
      "##iz": 3166,
      "hole": 3167,
      "pistachios": 3168,
      "shaped": 3169,
      "lg": 3170,
      "mal": 3171,
      "##eseed": 3172,
      "penne": 3173,
      "unblea": 3174,
      "##iento": 3175,
      "brine": 3176,
      "pickled": 3177,
      "unbleached": 3178,
      "caraway": 3179,
      "blade": 3180,
      "pimiento": 3181,
      "registers": 3182,
      "boils": 3183,
      "shaking": 3184,
      "##umm": 3185,
      "adobo": 3186,
      "breaking": 3187,
      "oysters": 3188,
      "bought": 3189,
      "flake": 3190,
      "charred": 3191,
      "pc": 3192,
      "ens": 3193,
      "within": 3194,
      "stra": 3195,
      "paddle": 3196,
      "stream": 3197,
      "bittersweet": 3198,
      "following": 3199,
      "tiny": 3200,
      "##ded": 3201,
      "##gn": 3202,
      "he": 3203,
      "further": 3204,
      "feel": 3205,
      "##itake": 3206,
      "outer": 3207,
      "pitcher": 3208,
      "##ioc": 3209,
      "rich": 3210,
      "spanish": 3211,
      "##ban": 3212,
      "healthy": 3213,
      "port": 3214,
      "fett": 3215,
      "manuf": 3216,
      "soups": 3217,
      "##ations": 3218,
      "gets": 3219,
      "marmal": 3220,
      "call": 3221,
      "placing": 3222,
      "bor": 3223,
      "sprinkled": 3224,
      "fruits": 3225,
      "rou": 3226,
      "marmalade": 3227,
      "tra": 3228,
      "krispies": 3229,
      "cheesecloth": 3230,
      "ears": 3231,
      "separately": 3232,
      "manufact": 3233,
      "225": 3234,
      "70": 3235,
      "seafood": 3236,
      "boned": 3237,
      "enchilada": 3238,
      "holl": 3239,
      "sections": 3240,
      "bottomed": 3241,
      "##fect": 3242,
      "resul": 3243,
      "pods": 3244,
      "pcs": 3245,
      "stone": 3246,
      "##ified": 3247,
      "375u00b0f": 3248,
      "sake": 3249,
      "tough": 3250,
      "##ila": 3251,
      "##ect": 3252,
      "##ioca": 3253,
      "manufactur": 3254,
      "type": 3255,
      "match": 3256,
      "tapioca": 3257,
      "bir": 3258,
      "steamer": 3259,
      "##pes": 3260,
      "perfect": 3261,
      "hers": 3262,
      "##airy": 3263,
      "90": 3264,
      "##roll": 3265,
      "ok": 3266,
      "section": 3267,
      "page": 3268,
      "mine": 3269,
      "block": 3270,
      "190": 3271,
      "heatproof": 3272,
      "##atively": 3273,
      "far": 3274,
      "##mint": 3275,
      "dashes": 3276,
      "fast": 3277,
      "assor": 3278,
      "toothpicks": 3279,
      "tru": 3280,
      "smoking": 3281,
      "mat": 3282,
      "dont": 3283,
      "elbow": 3284,
      "inter": 3285,
      "lot": 3286,
      "hershey": 3287,
      "ey": 3288,
      "parsn": 3289,
      "##aki": 3290,
      "spoonful": 3291,
      "halve": 3292,
      "poach": 3293,
      "38": 3294,
      "##bell": 3295,
      "##utney": 3296,
      "main": 3297,
      "chutney": 3298,
      "caj": 3299,
      "##ache": 3300,
      "maker": 3301,
      "##tain": 3302,
      "hus": 3303,
      "##eats": 3304,
      "##ems": 3305,
      "##apping": 3306,
      "165": 3307,
      "##iny": 3308,
      "leftovers": 3309,
      "##ml": 3310,
      "blackberries": 3311,
      "sprinkles": 3312,
      "teaspoonfuls": 3313,
      "pet": 3314,
      "link": 3315,
      "ones": 3316,
      "roux": 3317,
      "cutlets": 3318,
      "champ": 3319,
      "candies": 3320,
      "asian": 3321,
      "cour": 3322,
      "spears": 3323,
      "covering": 3324,
      "always": 3325,
      "sum": 3326,
      "id": 3327,
      "linguine": 3328,
      "##oriz": 3329,
      "##melon": 3330,
      "caramels": 3331,
      "russ": 3332,
      "##ucc": 3333,
      "cod": 3334,
      "elastic": 3335,
      "##ook": 3336,
      "cajun": 3337,
      "assorted": 3338,
      "agave": 3339,
      "80": 3340,
      "horiz": 3341,
      "grilling": 3342,
      "##cress": 3343,
      "##ket": 3344,
      "meth": 3345,
      "wrapped": 3346,
      "watercress": 3347,
      "watermelon": 3348,
      "brussels": 3349,
      "serrano": 3350,
      "ster": 3351,
      "##agne": 3352,
      "snipped": 3353,
      "allowing": 3354,
      "absorb": 3355,
      "bunches": 3356,
      "empt": 3357,
      "##aque": 3358,
      "duty": 3359,
      "reseal": 3360,
      "nutri": 3361,
      "stockpot": 3362,
      "flower": 3363,
      "anchovy": 3364,
      "veg": 3365,
      "blueberry": 3366,
      "prod": 3367,
      "jap": 3368,
      "oreo": 3369,
      "solids": 3370,
      "adv": 3371,
      "beet": 3372,
      "unfl": 3373,
      "liking": 3374,
      "##ested": 3375,
      "might": 3376,
      "essence": 3377,
      "##anese": 3378,
      "patty": 3379,
      "peppermint": 3380,
      "opaque": 3381,
      "champagne": 3382,
      "gruy": 3383,
      "person": 3384,
      "button": 3385,
      "empty": 3386,
      "triangles": 3387,
      "tro": 3388,
      "shaved": 3389,
      "prun": 3390,
      "shiitake": 3391,
      "reach": 3392,
      "gruyere": 3393,
      "sizz": 3394,
      "mirin": 3395,
      "farm": 3396,
      "night": 3397,
      "crockpot": 3398,
      "soon": 3399,
      "different": 3400,
      "##ouse": 3401,
      "special": 3402,
      "takes": 3403,
      "frothy": 3404,
      "currants": 3405,
      "##man": 3406,
      "charco": 3407,
      "intern": 3408,
      "blending": 3409,
      "marinated": 3410,
      "##enty": 3411,
      "eight": 3412,
      "resealable": 3413,
      "grits": 3414,
      "smashed": 3415,
      "japanese": 3416,
      "##oulder": 3417,
      "##ically": 3418,
      "miso": 3419,
      "jo": 3420,
      "int": 3421,
      "chee": 3422,
      "garam": 3423,
      "shoulder": 3424,
      "##ards": 3425,
      "charcoal": 3426,
      "pock": 3427,
      "simply": 3428,
      "wrappers": 3429,
      "king": 3430,
      "rap": 3431,
      "finally": 3432,
      "whiz": 3433,
      "tah": 3434,
      "##az": 3435,
      "forming": 3436,
      "##acha": 3437,
      "requ": 3438,
      "##avored": 3439,
      "##ills": 3440,
      "amoun": 3441,
      "flours": 3442,
      "##isin": 3443,
      "recommended": 3444,
      "caster": 3445,
      "marinara": 3446,
      "cit": 3447,
      "unflavored": 3448,
      "contents": 3449,
      "##met": 3450,
      "##scar": 3451,
      "kg": 3452,
      "amounts": 3453,
      "ki": 3454,
      "ear": 3455,
      "hel": 3456,
      "orzo": 3457,
      "##vil": 3458,
      "alternating": 3459,
      "palm": 3460,
      "sr": 3461,
      "bulb": 3462,
      "manufacturer": 3463,
      "praw": 3464,
      "garban": 3465,
      "deli": 3466,
      "molds": 3467,
      "48": 3468,
      "heating": 3469,
      "melon": 3470,
      "sugg": 3471,
      "discarding": 3472,
      "bottled": 3473,
      "cavity": 3474,
      "tomat": 3475,
      "did": 3476,
      "overcook": 3477,
      "fam": 3478,
      "poke": 3479,
      "prett": 3480,
      "##olone": 3481,
      "corner": 3482,
      "provolone": 3483,
      "preferred": 3484,
      "burning": 3485,
      "listed": 3486,
      "tel": 3487,
      "flo": 3488,
      "stored": 3489,
      "pints": 3490,
      "tahini": 3491,
      "tomatill": 3492,
      "##ys": 3493,
      "pobl": 3494,
      "val": 3495,
      "tequ": 3496,
      "packets": 3497,
      "ensure": 3498,
      "sweetener": 3499,
      "yu": 3500,
      "space": 3501,
      "srir": 3502,
      "flavour": 3503,
      "diagonal": 3504,
      "##by": 3505,
      "##ante": 3506,
      "centre": 3507,
      "waffle": 3508,
      "##ures": 3509,
      "method": 3510,
      "keeping": 3511,
      "gent": 3512,
      "ten": 3513,
      "disk": 3514,
      "tequila": 3515,
      "think": 3516,
      "sor": 3517,
      "scram": 3518,
      "dairy": 3519,
      "##ople": 3520,
      "##uri": 3521,
      "defro": 3522,
      "sriracha": 3523,
      "##anks": 3524,
      "people": 3525,
      "hoisin": 3526,
      "pimentos": 3527,
      "seg": 3528,
      "advance": 3529,
      "plums": 3530,
      "internal": 3531,
      "zipl": 3532,
      "lids": 3533,
      "safeway": 3534,
      "fashioned": 3535,
      "wonton": 3536,
      "mm": 3537,
      "snap": 3538,
      "eggplants": 3539,
      "8x": 3540,
      "overlapping": 3541,
      "colour": 3542,
      "##umbo": 3543,
      "##ontally": 3544,
      "ste": 3545,
      "julienne": 3546,
      "mort": 3547,
      "##elli": 3548,
      "horizontally": 3549,
      "formed": 3550,
      "nearly": 3551,
      "##cini": 3552,
      "##mers": 3553,
      "against": 3554,
      "exp": 3555,
      "gan": 3556,
      "gentle": 3557,
      "going": 3558,
      "pretty": 3559,
      "baker": 3560,
      "tuck": 3561,
      "##yaki": 3562,
      "rock": 3563,
      "##ible": 3564,
      "replace": 3565,
      "ques": 3566,
      "garbanzo": 3567,
      "fettucc": 3568,
      "tester": 3569,
      "loose": 3570,
      "##ffles": 3571,
      "##berg": 3572,
      "##bur": 3573,
      "weigh": 3574,
      "amar": 3575,
      "steril": 3576,
      "brew": 3577,
      "##eep": 3578,
      "wo": 3579,
      "##ince": 3580,
      "##elf": 3581,
      "sherbet": 3582,
      "tall": 3583,
      "meats": 3584,
      "berry": 3585,
      "slaw": 3586,
      "ganache": 3587,
      "##cle": 3588,
      "club": 3589,
      "##acing": 3590,
      "garnished": 3591,
      "scant": 3592,
      "appear": 3593,
      "alternate": 3594,
      "cy": 3595,
      "degl": 3596,
      "choy": 3597,
      "##can": 3598,
      "thicker": 3599,
      "steel": 3600,
      "cheez": 3601,
      "picante": 3602,
      "##ran": 3603,
      "omel": 3604,
      "border": 3605,
      "##vies": 3606,
      "option": 3607,
      "gloss": 3608,
      "aid": 3609,
      "hollow": 3610,
      "slits": 3611,
      "chow": 3612,
      "py": 3613,
      "family": 3614,
      "whis": 3615,
      "##hee": 3616,
      "dogs": 3617,
      "pip": 3618,
      "##ume": 3619,
      "pickling": 3620,
      "where": 3621,
      "wafer": 3622,
      "sav": 3623,
      "kal": 3624,
      "unw": 3625,
      "whiskey": 3626,
      "fiber": 3627,
      "inf": 3628,
      "##cream": 3629,
      "prawns": 3630,
      "patter": 3631,
      "tails": 3632,
      "anchovies": 3633,
      "bamb": 3634,
      "steep": 3635,
      "bamboo": 3636,
      "##ones": 3637,
      "russet": 3638,
      "chef": 3639,
      "aro": 3640,
      "raise": 3641,
      "masher": 3642,
      "drip": 3643,
      "followed": 3644,
      "lite": 3645,
      "ko": 3646,
      "##ams": 3647,
      "keeps": 3648,
      "fair": 3649,
      "rav": 3650,
      "##dy": 3651,
      "combination": 3652,
      "plan": 3653,
      "##grass": 3654,
      "proces": 3655,
      "pies": 3656,
      "unm": 3657,
      "lima": 3658,
      "rapid": 3659,
      "teri": 3660,
      "import": 3661,
      "guac": 3662,
      "pho": 3663,
      "sealed": 3664,
      "crepe": 3665,
      "overb": 3666,
      "lengths": 3667,
      "##entation": 3668,
      "##5u00b0": 3669,
      "##igg": 3670,
      "those": 3671,
      "##mg": 3672,
      "170": 3673,
      "final": 3674,
      "kiw": 3675,
      "lemongrass": 3676,
      "hi": 3677,
      "mortar": 3678,
      "##amata": 3679,
      "##bury": 3680,
      "important": 3681,
      "rough": 3682,
      "throughout": 3683,
      "##ner": 3684,
      "##ami": 3685,
      "accom": 3686,
      "teriyaki": 3687,
      "##da": 3688,
      "##orino": 3689,
      "burner": 3690,
      "basket": 3691,
      "fan": 3692,
      "drum": 3693,
      "##ettes": 3694,
      "lip": 3695,
      "deglaze": 3696,
      "microwav": 3697,
      "gingerroot": 3698,
      "fettuccine": 3699,
      "##mix": 3700,
      "##amole": 3701,
      "##cl": 3702,
      "##rex": 3703,
      "liber": 3704,
      "pecorino": 3705,
      "grinder": 3706,
      "rose": 3707,
      "##x2": 3708,
      "corned": 3709,
      "tran": 3710,
      "pinches": 3711,
      "vis": 3712,
      "tastes": 3713,
      "##aca": 3714,
      "pyrex": 3715,
      "prunes": 3716,
      "heart": 3717,
      "guacamole": 3718,
      "vermouth": 3719,
      "variet": 3720,
      "##vals": 3721,
      "bok": 3722,
      "noodle": 3723,
      "reads": 3724,
      "unroll": 3725,
      "mot": 3726,
      "coll": 3727,
      "drizzling": 3728,
      "shim": 3729,
      "pierce": 3730,
      "raisin": 3731,
      "leg": 3732,
      "preparing": 3733,
      "pattern": 3734,
      "found": 3735,
      "bottles": 3736,
      "smok": 3737,
      "flank": 3738,
      "##u00b0c": 3739,
      "cob": 3740,
      "parsnips": 3741,
      "##ita": 3742,
      "tort": 3743,
      "thickest": 3744,
      "unmold": 3745,
      "kalamata": 3746,
      "##aff": 3747,
      "foods": 3748,
      "fun": 3749,
      "summer": 3750,
      "##ote": 3751,
      "hun": 3752,
      "popped": 3753,
      "##ple": 3754,
      "poblano": 3755,
      "##ousse": 3756,
      "bird": 3757,
      "cools": 3758,
      "tasty": 3759,
      "assemb": 3760,
      "country": 3761,
      "harden": 3762,
      "fairly": 3763,
      "tested": 3764,
      "vol": 3765,
      "dream": 3766,
      "mousse": 3767,
      "creole": 3768,
      "looking": 3769,
      "scrubbed": 3770,
      "26": 3771,
      "pri": 3772,
      "pistachio": 3773,
      "##be": 3774,
      "love": 3775,
      "piping": 3776,
      "soaking": 3777,
      "har": 3778,
      "vegan": 3779,
      "ribbon": 3780,
      "##oots": 3781,
      "crem": 3782,
      "ravioli": 3783,
      "health": 3784,
      "dun": 3785,
      "tablespoonfuls": 3786,
      "##ept": 3787,
      "tbl": 3788,
      "##dough": 3789,
      "prep": 3790,
      "##enhe": 3791,
      "bed": 3792,
      "##illsbury": 3793,
      "ram": 3794,
      "##efry": 3795,
      "neck": 3796,
      "plenty": 3797,
      "##ember": 3798,
      "sautefry": 3799,
      "fries": 3800,
      "##orn": 3801,
      "ghee": 3802,
      "stret": 3803,
      "##enheit": 3804,
      "dipped": 3805,
      "memb": 3806,
      "rectangles": 3807,
      "kept": 3808,
      "house": 3809,
      "pile": 3810,
      "##val": 3811,
      "flow": 3812,
      "275": 3813,
      "alternatively": 3814,
      "runny": 3815,
      "results": 3816,
      "##rn": 3817,
      "pierced": 3818,
      "appet": 3819,
      "120": 3820,
      "beaters": 3821,
      "stay": 3822,
      "glossy": 3823,
      "liter": 3824,
      "sourdough": 3825,
      "granola": 3826,
      "78": 3827,
      "gather": 3828,
      "grand": 3829,
      "##idge": 3830,
      "dec": 3831,
      "##zn": 3832,
      "pillsbury": 3833,
      "carbo": 3834,
      "sou": 3835,
      "##ever": 3836,
      "transpar": 3837,
      "continuously": 3838,
      "frzn": 3839,
      "render": 3840,
      "liberally": 3841,
      "letting": 3842,
      "transparent": 3843,
      "stead": 3844,
      "slit": 3845,
      "morning": 3846,
      "membran": 3847,
      "ins": 3848,
      "##ured": 3849,
      "obl": 3850,
      "since": 3851,
      "camp": 3852,
      "nutritional": 3853,
      "straight": 3854,
      "325f": 3855,
      "##ats": 3856,
      "##end": 3857,
      "ven": 3858,
      "pearl": 3859,
      "##kets": 3860,
      "##rus": 3861,
      "centers": 3862,
      "photo": 3863,
      "##bas": 3864,
      "oblong": 3865,
      "score": 3866,
      "250u00b0": 3867,
      "gn": 3868,
      "brie": 3869,
      "##ready": 3870,
      "yukon": 3871,
      "tortellini": 3872,
      "trad": 3873,
      "volume": 3874,
      "##kes": 3875,
      "preference": 3876,
      "taking": 3877,
      "substituted": 3878,
      "segments": 3879,
      "crepes": 3880,
      "links": 3881,
      "lady": 3882,
      "sterilized": 3883,
      "nav": 3884,
      "scor": 3885,
      "29": 3886,
      "##acao": 3887,
      "had": 3888,
      "reached": 3889,
      "simil": 3890,
      "lots": 3891,
      "care": 3892,
      "already": 3893,
      "folding": 3894,
      "tamari": 3895,
      "somet": 3896,
      "intact": 3897,
      "##fast": 3898,
      "bea": 3899,
      "seems": 3900,
      "placed": 3901,
      "8x8": 3902,
      "similar": 3903,
      "holds": 3904,
      "##aturated": 3905,
      "##ative": 3906,
      "beater": 3907,
      "strained": 3908,
      "##ming": 3909,
      "choles": 3910,
      "suff": 3911,
      "##uls": 3912,
      "##terol": 3913,
      "citrus": 3914,
      "intervals": 3915,
      "our": 3916,
      "##law": 3917,
      "salami": 3918,
      "cholesterol": 3919,
      "act": 3920,
      "stretch": 3921,
      "called": 3922,
      "tomatillos": 3923,
      "breakfast": 3924,
      "mark": 3925,
      "vary": 3926,
      "coles": 3927,
      "rotating": 3928,
      "coleslaw": 3929,
      "were": 3930,
      "lowest": 3931,
      "upside": 3932,
      "lipton": 3933,
      "sam": 3934,
      "bright": 3935,
      "vers": 3936,
      "month": 3937,
      "carbohydr": 3938,
      "smell": 3939,
      "toffee": 3940,
      "cannellini": 3941,
      "alf": 3942,
      "ach": 3943,
      "know": 3944,
      "gone": 3945,
      "fitting": 3946,
      "##ahr": 3947,
      "##time": 3948,
      "purple": 3949,
      "tent": 3950,
      "pretzel": 3951,
      "starter": 3952,
      "cuts": 3953,
      "zested": 3954,
      "german": 3955,
      "accompan": 3956,
      "sometimes": 3957,
      "logs": 3958,
      "variety": 3959,
      "crimp": 3960,
      "##ahrenheit": 3961,
      "bulg": 3962,
      "emuls": 3963,
      "file": 3964,
      "arb": 3965,
      "bal": 3966,
      "thickly": 3967,
      "crumbles": 3968,
      "soo": 3969,
      "fahrenheit": 3970,
      "spark": 3971,
      "given": 3972,
      "nor": 3973,
      "snack": 3974,
      "gum": 3975,
      "##mersion": 3976,
      "pepperidge": 3977,
      "##ison": 3978,
      "cornflakes": 3979,
      "sq": 3980,
      "corners": 3981,
      "scalded": 3982,
      "yo": 3983,
      "spir": 3984,
      "##ado": 3985,
      "pestle": 3986,
      "gnoc": 3987,
      "##here": 3988,
      "prop": 3989,
      "mushy": 3990,
      "suffici": 3991,
      "course": 3992,
      "##basa": 3993,
      "dep": 3994,
      "kiel": 3995,
      "fingert": 3996,
      "##16": 3997,
      "ta": 3998,
      "goes": 3999,
      "preparation": 4000,
      "##ape": 4001,
      "gnocchi": 4002,
      "##abi": 4003,
      "buttercream": 4004,
      "basic": 4005,
      "trays": 4006,
      "##ava": 4007,
      "squid": 4008,
      "grains": 4009,
      "immersion": 4010,
      "eating": 4011,
      "plant": 4012,
      "rotel": 4013,
      "58": 4014,
      "##ibut": 4015,
      "picked": 4016,
      "class": 4017,
      "cling": 4018,
      "peeler": 4019,
      "please": 4020,
      "jumbo": 4021,
      "bulgur": 4022,
      "closed": 4023,
      "buy": 4024,
      "rectangular": 4025,
      "hell": 4026,
      "##mati": 4027,
      "sooper": 4028,
      "ir": 4029,
      "produ": 4030,
      "submer": 4031,
      "atop": 4032,
      "calorie": 4033,
      "##eable": 4034,
      "stain": 4035,
      "chickens": 4036,
      "kielbasa": 4037,
      "pas": 4038,
      "area": 4039,
      "##eath": 4040,
      "based": 4041,
      "##ili": 4042,
      "door": 4043,
      "##otto": 4044,
      "pouring": 4045,
      "basmati": 4046,
      "steady": 4047,
      "evapor": 4048,
      "yet": 4049,
      "turnips": 4050,
      "##ulled": 4051,
      "gin": 4052,
      "gor": 4053,
      "lr": 4054,
      "##omme": 4055,
      "veggie": 4056,
      "ingredient": 4057,
      "##ji": 4058,
      "sink": 4059,
      "silk": 4060,
      "choose": 4061,
      "halibut": 4062,
      "au": 4063,
      "putting": 4064,
      "worry": 4065,
      "scoops": 4066,
      "##alia": 4067,
      "sparkling": 4068,
      "though": 4069,
      "shimmer": 4070,
      "kiwi": 4071,
      "mu": 4072,
      "##etto": 4073,
      "##irt": 4074,
      "risen": 4075,
      "mcc": 4076,
      "gelat": 4077,
      "325u00b0f": 4078,
      "kneading": 4079,
      "dog": 4080,
      "risotto": 4081,
      "##ipping": 4082,
      "liquids": 4083,
      "spon": 4084,
      "##ond": 4085,
      "##ghurt": 4086,
      "112": 4087,
      "brewed": 4088,
      "needs": 4089,
      "##bone": 4090,
      "##x10": 4091,
      "lrg": 4092,
      "hair": 4093,
      "ramen": 4094,
      "sautee": 4095,
      "##ctin": 4096,
      "110": 4097,
      "classic": 4098,
      "caramelize": 4099,
      "remember": 4100,
      "valley": 4101,
      "dori": 4102,
      "yoghurt": 4103,
      "variation": 4104,
      "##ortion": 4105,
      "land": 4106,
      "colby": 4107,
      "mg": 4108,
      "##izer": 4109,
      "triple": 4110,
      "adap": 4111,
      "gro": 4112,
      "pectin": 4113,
      "triangle": 4114,
      "springs": 4115,
      "##ormick": 4116,
      "esc": 4117,
      "equally": 4118,
      "fond": 4119,
      "vid": 4120,
      "amaretto": 4121,
      "oscar": 4122,
      "meatlo": 4123,
      "consomme": 4124,
      "macad": 4125,
      "##dden": 4126,
      "proportion": 4127,
      "yams": 4128,
      "venison": 4129,
      "tots": 4130,
      "required": 4131,
      "mccormick": 4132,
      "upper": 4133,
      "proced": 4134,
      "##loins": 4135,
      "##esson": 4136,
      "##ster": 4137,
      "hulled": 4138,
      "wesson": 4139,
      "nori": 4140,
      "whe": 4141,
      "unif": 4142,
      "tradition": 4143,
      "goo": 4144,
      "complete": 4145,
      "sponge": 4146,
      "ma": 4147,
      "tenderloins": 4148,
      "hellman": 4149,
      "shiny": 4150,
      "healthier": 4151,
      "##gnac": 4152,
      "mayer": 4153,
      "gelatine": 4154,
      "cognac": 4155,
      "wing": 4156,
      "evaporates": 4157,
      "uniform": 4158,
      "maintain": 4159,
      "la": 4160,
      "hook": 4161,
      "layering": 4162,
      "##che": 4163,
      "rag": 4164,
      "mul": 4165,
      "doritos": 4166,
      "forks": 4167,
      "ba": 4168,
      "475": 4169,
      "drumsticks": 4170,
      "##iment": 4171,
      "additions": 4172,
      "##ummy": 4173,
      "lakes": 4174,
      "##usel": 4175,
      "paring": 4176,
      "creating": 4177,
      "vidalia": 4178,
      "hock": 4179,
      "otherwise": 4180,
      "grapeseed": 4181,
      "clos": 4182,
      "chillies": 4183,
      "float": 4184,
      "##illed": 4185,
      "turned": 4186,
      "evoo": 4187,
      "mein": 4188,
      "procedure": 4189,
      "overmix": 4190,
      "butterf": 4191,
      "##imum": 4192,
      "dai": 4193,
      "fe": 4194,
      "hens": 4195,
      "opp": 4196,
      "jiff": 4197,
      "oval": 4198,
      "nap": 4199,
      "getting": 4200,
      "##ero": 4201,
      "souffle": 4202,
      "##nier": 4203,
      "poin": 4204,
      "prior": 4205,
      "tater": 4206,
      "home": 4207,
      "jiffy": 4208,
      "kab": 4209,
      "sna": 4210,
      "campbell": 4211,
      "streusel": 4212,
      "serrated": 4213,
      "hazelnut": 4214,
      "rad": 4215,
      "prob": 4216,
      "##ests": 4217,
      "tamar": 4218,
      "46": 4219,
      "accent": 4220,
      "wonder": 4221,
      "##lin": 4222,
      "mars": 4223,
      "lumpy": 4224,
      "however": 4225,
      "tan": 4226,
      "meatloaf": 4227,
      "sufficient": 4228,
      "adapted": 4229,
      "pod": 4230,
      "truffle": 4231,
      "750": 4232,
      "stainless": 4233,
      "helps": 4234,
      "ton": 4235,
      "##weed": 4236,
      "##iblets": 4237,
      "thumb": 4238,
      "##used": 4239,
      "traditional": 4240,
      "220": 4241,
      "savory": 4242,
      "425u00b0f": 4243,
      "fingertips": 4244,
      "spots": 4245,
      "porcini": 4246,
      "hidden": 4247,
      "lab": 4248,
      "ziploc": 4249,
      "deseed": 4250,
      "##iness": 4251,
      "##io": 4252,
      "melting": 4253,
      "meantime": 4254,
      "tamarind": 4255,
      "sho": 4256,
      "pocket": 4257,
      "##ign": 4258,
      "overh": 4259,
      "probably": 4260,
      "##amia": 4261,
      "plantain": 4262,
      "version": 4263,
      "syrupy": 4264,
      "hab": 4265,
      "##land": 4266,
      "cane": 4267,
      "##zola": 4268,
      "flowers": 4269,
      "canning": 4270,
      "product": 4271,
      "macadamia": 4272,
      "fig": 4273,
      "rotate": 4274,
      "crow": 4275,
      "processed": 4276,
      "freezes": 4277,
      "flak": 4278,
      "standing": 4279,
      "coats": 4280,
      "vermic": 4281,
      "opening": 4282,
      "##ius": 4283,
      "eyed": 4284,
      "tid": 4285,
      "toward": 4286,
      "##gonzola": 4287,
      "thinner": 4288,
      "kool": 4289,
      "##ceed": 4290,
      "marnier": 4291,
      "unwrap": 4292,
      "sweat": 4293,
      "cantal": 4294,
      "##fine": 4295,
      "confectioner": 4296,
      "clumps": 4297,
      "mass": 4298,
      "##ago": 4299,
      "vermicelli": 4300,
      "gorgonzola": 4301,
      "##ged": 4302,
      "kabo": 4303,
      "overhang": 4304,
      "##aya": 4305,
      "omelet": 4306,
      "trout": 4307,
      "200c": 4308,
      "wilt": 4309,
      "fle": 4310,
      "rather": 4311,
      "shanks": 4312,
      "shaving": 4313,
      "salty": 4314,
      "cacao": 4315,
      "##neath": 4316,
      "underneath": 4317,
      "marsala": 4318,
      "burri": 4319,
      "shimmering": 4320,
      "proceed": 4321,
      "mart": 4322,
      "touched": 4323,
      "holding": 4324,
      "remains": 4325,
      "sch": 4326,
      "1t": 4327,
      "standard": 4328,
      "thing": 4329,
      "##acts": 4330,
      "able": 4331,
      "diet": 4332,
      "wasabi": 4333,
      "##ura": 4334,
      "flipping": 4335,
      "discarded": 4336,
      "cantaloup": 4337,
      "kah": 4338,
      "dashi": 4339,
      "date": 4340,
      "##quet": 4341,
      "never": 4342,
      "##azed": 4343,
      "superfine": 4344,
      "bitter": 4345,
      "##12": 4346,
      "nestle": 4347,
      "iceberg": 4348,
      "##boil": 4349,
      "depends": 4350,
      "##chio": 4351,
      "##utter": 4352,
      "hines": 4353,
      "millili": 4354,
      "alongside": 4355,
      "irish": 4356,
      "##coh": 4357,
      "flaky": 4358,
      "##olina": 4359,
      "##cell": 4360,
      "##ord": 4361,
      "party": 4362,
      "grater": 4363,
      "##aps": 4364,
      "alfred": 4365,
      "blood": 4366,
      "lock": 4367,
      "tidb": 4368,
      "chex": 4369,
      "115": 4370,
      "mace": 4371,
      "##ils": 4372,
      "proper": 4373,
      "scones": 4374,
      "duncan": 4375,
      "kahlu": 4376,
      "alfredo": 4377,
      "##tures": 4378,
      "radic": 4379,
      "425f": 4380,
      "husks": 4381,
      "hellmann": 4382,
      "kahlua": 4383,
      "liquor": 4384,
      "silic": 4385,
      "feed": 4386,
      "ladyf": 4387,
      "norther": 4388,
      "##ution": 4389,
      "else": 4390,
      "livers": 4391,
      "##work": 4392,
      "cornflour": 4393,
      "##arian": 4394,
      "northern": 4395,
      "tim": 4396,
      "case": 4397,
      "radicchio": 4398,
      "devel": 4399,
      "casings": 4400,
      "eyes": 4401,
      "oppos": 4402,
      "change": 4403,
      "filets": 4404,
      "steaming": 4405,
      "opposite": 4406,
      "lat": 4407,
      "nach": 4408,
      "sto": 4409,
      "greasing": 4410,
      "mallet": 4411,
      "haban": 4412,
      "spiral": 4413,
      "bouquet": 4414,
      "mostly": 4415,
      "##what": 4416,
      "anything": 4417,
      "##shi": 4418,
      "65": 4419,
      "tidbits": 4420,
      "isn": 4421,
      "chew": 4422,
      "9x": 4423,
      "touching": 4424,
      "overbake": 4425,
      "mug": 4426,
      "##opes": 4427,
      "somewhat": 4428,
      "##aces": 4429,
      "edam": 4430,
      "seper": 4431,
      "scorch": 4432,
      "attached": 4433,
      "cantaloupe": 4434,
      "##elle": 4435,
      "body": 4436,
      "##ifted": 4437,
      "##ama": 4438,
      "vit": 4439,
      "tang": 4440,
      "daikon": 4441,
      "sushi": 4442,
      "stores": 4443,
      "##matic": 4444,
      "martini": 4445,
      "swir": 4446,
      "gm": 4447,
      "spreadable": 4448,
      "##avender": 4449,
      "moon": 4450,
      "distributed": 4451,
      "carving": 4452,
      "spiced": 4453,
      "mangoes": 4454,
      "kat": 4455,
      "ci": 4456,
      "mounds": 4457,
      "shavings": 4458,
      "##rel": 4459,
      "font": 4460,
      "##ille": 4461,
      "endive": 4462,
      "saturated": 4463,
      "something": 4464,
      "pops": 4465,
      "devil": 4466,
      "deseeded": 4467,
      "suit": 4468,
      "escape": 4469,
      "kiss": 4470,
      "##ware": 4471,
      "##ba": 4472,
      "##oor": 4473,
      "continuing": 4474,
      "##ma": 4475,
      "##pre": 4476,
      "rapidly": 4477,
      "15x10": 4478,
      "##aise": 4479,
      "##mar": 4480,
      "patted": 4481,
      "##orio": 4482,
      "glazed": 4483,
      "##amel": 4484,
      "envelopes": 4485,
      "##mine": 4486,
      "unsifted": 4487,
      "alcoh": 4488,
      "extracts": 4489,
      "fontina": 4490,
      "giblets": 4491,
      "seven": 4492,
      "ragu": 4493,
      "buck": 4494,
      "scraps": 4495,
      "norm": 4496,
      "##tz": 4497,
      "acid": 4498,
      "depth": 4499,
      "select": 4500,
      "kno": 4501,
      "##ossom": 4502,
      "seaweed": 4503,
      "sauces": 4504,
      "rotini": 4505,
      "blossom": 4506,
      "wid": 4507,
      "sound": 4508,
      "shoots": 4509,
      "aromatic": 4510,
      "rig": 4511,
      "tbls": 4512,
      "bark": 4513,
      "##ki": 4514,
      "porto": 4515,
      "arborio": 4516,
      "vert": 4517,
      "combining": 4518,
      "desire": 4519,
      "semolina": 4520,
      "cremini": 4521,
      "gratin": 4522,
      "film": 4523,
      "##cha": 4524,
      "##lt": 4525,
      "clar": 4526,
      "breads": 4527,
      "zesty": 4528,
      "groc": 4529,
      "0206": 4530,
      "saltine": 4531,
      "##itch": 4532,
      "balance": 4533,
      "storage": 4534,
      "edamame": 4535,
      "##iago": 4536,
      "microwaveable": 4537,
      "waffles": 4538,
      "##rec": 4539,
      "frank": 4540,
      "crystall": 4541,
      "brick": 4542,
      "##seed": 4543,
      "spoons": 4544,
      "##anth": 4545,
      "##urry": 4546,
      "stovetop": 4547,
      "##eaten": 4548,
      "asiago": 4549,
      "##ane": 4550,
      "key": 4551,
      "##ibs": 4552,
      "wonderful": 4553,
      "pou": 4554,
      "checking": 4555,
      "vegetarian": 4556,
      "cels": 4557,
      "tenders": 4558,
      "threads": 4559,
      "rabb": 4560,
      "celsius": 4561,
      "steps": 4562,
      "papaya": 4563,
      "sorbet": 4564,
      "frypan": 4565,
      "##affin": 4566,
      "##ues": 4567,
      "##ggy": 4568,
      "jigg": 4569,
      "##ised": 4570,
      "paraffin": 4571,
      "matzo": 4572,
      "crystals": 4573,
      "9x5": 4574,
      "cola": 4575,
      "portobell": 4576,
      "drying": 4577,
      "weights": 4578,
      "oils": 4579,
      "cycle": 4580,
      "##apia": 4581,
      "nutella": 4582,
      "mixtures": 4583,
      "##issor": 4584,
      "ribbons": 4585,
      "fourths": 4586,
      "humm": 4587,
      "defrosted": 4588,
      "okay": 4589,
      "scissor": 4590,
      "##zu": 4591,
      "draw": 4592,
      "##icum": 4593,
      "##asts": 4594,
      "spar": 4595,
      "##via": 4596,
      "mom": 4597,
      "facing": 4598,
      "habanero": 4599,
      "handfuls": 4600,
      "##right": 4601,
      "scraped": 4602,
      "yours": 4603,
      "who": 4604,
      "##fa": 4605,
      "cutters": 4606,
      "scramble": 4607,
      "blackberry": 4608,
      "hominy": 4609,
      "450f": 4610,
      "tilapia": 4611,
      "belly": 4612,
      "garnishes": 4613,
      "capsicum": 4614,
      "hummus": 4615,
      "lavender": 4616,
      "craw": 4617,
      "##net": 4618,
      "debon": 4619,
      "##ify": 4620,
      "slivers": 4621,
      "##utes": 4622,
      "ladyfingers": 4623,
      "defrost": 4624,
      "curls": 4625,
      "switch": 4626,
      "milliliters": 4627,
      "140": 4628,
      "masa": 4629,
      "ben": 4630,
      "sout": 4631,
      "encl": 4632,
      "##anc": 4633,
      "apply": 4634,
      "glo": 4635,
      "unf": 4636,
      "pith": 4637,
      "##akuri": 4638,
      "sizzle": 4639,
      "fourth": 4640,
      "katakuri": 4641,
      "deboned": 4642,
      "maybe": 4643,
      "insides": 4644,
      "turnip": 4645,
      "rendered": 4646,
      "scald": 4647,
      "develop": 4648,
      "katakuriko": 4649,
      "eff": 4650,
      "silicone": 4651,
      "##ical": 4652,
      "stopping": 4653,
      "swirling": 4654,
      "enclose": 4655,
      "pimientos": 4656,
      "prev": 4657,
      "##aj": 4658,
      "moving": 4659,
      "chefs": 4660,
      "amp": 4661,
      "hang": 4662,
      "pain": 4663,
      "scissors": 4664,
      "oreos": 4665,
      "source": 4666,
      "crawfish": 4667,
      "blackened": 4668,
      "alcohol": 4669,
      "tests": 4670,
      "flute": 4671,
      "law": 4672,
      "dusted": 4673,
      "cannot": 4674,
      "juicy": 4675,
      "queso": 4676,
      "inform": 4677,
      "chia": 4678,
      "mus": 4679,
      "decorating": 4680,
      "micro": 4681,
      "hol": 4682,
      "puffs": 4683,
      "enchiladas": 4684,
      "##oses": 4685,
      "roaster": 4686,
      "##sch": 4687,
      "slight": 4688,
      "ramekin": 4689,
      "tanger": 4690,
      "face": 4691,
      "nar": 4692,
      "ceramic": 4693,
      "retain": 4694,
      "unbeaten": 4695,
      "information": 4696,
      "##go": 4697,
      "clarified": 4698,
      "filet": 4699,
      "sets": 4700,
      "quiche": 4701,
      "chewy": 4702,
      "variations": 4703,
      "pli": 4704,
      "sealing": 4705,
      "exact": 4706,
      "jer": 4707,
      "##for": 4708,
      "bi": 4709,
      "distilled": 4710,
      "##den": 4711,
      "##iding": 4712,
      "omitting": 4713,
      "##ipment": 4714,
      "minimum": 4715,
      "narrow": 4716,
      "quesad": 4717,
      "equipment": 4718,
      "diam": 4719,
      "teaspoonful": 4720,
      "gou": 4721,
      "freezing": 4722,
      "poached": 4723,
      "raising": 4724,
      "hick": 4725,
      "smoker": 4726,
      "ob": 4727,
      "catch": 4728,
      "options": 4729,
      "portobello": 4730,
      "samb": 4731,
      "barbe": 4732,
      "quant": 4733,
      "itself": 4734,
      "decorative": 4735,
      "pockets": 4736,
      "accum": 4737,
      "mouth": 4738,
      "twine": 4739,
      "aioli": 4740,
      "knor": 4741,
      "cra": 4742,
      "peri": 4743,
      "frit": 4744,
      "600": 4745,
      "buff": 4746,
      "decoration": 4747,
      "hickory": 4748,
      "beaut": 4749,
      "resemble": 4750,
      "assembly": 4751,
      "##ried": 4752,
      "rotis": 4753,
      "mandol": 4754,
      "soymilk": 4755,
      "plump": 4756,
      "grocery": 4757,
      "tot": 4758,
      "scrambled": 4759,
      "##set": 4760,
      "butt": 4761,
      "fritos": 4762,
      "knorr": 4763,
      "packag": 4764,
      "toaster": 4765,
      "include": 4766,
      "jas": 4767,
      "##app": 4768,
      "dra": 4769,
      "rows": 4770,
      "shel": 4771,
      "label": 4772,
      "grey": 4773,
      "shortbread": 4774,
      "rust": 4775,
      "espec": 4776,
      "crystallized": 4777,
      "rip": 4778,
      "##atta": 4779,
      "angle": 4780,
      "##itation": 4781,
      "##recipes": 4782,
      "##osed": 4783,
      "fluted": 4784,
      "eaten": 4785,
      "flowerets": 4786,
      "jic": 4787,
      "##irect": 4788,
      "jasmine": 4789,
      "pliable": 4790,
      "indirect": 4791,
      "##bu": 4792,
      "bulbs": 4793,
      "##abs": 4794,
      "jicama": 4795,
      "island": 4796,
      "##itas": 4797,
      "especially": 4798,
      "carn": 4799,
      "mixes": 4800,
      "mess": 4801,
      "##plate": 4802,
      "rabbit": 4803,
      "net": 4804,
      "pared": 4805,
      "gives": 4806,
      "pil": 4807,
      "imitation": 4808,
      "##10": 4809,
      "##aken": 4810,
      "sweetness": 4811,
      "grass": 4812,
      "##bin": 4813,
      "##ada": 4814,
      "matchsticks": 4815,
      "##verage": 4816,
      "gouda": 4817,
      "falling": 4818,
      "vitam": 4819,
      "##inz": 4820,
      "carbohydrate": 4821,
      "screw": 4822,
      "disp": 4823,
      "overlap": 4824,
      "snapper": 4825,
      "##oil": 4826,
      "debone": 4827,
      "provided": 4828,
      "percent": 4829,
      "rnrn": 4830,
      "lasagne": 4831,
      "didn": 4832,
      "15x10x1": 4833,
      "decrease": 4834,
      "navy": 4835,
      "##ities": 4836,
      "27": 4837,
      "doz": 4838,
      "upright": 4839,
      "peels": 4840,
      "aged": 4841,
      "##over": 4842,
      "finishing": 4843,
      "rigat": 4844,
      "##resh": 4845,
      "filter": 4846,
      "folded": 4847,
      "slip": 4848,
      "##und": 4849,
      "rope": 4850,
      "sauc": 4851,
      "proportionately": 4852,
      "nacho": 4853,
      "##serie": 4854,
      "parboil": 4855,
      "stiffly": 4856,
      "130": 4857,
      "tilt": 4858,
      "membranes": 4859,
      "individually": 4860,
      "ciab": 4861,
      "145": 4862,
      "planters": 4863,
      "lawry": 4864,
      "nonrea": 4865,
      "##eb": 4866,
      "numb": 4867,
      "9x9": 4868,
      "nonreactive": 4869,
      "##ng": 4870,
      "rotisserie": 4871,
      "plun": 4872,
      "##iti": 4873,
      "drizzled": 4874,
      "heinz": 4875,
      "ciabatta": 4876,
      "excell": 4877,
      "seperate": 4878,
      "2t": 4879,
      "##acc": 4880,
      "fronds": 4881,
      "passion": 4882,
      "htt": 4883,
      "##ional": 4884,
      "##chamel": 4885,
      "##zes": 4886,
      "##chas": 4887,
      "oc": 4888,
      "85": 4889,
      "rigatoni": 4890,
      "pounded": 4891,
      "##ugar": 4892,
      "cured": 4893,
      "shelf": 4894,
      "yummy": 4895,
      "116": 4896,
      "sat": 4897,
      "bechamel": 4898,
      "##urg": 4899,
      "purchas": 4900,
      "xanth": 4901,
      "8oz": 4902,
      "rises": 4903,
      "excellent": 4904,
      "doughnuts": 4905,
      "puffy": 4906,
      "proven": 4907,
      "grm": 4908,
      "##aph": 4909,
      "catfish": 4910,
      "visible": 4911,
      "##mm": 4912,
      "dem": 4913,
      "inner": 4914,
      "amber": 4915,
      "##alo": 4916,
      "prof": 4917,
      "period": 4918,
      "pair": 4919,
      "casing": 4920,
      "got": 4921,
      "marz": 4922,
      "hamburg": 4923,
      "win": 4924,
      "stevia": 4925,
      "chervil": 4926,
      "infused": 4927,
      "yourself": 4928,
      "marks": 4929,
      "limp": 4930,
      "ww": 4931,
      "heath": 4932,
      "indentation": 4933,
      "##ival": 4934,
      "escar": 4935,
      "towards": 4936,
      "creamer": 4937,
      "dress": 4938,
      "adhere": 4939,
      "##rist": 4940,
      "scallop": 4941,
      "rid": 4942,
      "arrow": 4943,
      "na": 4944,
      "gingers": 4945,
      "doing": 4946,
      "things": 4947,
      "saving": 4948,
      "##round": 4949,
      "remov": 4950,
      "chiff": 4951,
      "stirred": 4952,
      "33": 4953,
      "silver": 4954,
      "motor": 4955,
      "##don": 4956,
      "bias": 4957,
      "salads": 4958,
      "shuck": 4959,
      "##estion": 4960,
      "##ral": 4961,
      "carve": 4962,
      "achieve": 4963,
      "190c": 4964,
      "emulsified": 4965,
      "portab": 4966,
      "kids": 4967,
      "##aced": 4968,
      "build": 4969,
      "##wheat": 4970,
      "extend": 4971,
      "worth": 4972,
      "##binado": 4973,
      "whirl": 4974,
      "colors": 4975,
      "hen": 4976,
      "croiss": 4977,
      "##ung": 4978,
      "##aster": 4979,
      "##door": 4980,
      "compote": 4981,
      "surround": 4982,
      "10x": 4983,
      "##een": 4984,
      "transferring": 4985,
      "chiffon": 4986,
      "turbinado": 4987,
      "13x9x2": 4988,
      "outdoor": 4989,
      "pen": 4990,
      "##ward": 4991,
      "##graph": 4992,
      "plantains": 4993,
      "calif": 4994,
      "dal": 4995,
      "rubbed": 4996,
      "suggestion": 4997,
      "heav": 4998,
      "softens": 4999,
      "gingersn": 5000,
      "buffalo": 5001,
      "160u00b0": 5002,
      "jun": 5003,
      "crystal": 5004,
      "skip": 5005,
      "burrito": 5006,
      "shot": 5007,
      "##ior": 5008,
      "pkt": 5009,
      "##ouille": 5010,
      "californ": 5011,
      "barrel": 5012,
      "accumulated": 5013,
      "##abe": 5014,
      "points": 5015,
      "##ito": 5016,
      "malt": 5017,
      "tost": 5018,
      "sizzling": 5019,
      "##rect": 5020,
      "provence": 5021,
      "##reau": 5022,
      "quail": 5023,
      "xanthan": 5024,
      "ter": 5025,
      "deg": 5026,
      "mrs": 5027,
      "wise": 5028,
      "seem": 5029,
      "##adine": 5030,
      "knives": 5031,
      "sparer": 5032,
      "california": 5033,
      "photograph": 5034,
      "removable": 5035,
      "##ud": 5036,
      "spacing": 5037,
      "coint": 5038,
      "vertically": 5039,
      "5g": 5040,
      "arrowroot": 5041,
      "bass": 5042,
      "stuck": 5043,
      "gren": 5044,
      "napa": 5045,
      "##ented": 5046,
      "##ging": 5047,
      "##ston": 5048,
      "##ising": 5049,
      "##bles": 5050,
      "cointreau": 5051,
      "offset": 5052,
      "crabs": 5053,
      "crowd": 5054,
      "stro": 5055,
      "bundle": 5056,
      "450u00b0f": 5057,
      "closely": 5058,
      "eigh": 5059,
      "slurry": 5060,
      "##iments": 5061,
      "draining": 5062,
      "multi": 5063,
      "motion": 5064,
      "sar": 5065,
      "correct": 5066,
      "membrane": 5067,
      "grainy": 5068,
      "sambal": 5069,
      "275u00b0": 5070,
      "equival": 5071,
      "markets": 5072,
      "front": 5073,
      "spareribs": 5074,
      "##illo": 5075,
      "appetizer": 5076,
      "items": 5077,
      "visit": 5078,
      "stale": 5079,
      "escarole": 5080,
      "ziti": 5081,
      "squeez": 5082,
      "ziplock": 5083,
      "##oche": 5084,
      "flavorings": 5085,
      "chan": 5086,
      "plunge": 5087,
      "mag": 5088,
      "farro": 5089,
      "##dro": 5090,
      "partic": 5091,
      "held": 5092,
      "strands": 5093,
      "diamond": 5094,
      "san": 5095,
      "wraps": 5096,
      "##irsch": 5097,
      "reduces": 5098,
      "pulled": 5099,
      "chopping": 5100,
      "ment": 5101,
      "pulls": 5102,
      "equivalent": 5103,
      "delic": 5104,
      "spot": 5105,
      "cong": 5106,
      "rims": 5107,
      "loc": 5108,
      "reheated": 5109,
      "band": 5110,
      "##azing": 5111,
      "gloves": 5112,
      "smear": 5113,
      "tacos": 5114,
      "microwavable": 5115,
      "number": 5116,
      "##atel": 5117,
      "properly": 5118,
      "soggy": 5119,
      "places": 5120,
      "cobs": 5121,
      "fritt": 5122,
      "width": 5123,
      "wheel": 5124,
      "congeal": 5125,
      "acorn": 5126,
      "grenadine": 5127,
      "supre": 5128,
      "bagel": 5129,
      "##jo": 5130,
      "mil": 5131,
      "sided": 5132,
      "youre": 5133,
      "neat": 5134,
      "bigg": 5135,
      "da": 5136,
      "disks": 5137,
      "##pps": 5138,
      "target": 5139,
      "##butter": 5140,
      "##bean": 5141,
      "evaporate": 5142,
      "mudd": 5143,
      "www": 5144,
      "cylin": 5145,
      "actually": 5146,
      "yum": 5147,
      "cylinder": 5148,
      "access": 5149,
      "pushing": 5150,
      "circular": 5151,
      "##ieved": 5152,
      "securely": 5153,
      "lobsters": 5154,
      "##ult": 5155,
      "covers": 5156,
      "##napps": 5157,
      "##issa": 5158,
      "##water": 5159,
      "brioche": 5160,
      "flan": 5161,
      "winter": 5162,
      "schnapps": 5163,
      "guests": 5164,
      "bli": 5165,
      "christ": 5166,
      "##ses": 5167,
      "eggn": 5168,
      "perfectly": 5169,
      "currant": 5170,
      "anyone": 5171,
      "young": 5172,
      "flatt": 5173,
      "accompaniment": 5174,
      "anal": 5175,
      "dehydr": 5176,
      "appears": 5177,
      "eggnog": 5178,
      "boston": 5179,
      "swe": 5180,
      "##rem": 5181,
      "meaty": 5182,
      "bru": 5183,
      "bol": 5184,
      "meld": 5185,
      "squeezing": 5186,
      "##adian": 5187,
      "kim": 5188,
      "singles": 5189,
      "fondue": 5190,
      "neuf": 5191,
      "##urbed": 5192,
      "pouch": 5193,
      "tossed": 5194,
      "jarred": 5195,
      "lines": 5196,
      "snip": 5197,
      "effect": 5198,
      "ligh": 5199,
      "fritters": 5200,
      "adds": 5201,
      "tend": 5202,
      "neufch": 5203,
      "buttery": 5204,
      "undist": 5205,
      "saucepot": 5206,
      "paint": 5207,
      "prem": 5208,
      "chickpea": 5209,
      "buckwheat": 5210,
      "preserved": 5211,
      "dropped": 5212,
      "rabe": 5213,
      "colle": 5214,
      "garden": 5215,
      "tblsp": 5216,
      "latt": 5217,
      "undisturbed": 5218,
      "chilis": 5219,
      "jug": 5220,
      "carnation": 5221,
      "##vely": 5222,
      "verde": 5223,
      "vent": 5224,
      "chestnut": 5225,
      "totally": 5226,
      "##mas": 5227,
      "scotch": 5228,
      "seams": 5229,
      "##ene": 5230,
      "##efore": 5231,
      "bagels": 5232,
      "ideal": 5233,
      "neufchatel": 5234,
      "lunch": 5235,
      "dumpling": 5236,
      "butcher": 5237,
      "ox": 5238,
      "refresh": 5239,
      "submerge": 5240,
      "harissa": 5241,
      "##anging": 5242,
      "300f": 5243,
      "sort": 5244,
      "canadian": 5245,
      "max": 5246,
      "frittata": 5247,
      "flattened": 5248,
      "##ists": 5249,
      "underside": 5250,
      "kisses": 5251,
      "happ": 5252,
      "shreds": 5253,
      "flor": 5254,
      "mah": 5255,
      "churn": 5256,
      "heavily": 5257,
      "kom": 5258,
      "##ky": 5259,
      "ea": 5260,
      "dig": 5261,
      "##ph": 5262,
      "##aur": 5263,
      "manner": 5264,
      "##arines": 5265,
      "##hip": 5266,
      "flaxseed": 5267,
      "aroma": 5268,
      "toasts": 5269,
      "##icer": 5270,
      "soya": 5271,
      "##ysis": 5272,
      "tangerine": 5273,
      "nectarines": 5274,
      "opened": 5275,
      "analysis": 5276,
      "slush": 5277,
      "marinating": 5278,
      "flatbread": 5279,
      "truffles": 5280,
      "dividing": 5281,
      "lattice": 5282,
      "buds": 5283,
      "dab": 5284,
      "##br": 5285,
      "comple": 5286,
      "suggested": 5287,
      "##iso": 5288,
      "herbes": 5289,
      "disapp": 5290,
      "http": 5291,
      "sauteing": 5292,
      "##otti": 5293,
      "andouille": 5294,
      "parsnip": 5295,
      "tarts": 5296,
      "##cts": 5297,
      "##iest": 5298,
      "##oncini": 5299,
      "indic": 5300,
      "180u00b0c": 5301,
      "medall": 5302,
      "peeling": 5303,
      "##ales": 5304,
      "marble": 5305,
      "garni": 5306,
      "##ida": 5307,
      "palms": 5308,
      "##pat": 5309,
      "conve": 5310,
      "collard": 5311,
      "carbon": 5312,
      "network": 5313,
      "manicot": 5314,
      "sword": 5315,
      "wea": 5316,
      "navel": 5317,
      "##abag": 5318,
      "vitamin": 5319,
      "##olf": 5320,
      "gram": 5321,
      "scorching": 5322,
      "manicotti": 5323,
      "##uds": 5324,
      "grab": 5325,
      "tu": 5326,
      "##bing": 5327,
      "pizzas": 5328,
      "carbohydrates": 5329,
      "precooked": 5330,
      "##crust": 5331,
      "parfa": 5332,
      "devein": 5333,
      "##ious": 5334,
      "lou": 5335,
      "therefore": 5336,
      "kabocha": 5337,
      "packaged": 5338,
      "show": 5339,
      "seasons": 5340,
      "sizes": 5341,
      "beverage": 5342,
      "brit": 5343,
      "tied": 5344,
      "america": 5345,
      "##stone": 5346,
      "skimming": 5347,
      "cone": 5348,
      "iced": 5349,
      "filo": 5350,
      "##tes": 5351,
      "##immon": 5352,
      "swordfish": 5353,
      "##hi": 5354,
      "pitas": 5355,
      "chiffonade": 5356,
      "persimmon": 5357,
      "chilling": 5358,
      "##ners": 5359,
      "blot": 5360,
      "lastly": 5361,
      "chive": 5362,
      "##dger": 5363,
      "strea": 5364,
      "##yer": 5365,
      "submerged": 5366,
      "convection": 5367,
      "upon": 5368,
      "timer": 5369,
      "ct": 5370,
      "dollops": 5371,
      "barbeque": 5372,
      "say": 5373,
      "infuse": 5374,
      "subs": 5375,
      "spear": 5376,
      "##ressed": 5377,
      "quantity": 5378,
      "fava": 5379,
      "briskly": 5380,
      "sle": 5381,
      "105": 5382,
      "texas": 5383,
      "230": 5384,
      "artif": 5385,
      "franks": 5386,
      "##icial": 5387,
      "supreme": 5388,
      "lose": 5389,
      "sund": 5390,
      "normal": 5391,
      "slash": 5392,
      "fer": 5393,
      "petals": 5394,
      "tasting": 5395,
      "##eners": 5396,
      "##bler": 5397,
      "wall": 5398,
      "bigger": 5399,
      "mashing": 5400,
      "started": 5401,
      "##eno": 5402,
      "settle": 5403,
      "stewing": 5404,
      "refridger": 5405,
      "gour": 5406,
      "##elt": 5407,
      "tines": 5408,
      "##arina": 5409,
      "##aid": 5410,
      "result": 5411,
      "naan": 5412,
      "fresco": 5413,
      "##eade": 5414,
      "braising": 5415,
      "exactly": 5416,
      "2nd": 5417,
      "usda": 5418,
      "lifting": 5419,
      "mould": 5420,
      "year": 5421,
      "chim": 5422,
      "draft": 5423,
      "rut": 5424,
      "reactive": 5425,
      "bagg": 5426,
      "sprite": 5427,
      "regularly": 5428,
      "##uting": 5429,
      "popsic": 5430,
      "emer": 5431,
      "profess": 5432,
      "soupy": 5433,
      "fancy": 5434,
      "wis": 5435,
      "hocks": 5436,
      "forget": 5437,
      "feels": 5438,
      "granular": 5439,
      "clump": 5440,
      "restaur": 5441,
      "0g": 5442,
      "exposed": 5443,
      "cause": 5444,
      "portabella": 5445,
      "crost": 5446,
      "seared": 5447,
      "faster": 5448,
      "cam": 5449,
      "limeade": 5450,
      "rocks": 5451,
      "saran": 5452,
      "##eer": 5453,
      "whisked": 5454,
      "professional": 5455,
      "roots": 5456,
      "edible": 5457,
      "##ost": 5458,
      "##markets": 5459,
      "chipped": 5460,
      "##gas": 5461,
      "##chu": 5462,
      "supermarkets": 5463,
      "garnishing": 5464,
      "unfold": 5465,
      "knox": 5466,
      "direction": 5467,
      "eighths": 5468,
      "artificial": 5469,
      "kin": 5470,
      "##greek": 5471,
      "measured": 5472,
      "partners": 5473,
      "##ja": 5474,
      "treat": 5475,
      "dil": 5476,
      "blister": 5477,
      "sult": 5478,
      "brittle": 5479,
      "kra": 5480,
      "##merc": 5481,
      "simmers": 5482,
      "others": 5483,
      "##illi": 5484,
      "claw": 5485,
      "medallions": 5486,
      "##x7": 5487,
      "changes": 5488,
      "pulling": 5489,
      "louis": 5490,
      "sultan": 5491,
      "bull": 5492,
      "myrecipes": 5493,
      "haw": 5494,
      "personal": 5495,
      "live": 5496,
      "commerc": 5497,
      "blanc": 5498,
      "##ugreek": 5499,
      "##illas": 5500,
      "partnership": 5501,
      "flavorful": 5502,
      "myplate": 5503,
      "pep": 5504,
      "##ler": 5505,
      "mandoline": 5506,
      "##where": 5507,
      "trove": 5508,
      "fenugreek": 5509,
      "unless": 5510,
      "untill": 5511,
      "spooning": 5512,
      "catal": 5513,
      "silpat": 5514,
      "##tzer": 5515,
      "shucked": 5516,
      "slab": 5517,
      "##esar": 5518,
      "uncle": 5519,
      "##14": 5520,
      "360": 5521,
      "kitchenaid": 5522,
      "calc": 5523,
      "meyer": 5524,
      "range": 5525,
      "##bergine": 5526,
      "contains": 5527,
      "faj": 5528,
      "lec": 5529,
      "meringues": 5530,
      "alth": 5531,
      "shoe": 5532,
      "calam": 5533,
      "trying": 5534,
      "bringing": 5535,
      "vi": 5536,
      "nutty": 5537,
      "burst": 5538,
      "farf": 5539,
      "goose": 5540,
      "purchased": 5541,
      "##pepper": 5542,
      "processing": 5543,
      "ts": 5544,
      "burg": 5545,
      "aubergine": 5546,
      "300u00b0f": 5547,
      "strings": 5548,
      "##iper": 5549,
      "fettuc": 5550,
      "fus": 5551,
      "##wur": 5552,
      "saltines": 5553,
      "silken": 5554,
      "although": 5555,
      "##ello": 5556,
      "golf": 5557,
      "caesar": 5558,
      "released": 5559,
      "##ira": 5560,
      "supp": 5561,
      "pits": 5562,
      "##iously": 5563,
      "christmas": 5564,
      "##iar": 5565,
      "braise": 5566,
      "##ental": 5567,
      "rutabag": 5568,
      "mugs": 5569,
      "##tic": 5570,
      "wieners": 5571,
      "breakstone": 5572,
      "pico": 5573,
      "produce": 5574,
      "lovely": 5575,
      "hardened": 5576,
      "juniper": 5577,
      "catalina": 5578,
      "poaching": 5579,
      "##liced": 5580,
      "canner": 5581,
      "##space": 5582,
      "tempe": 5583,
      "liner": 5584,
      "##my": 5585,
      "240": 5586,
      "grinds": 5587,
      "husk": 5588,
      "kum": 5589,
      "##lower": 5590,
      "group": 5591,
      "neut": 5592,
      "##easoned": 5593,
      "fix": 5594,
      "sard": 5595,
      "##mi": 5596,
      "smoothing": 5597,
      "darker": 5598,
      "lighter": 5599,
      "pum": 5600,
      "resting": 5601,
      "##mins": 5602,
      "repres": 5603,
      "broiling": 5604,
      "tempeh": 5605,
      "hr": 5606,
      "layered": 5607,
      "indian": 5608,
      "bisc": 5609,
      "neutral": 5610,
      "hawai": 5611,
      "gooey": 5612,
      "restaurant": 5613,
      "##iful": 5614,
      "##ais": 5615,
      "##garian": 5616,
      "favour": 5617,
      "##fort": 5618,
      "seltzer": 5619,
      "##13": 5620,
      "trif": 5621,
      "included": 5622,
      "jim": 5623,
      "110u00b0": 5624,
      "##ik": 5625,
      "uses": 5626,
      "##irloom": 5627,
      "liters": 5628,
      "pate": 5629,
      "specialty": 5630,
      "suggest": 5631,
      "dul": 5632,
      "nug": 5633,
      "shaping": 5634,
      "heirloom": 5635,
      "burgund": 5636,
      "kaff": 5637,
      "##lb": 5638,
      "##oya": 5639,
      "knuds": 5640,
      "##ickel": 5641,
      "39": 5642,
      "##x3": 5643,
      "marked": 5644,
      "safflower": 5645,
      "##lied": 5646,
      "caviar": 5647,
      "rewarm": 5648,
      "##eter": 5649,
      "handled": 5650,
      "gallo": 5651,
      "curl": 5652,
      "dur": 5653,
      "tubes": 5654,
      "##15": 5655,
      "knudsen": 5656,
      "kor": 5657,
      "##ussel": 5658,
      "dredging": 5659,
      "grade": 5660,
      "incre": 5661,
      "birds": 5662,
      "runs": 5663,
      "usual": 5664,
      "shrink": 5665,
      "muddle": 5666,
      "parfait": 5667,
      "burgundy": 5668,
      "##ucing": 5669,
      "tapped": 5670,
      "resid": 5671,
      "mid": 5672,
      "tag": 5673,
      "##ousand": 5674,
      "gallons": 5675,
      "bolog": 5676,
      "kimchi": 5677,
      "flound": 5678,
      "solution": 5679,
      "thousand": 5680,
      "##bsp": 5681,
      "waiting": 5682,
      "kombu": 5683,
      "mad": 5684,
      "##illy": 5685,
      "secre": 5686,
      "commercial": 5687,
      "breading": 5688,
      "doughnut": 5689,
      "crema": 5690,
      "shave": 5691,
      "unseasoned": 5692,
      "kitchens": 5693,
      "gh": 5694,
      "holland": 5695,
      "poured": 5696,
      "flounder": 5697,
      "comfort": 5698,
      "design": 5699,
      "kaffir": 5700,
      "tried": 5701,
      "took": 5702,
      "bonito": 5703,
      "bites": 5704,
      "omelette": 5705,
      "chowder": 5706,
      "hawaiian": 5707,
      "reduction": 5708,
      "soba": 5709,
      "carbonated": 5710,
      "##dew": 5711,
      "surfaces": 5712,
      "pats": 5713,
      "hope": 5714,
      "strokes": 5715,
      "favourite": 5716,
      "massage": 5717,
      "gumbo": 5718,
      "falls": 5719,
      "moons": 5720,
      "tint": 5721,
      "##cup": 5722,
      "conf": 5723,
      "directs": 5724,
      "feet": 5725,
      "fillings": 5726,
      "peak": 5727,
      "passing": 5728,
      "spam": 5729,
      "pinching": 5730,
      "37": 5731,
      "stur": 5732,
      "pral": 5733,
      "trifle": 5734,
      "lic": 5735,
      "hadd": 5736,
      "beautiful": 5737,
      "loses": 5738,
      "biscotti": 5739,
      "honeydew": 5740,
      "##40": 5741,
      "diffic": 5742,
      "##ux": 5743,
      "wr": 5744,
      "hearty": 5745,
      "burnt": 5746,
      "trial": 5747,
      "hungarian": 5748,
      "mist": 5749,
      "poup": 5750,
      "higher": 5751,
      "##iana": 5752,
      "progr": 5753,
      "poupon": 5754,
      "sweeter": 5755,
      "curly": 5756,
      "testing": 5757,
      "diluted": 5758,
      "bib": 5759,
      "dev": 5760,
      "sweeten": 5761,
      "##ppers": 5762,
      "shakes": 5763,
      "twists": 5764,
      "braid": 5765,
      "dilute": 5766,
      "haddock": 5767,
      "popsicle": 5768,
      "bakes": 5769,
      "sounds": 5770,
      "defl": 5771,
      "wilts": 5772,
      "rat": 5773,
      "##tens": 5774,
      "millet": 5775,
      "carb": 5776,
      "madeira": 5777,
      "ways": 5778,
      "korean": 5779,
      "headspace": 5780,
      "glace": 5781,
      "tomatillo": 5782,
      "tadd": 5783,
      "chunked": 5784,
      "exper": 5785,
      "tamales": 5786,
      "pad": 5787,
      "kirsch": 5788,
      "watery": 5789,
      "##oons": 5790,
      "sundried": 5791,
      "##inch": 5792,
      "##etti": 5793,
      "##imin": 5794,
      "calamari": 5795,
      "coke": 5796,
      "##pern": 5797,
      "butterfly": 5798,
      "oriental": 5799,
      "containing": 5800,
      "sealable": 5801,
      "foc": 5802,
      "octop": 5803,
      "mind": 5804,
      "##itely": 5805,
      "pots": 5806,
      "##anos": 5807,
      "trick": 5808,
      "matcha": 5809,
      "storing": 5810,
      "11x7": 5811,
      "rump": 5812,
      "##ract": 5813,
      "twenty": 5814,
      "##no": 5815,
      "scum": 5816,
      "pumpern": 5817,
      "watching": 5818,
      "licor": 5819,
      "200u00b0": 5820,
      "shiso": 5821,
      "mason": 5822,
      "##anted": 5823,
      "bob": 5824,
      "bear": 5825,
      "##ense": 5826,
      "increments": 5827,
      "##board": 5828,
      "##isee": 5829,
      "representation": 5830,
      "war": 5831,
      "##initely": 5832,
      "allows": 5833,
      "octopus": 5834,
      "bic": 5835,
      "opt": 5836,
      "scraper": 5837,
      "periodically": 5838,
      "immer": 5839,
      "matter": 5840,
      "gray": 5841,
      "joe": 5842,
      "achieved": 5843,
      "##wood": 5844,
      "flavours": 5845,
      "dulce": 5846,
      "nu": 5847,
      "spelt": 5848,
      "nam": 5849,
      "##iday": 5850,
      "frosted": 5851,
      "##alle": 5852,
      "idea": 5853,
      "tablespoonful": 5854,
      "aj": 5855,
      "alone": 5856,
      "moment": 5857,
      "quesadillas": 5858,
      "fusilli": 5859,
      "holiday": 5860,
      "wisk": 5861,
      "##held": 5862,
      "doesnt": 5863,
      "leche": 5864,
      "##inis": 5865,
      "handheld": 5866,
      "homog": 5867,
      "pumpernickel": 5868,
      "chocolates": 5869,
      "ook": 5870,
      "pastries": 5871,
      "essent": 5872,
      "gourmet": 5873,
      "wontons": 5874,
      "unwra": 5875,
      "wrapping": 5876,
      "petite": 5877,
      "160c": 5878,
      "aut": 5879,
      "hint": 5880,
      "beh": 5881,
      "ease": 5882,
      "pepitas": 5883,
      "stout": 5884,
      "stru": 5885,
      "adjusting": 5886,
      "increa": 5887,
      "keb": 5888,
      "##ished": 5889,
      "crocker": 5890,
      "reducing": 5891,
      "premium": 5892,
      "yes": 5893,
      "panini": 5894,
      "cracks": 5895,
      "swans": 5896,
      "jellyroll": 5897,
      "farfalle": 5898,
      "wip": 5899,
      "115u00b0": 5900,
      "##accia": 5901,
      "##quettes": 5902,
      "cab": 5903,
      "##po": 5904,
      "coming": 5905,
      "cooler": 5906,
      "mont": 5907,
      "crostini": 5908,
      "aren": 5909,
      "betty": 5910,
      "crisps": 5911,
      "grates": 5912,
      "desc": 5913,
      "condiments": 5914,
      "believe": 5915,
      "blossoms": 5916,
      "##fri": 5917,
      "indicated": 5918,
      "##yn": 5919,
      "rubbing": 5920,
      "croissants": 5921,
      "1st": 5922,
      "whey": 5923,
      "presentation": 5924,
      "fondant": 5925,
      "rain": 5926,
      "shown": 5927,
      "souther": 5928,
      "burners": 5929,
      "##heim": 5930,
      "nine": 5931,
      "belg": 5932,
      "pare": 5933,
      "expand": 5934,
      "##icc": 5935,
      "kraut": 5936,
      "discs": 5937,
      "says": 5938,
      "lengthways": 5939,
      "##aho": 5940,
      "kabobs": 5941,
      "##cut": 5942,
      "easiest": 5943,
      "##gets": 5944,
      "polish": 5945,
      "ana": 5946,
      "bare": 5947,
      "licorice": 5948,
      "curdle": 5949,
      "linguini": 5950,
      "emeril": 5951,
      "spooned": 5952,
      "##ends": 5953,
      "sole": 5954,
      "rustic": 5955,
      "##wurst": 5956,
      "##ints": 5957,
      "early": 5958,
      "hollandaise": 5959,
      "kick": 5960,
      "focaccia": 5961,
      "southern": 5962,
      "##urized": 5963,
      "shut": 5964,
      "##ados": 5965,
      "skimmed": 5966,
      "scaled": 5967,
      "difficult": 5968,
      "forth": 5969,
      "funnel": 5970,
      "anaheim": 5971,
      "spic": 5972,
      "perfor": 5973,
      "indent": 5974,
      "idaho": 5975,
      "##ignon": 5976,
      "tell": 5977,
      "##ience": 5978,
      "curds": 5979,
      "##ades": 5980,
      "south": 5981,
      "oel": 5982,
      "giving": 5983,
      "calls": 5984,
      "2g": 5985,
      "bibb": 5986,
      "content": 5987,
      "drinking": 5988,
      "picture": 5989,
      "sturdy": 5990,
      "mahi": 5991,
      "glue": 5992,
      "nuggets": 5993,
      "list": 5994,
      "decoratively": 5995,
      "oelek": 5996,
      "courget": 5997,
      "herbed": 5998,
      "dressed": 5999,
      "book": 6000,
      "tucking": 6001,
      "##pr": 6002,
      "separating": 6003,
      "behind": 6004,
      "accordingly": 6005,
      "##ening": 6006,
      "gingerbread": 6007,
      "breaded": 6008,
      "##foil": 6009,
      "ferment": 6010,
      "dirt": 6011,
      "skirt": 6012,
      "heats": 6013,
      "partly": 6014,
      "##isins": 6015,
      "larg": 6016,
      "##fruit": 6017,
      "philly": 6018,
      "baile": 6019,
      "nest": 6020,
      "thickening": 6021,
      "typ": 6022,
      "chopper": 6023,
      "sardines": 6024,
      "papers": 6025,
      "##andel": 6026,
      "microwa": 6027,
      "brat": 6028,
      "having": 6029,
      "unwrapped": 6030,
      "##day": 6031,
      "resist": 6032,
      "dom": 6033,
      "alternative": 6034,
      "mincemeat": 6035,
      "##ga": 6036,
      "tenderness": 6037,
      "flex": 6038,
      "butterflied": 6039,
      "##line": 6040,
      "foot": 6041,
      "##olds": 6042,
      "donuts": 6043,
      "elimin": 6044,
      "ash": 6045,
      "eyeball": 6046,
      "##nay": 6047,
      "700": 6048,
      "sits": 6049,
      "##edients": 6050,
      "chipotles": 6051,
      "##ient": 6052,
      "jerk": 6053,
      "obtain": 6054,
      "prune": 6055,
      "1g": 6056,
      "harina": 6057,
      "tupper": 6058,
      "sultanas": 6059,
      "drap": 6060,
      "##ipan": 6061,
      "pulsing": 6062,
      "subsides": 6063,
      "##ob": 6064,
      "shaken": 6065,
      "cones": 6066,
      "handling": 6067,
      "matchstick": 6068,
      "torte": 6069,
      "##kee": 6070,
      "shouldn": 6071,
      "cutlet": 6072,
      "sumac": 6073,
      "grinding": 6074,
      "deflate": 6075,
      "skil": 6076,
      "agar": 6077,
      "menthe": 6078,
      "jus": 6079,
      "fajita": 6080,
      "##adas": 6081,
      "dispos": 6082,
      "twelve": 6083,
      "##fts": 6084,
      "entirely": 6085,
      "overbeat": 6086,
      "##ield": 6087,
      "hunt": 6088,
      "foaming": 6089,
      "everyone": 6090,
      "##x12": 6091,
      "fleur": 6092,
      "cle": 6093,
      "##ex": 6094,
      "##fur": 6095,
      "pkgs": 6096,
      "hall": 6097,
      "splatter": 6098,
      "##iri": 6099,
      "softer": 6100,
      "tenderizer": 6101,
      "belgian": 6102,
      "means": 6103,
      "##ox": 6104,
      "row": 6105,
      "doubles": 6106,
      "descri": 6107,
      "##imal": 6108,
      "carc": 6109,
      "pom": 6110,
      "coca": 6111,
      "mung": 6112,
      "##wards": 6113,
      "##imeter": 6114,
      "resi": 6115,
      "approximate": 6116,
      "tupperware": 6117,
      "oxtail": 6118,
      "##ific": 6119,
      "perforations": 6120,
      "suc": 6121,
      "soybean": 6122,
      "tony": 6123,
      "extending": 6124,
      "crissc": 6125,
      "##0u00b0c": 6126,
      "chall": 6127,
      "calcium": 6128,
      "concentrated": 6129,
      "magic": 6130,
      "louisiana": 6131,
      "sectioned": 6132,
      "breadsticks": 6133,
      "wanted": 6134,
      "durkee": 6135,
      "shrim": 6136,
      "alt": 6137,
      "vents": 6138,
      "throughly": 6139,
      "800": 6140,
      "highest": 6141,
      "fruity": 6142,
      "smoky": 6143,
      "trea": 6144,
      "sizzles": 6145,
      "meet": 6146,
      "##tl": 6147,
      "desicc": 6148,
      "##iki": 6149,
      "bod": 6150,
      "frisee": 6151,
      "flam": 6152,
      "shears": 6153,
      "frankfur": 6154,
      "##inness": 6155,
      "quesadilla": 6156,
      "##lemon": 6157,
      "rinds": 6158,
      "sauv": 6159,
      "margarita": 6160,
      "marzipan": 6161,
      "nutrition": 6162,
      "desiccated": 6163,
      "kais": 6164,
      "goya": 6165,
      "stays": 6166,
      "spaced": 6167,
      "types": 6168,
      "##grain": 6169,
      "classico": 6170,
      "reyn": 6171,
      "3g": 6172,
      "disposable": 6173,
      "springy": 6174,
      "tapen": 6175,
      "handles": 6176,
      "hu": 6177,
      "tree": 6178,
      "burned": 6179,
      "cartons": 6180,
      "piecrust": 6181,
      "##iew": 6182,
      "praline": 6183,
      "tapenade": 6184,
      "conven": 6185,
      "heaped": 6186,
      "text": 6187,
      "skillets": 6188,
      "pulses": 6189,
      "capac": 6190,
      "hardens": 6191,
      "craisins": 6192,
      "var": 6193,
      "extrem": 6194,
      "dehydrated": 6195,
      "kaiser": 6196,
      "sprout": 6197,
      "sauvignon": 6198,
      "carmel": 6199,
      "shrimps": 6200,
      "##del": 6201,
      "ricer": 6202,
      "force": 6203,
      "cornflake": 6204,
      "youll": 6205,
      "popping": 6206,
      "countertop": 6207,
      "cavities": 6208,
      "sugared": 6209,
      "##bble": 6210,
      "pepperoncini": 6211,
      "clust": 6212,
      "dan": 6213,
      "##zy": 6214,
      "nothing": 6215,
      "normally": 6216,
      "shank": 6217,
      "bonnet": 6218,
      "340": 6219,
      "game": 6220,
      "slushy": 6221,
      "extremely": 6222,
      "##arbon": 6223,
      "ropes": 6224,
      "kebabs": 6225,
      "capacity": 6226,
      "joint": 6227,
      "##anged": 6228,
      "clement": 6229,
      "proportions": 6230,
      "rehydr": 6231,
      "##garine": 6232,
      "blocks": 6233,
      "horm": 6234,
      "baller": 6235,
      "tinfoil": 6236,
      "##ption": 6237,
      "hit": 6238,
      "##ni": 6239,
      "##arbonate": 6240,
      "zi": 6241,
      "170c": 6242,
      "bands": 6243,
      "##stit": 6244,
      "highball": 6245,
      "burritos": 6246,
      "snug": 6247,
      "hoag": 6248,
      "##eak": 6249,
      "refer": 6250,
      "smoothly": 6251,
      "impro": 6252,
      "##minutes": 6253,
      "consider": 6254,
      "5cm": 6255,
      "ly": 6256,
      "lining": 6257,
      "simmered": 6258,
      "reynolds": 6259,
      "rutabaga": 6260,
      "31": 6261,
      "arbol": 6262,
      "market": 6263,
      "nond": 6264,
      "##chopped": 6265,
      "bicarbonate": 6266,
      "appetiz": 6267,
      "assembling": 6268,
      "##vre": 6269,
      "qts": 6270,
      "cupfuls": 6271,
      "giant": 6272,
      "naturally": 6273,
      "ign": 6274,
      "hormel": 6275,
      "roqu": 6276,
      "washing": 6277,
      "gumdro": 6278,
      "ooking": 6279,
      "swanson": 6280,
      "gummy": 6281,
      "199": 6282,
      "nondairy": 6283,
      "russian": 6284,
      "##sugar": 6285,
      "coti": 6286,
      "6oz": 6287,
      "##color": 6288,
      "##ico": 6289,
      "cheeri": 6290,
      "ensuring": 6291,
      "##emp": 6292,
      "##mings": 6293,
      "knob": 6294,
      "yam": 6295,
      "##0c": 6296,
      "crown": 6297,
      "smoothie": 6298,
      "flexible": 6299,
      "stops": 6300,
      "##gy": 6301,
      "trimmings": 6302,
      "slee": 6303,
      "chimich": 6304,
      "##saturated": 6305,
      "streaks": 6306,
      "##ha": 6307,
      "##well": 6308,
      "cotija": 6309,
      "##etida": 6310,
      "share": 6311,
      "fib": 6312,
      "suggestions": 6313,
      "pinot": 6314,
      "##18": 6315,
      "absorbent": 6316,
      "##ives": 6317,
      "pourable": 6318,
      "terr": 6319,
      "rer": 6320,
      "##tol": 6321,
      "##not": 6322,
      "life": 6323,
      "gingersnaps": 6324,
      "why": 6325,
      "broccolini": 6326,
      "64": 6327,
      "deeply": 6328,
      "mochi": 6329,
      "picks": 6330,
      "childr": 6331,
      "replac": 6332,
      "crisscross": 6333,
      "gizz": 6334,
      "aw": 6335,
      "asaf": 6336,
      "husked": 6337,
      "blistered": 6338,
      "baguettes": 6339,
      "particles": 6340,
      "100g": 6341,
      "trimming": 6342,
      "demer": 6343,
      "essential": 6344,
      "slicer": 6345,
      "broad": 6346,
      "claws": 6347,
      "5oz": 6348,
      "##cel": 6349,
      "lighten": 6350,
      "pasteurized": 6351,
      "chanter": 6352,
      "cell": 6353,
      "ru": 6354,
      "reroll": 6355,
      "arranging": 6356,
      "broiled": 6357,
      "cheerios": 6358,
      "children": 6359,
      "chardon": 6360,
      "##30": 6361,
      "##enster": 6362,
      "muenster": 6363,
      "preb": 6364,
      "lon": 6365,
      "delicate": 6366,
      "##high": 6367,
      "local": 6368,
      "##cer": 6369,
      "reese": 6370,
      "est": 6371,
      "crisped": 6372,
      "friends": 6373,
      "dean": 6374,
      "taken": 6375,
      "##ana": 6376,
      "tbsps": 6377,
      "kumqu": 6378,
      "cresc": 6379,
      "baggie": 6380,
      "absol": 6381,
      "##ras": 6382,
      "hotter": 6383,
      "pig": 6384,
      "manche": 6385,
      "4g": 6386,
      "hoagie": 6387,
      "##ital": 6388,
      "gala": 6389,
      "quaker": 6390,
      "theyre": 6391,
      "##dded": 6392,
      "jalep": 6393,
      "manchego": 6394,
      "guinness": 6395,
      "kinds": 6396,
      "gingersnap": 6397,
      "ur": 6398,
      "puddings": 6399,
      "##aded": 6400,
      "tz": 6401,
      "bundles": 6402,
      "1cm": 6403,
      "42": 6404,
      "##dv": 6405,
      "cole": 6406,
      "dollar": 6407,
      "sorgh": 6408,
      "assembled": 6409,
      "pon": 6410,
      "bleu": 6411,
      "drape": 6412,
      "tilting": 6413,
      "##itos": 6414,
      "##oise": 6415,
      "chardonnay": 6416,
      "##umer": 6417,
      "require": 6418,
      "secret": 6419,
      "roe": 6420,
      "sorghum": 6421,
      "cases": 6422,
      "completed": 6423,
      "bes": 6424,
      "play": 6425,
      "stren": 6426,
      "crescents": 6427,
      "500u00b0": 6428,
      "continually": 6429,
      "friend": 6430,
      "challah": 6431,
      "scooped": 6432,
      "attract": 6433,
      "pilaf": 6434,
      "demerara": 6435,
      "hull": 6436,
      "celeri": 6437,
      "##pri": 6438,
      "##orted": 6439,
      "##ostura": 6440,
      "cornish": 6441,
      "fift": 6442,
      "##erate": 6443,
      "darken": 6444,
      "citron": 6445,
      "handy": 6446,
      "refridgerate": 6447,
      "4oz": 6448,
      "##acker": 6449,
      "recon": 6450,
      "rocket": 6451,
      "udon": 6452,
      "minus": 6453,
      "##oulade": 6454,
      "##yal": 6455,
      "angostura": 6456,
      "guide": 6457,
      "arm": 6458,
      "##kely": 6459,
      "canes": 6460,
      "empan": 6461,
      "celeriac": 6462,
      "fut": 6463,
      "han": 6464,
      "##crow": 6465,
      "frang": 6466,
      "decorations": 6467,
      "sign": 6468,
      "carameliz": 6469,
      "##efort": 6470,
      "post": 6471,
      "boat": 6472,
      "spritz": 6473,
      "thirty": 6474,
      "carcass": 6475,
      "##fry": 6476,
      "##ires": 6477,
      "drafts": 6478,
      "slo": 6479,
      "largest": 6480,
      "roquefort": 6481,
      "##the": 6482,
      "##ject": 6483,
      "916": 6484,
      "##imi": 6485,
      "appetizers": 6486,
      "##whe": 6487,
      "##atz": 6488,
      "135": 6489,
      "rainbow": 6490,
      "toasting": 6491,
      "stars": 6492,
      "ripened": 6493,
      "jimmy": 6494,
      "ferm": 6495,
      "thats": 6496,
      "reconstit": 6497,
      "##into": 6498,
      "cores": 6499,
      "longh": 6500,
      "##jang": 6501,
      "caution": 6502,
      "pointed": 6503,
      "resistant": 6504,
      "froth": 6505,
      "wont": 6506,
      "56": 6507,
      "##nam": 6508,
      "donut": 6509,
      "blitz": 6510,
      "saltpepper": 6511,
      "longhorn": 6512,
      "willi": 6513,
      "custards": 6514,
      "155": 6515,
      "chopsticks": 6516,
      "terrine": 6517,
      "env": 6518,
      "cheesy": 6519,
      "dense": 6520,
      "##sec": 6521,
      "releas": 6522,
      "interior": 6523,
      "eliminate": 6524,
      "hollowed": 6525,
      "hass": 6526,
      "exch": 6527,
      "bologna": 6528,
      "saved": 6529,
      "leafy": 6530,
      "begun": 6531,
      "zipper": 6532,
      "conver": 6533,
      "##stir": 6534,
      "nose": 6535,
      "roni": 6536,
      "beetroot": 6537,
      "##atziki": 6538,
      "worked": 6539,
      "appropri": 6540,
      "57": 6541,
      "##place": 6542,
      "saucer": 6543,
      "##inkle": 6544,
      "##getable": 6545,
      "curacao": 6546,
      "ups": 6547,
      "immerse": 6548,
      "happy": 6549,
      "future": 6550,
      "torch": 6551,
      "md": 6552,
      "bad": 6553,
      "incorpor": 6554,
      "farms": 6555,
      "squirt": 6556,
      "soap": 6557,
      "200u00b0c": 6558,
      "jet": 6559,
      "##zle": 6560,
      "overwork": 6561,
      "knock": 6562,
      "packs": 6563,
      "discolor": 6564,
      "earth": 6565,
      "poly": 6566,
      "kon": 6567,
      "tus": 6568,
      "deviled": 6569,
      "reason": 6570,
      "##ickers": 6571,
      "tzatziki": 6572,
      "hots": 6573,
      "##gry": 6574,
      "enh": 6575,
      "squish": 6576,
      "##oles": 6577,
      "overcrow": 6578,
      "sitting": 6579,
      "##overs": 6580,
      "savoy": 6581,
      "deter": 6582,
      "macaroons": 6583,
      "master": 6584,
      "toasty": 6585,
      "certain": 6586,
      "york": 6587,
      "##pie": 6588,
      "trip": 6589,
      "ms": 6590,
      "ep": 6591,
      "tomatoe": 6592,
      "##nic": 6593,
      "8x4": 6594,
      "tp": 6595,
      "miss": 6596,
      "slather": 6597,
      "##atto": 6598,
      "croquettes": 6599,
      "due": 6600,
      "known": 6601,
      "mangos": 6602,
      "strength": 6603,
      "##lier": 6604,
      "patting": 6605,
      "grating": 6606,
      "pun": 6607,
      "filtered": 6608,
      "age": 6609,
      "bloom": 6610,
      "suitable": 6611,
      "grit": 6612,
      "##hell": 6613,
      "worches": 6614,
      "paneer": 6615,
      "ake": 6616,
      "peper": 6617,
      "manufacturers": 6618,
      "##jack": 6619,
      "malted": 6620,
      "##iger": 6621,
      "1oz": 6622,
      "various": 6623,
      "fifteen": 6624,
      "crim": 6625,
      "frankfurters": 6626,
      "ann": 6627,
      "dropping": 6628,
      "##brown": 6629,
      "ill": 6630,
      "plank": 6631,
      "likely": 6632,
      "##reg": 6633,
      "##real": 6634,
      "##book": 6635,
      "trader": 6636,
      "smoother": 6637,
      "gift": 6638,
      "##tip": 6639,
      "purposes": 6640,
      "##gi": 6641,
      "ideally": 6642,
      "wri": 6643,
      "pulver": 6644,
      "absolut": 6645,
      "maldon": 6646,
      "imported": 6647,
      "ruby": 6648,
      "typically": 6649,
      "##off": 6650,
      "##uxe": 6651,
      "inte": 6652,
      "boys": 6653,
      "contact": 6654,
      "trop": 6655,
      "mc": 6656,
      "##alt": 6657,
      "cheap": 6658,
      "calv": 6659,
      "##asse": 6660,
      "##bly": 6661,
      "preheating": 6662,
      "royal": 6663,
      "easter": 6664,
      "##ridge": 6665,
      "poblanos": 6666,
      "hungry": 6667,
      "deluxe": 6668,
      "mexico": 6669,
      "tuscan": 6670,
      "pub": 6671,
      "success": 6672,
      "absorbs": 6673,
      "ask": 6674,
      "##umeric": 6675,
      "whit": 6676,
      "sold": 6677,
      "##low": 6678,
      "blog": 6679,
      "guava": 6680,
      "tumeric": 6681,
      "calvados": 6682,
      "dampened": 6683,
      "##icots": 6684,
      "woody": 6685,
      "prom": 6686,
      "inverted": 6687,
      "haricots": 6688,
      "spider": 6689,
      "##pples": 6690,
      "suet": 6691,
      "cobbler": 6692,
      "silky": 6693,
      "came": 6694,
      "particular": 6695,
      "tre": 6696,
      "appearance": 6697,
      "ajar": 6698,
      "galang": 6699,
      "crowding": 6700,
      "ratio": 6701,
      "rite": 6702,
      "preserve": 6703,
      "##acles": 6704,
      "##together": 6705,
      "gy": 6706,
      "tangy": 6707,
      "montreal": 6708,
      "fingerling": 6709,
      "tech": 6710,
      "previous": 6711,
      "ponzu": 6712,
      "veins": 6713,
      "joh": 6714,
      "##usc": 6715,
      "##lot": 6716,
      "disappear": 6717,
      "macker": 6718,
      "##rol": 6719,
      "##itan": 6720,
      "wind": 6721,
      "accompany": 6722,
      "fermented": 6723,
      "examp": 6724,
      "emulsify": 6725,
      "phe": 6726,
      "chevre": 6727,
      "verts": 6728,
      "unused": 6729,
      "compact": 6730,
      "stacks": 6731,
      "difference": 6732,
      "bruised": 6733,
      "spe": 6734,
      "##hal": 6735,
      "height": 6736,
      "cartil": 6737,
      "##rich": 6738,
      "crisply": 6739,
      "##flour": 6740,
      "pheas": 6741,
      "tomatos": 6742,
      "160f": 6743,
      "##inium": 6744,
      "##date": 6745,
      "bullion": 6746,
      "fettucine": 6747,
      "##cil": 6748,
      "daily": 6749,
      "clou": 6750,
      "flameproof": 6751,
      "messy": 6752,
      "ras": 6753,
      "bind": 6754,
      "snugly": 6755,
      "##ako": 6756,
      "substituting": 6757,
      "smells": 6758,
      "6g": 6759,
      "za": 6760,
      "pla": 6761,
      "marie": 6762,
      "##ardi": 6763,
      "realemon": 6764,
      "chic": 6765,
      "dribble": 6766,
      "his": 6767,
      "##back": 6768,
      "cartilage": 6769,
      "loll": 6770,
      "said": 6771,
      "earlier": 6772,
      "72": 6773,
      "shir": 6774,
      "trace": 6775,
      "crushing": 6776,
      "ri": 6777,
      "whil": 6778,
      "##chujang": 6779,
      "50g": 6780,
      "20cm": 6781,
      "shimmers": 6782,
      "wat": 6783,
      "vess": 6784,
      "##cal": 6785,
      "##secco": 6786,
      "clusters": 6787,
      "sloppy": 6788,
      "peg": 6789,
      "aluminium": 6790,
      "##uk": 6791,
      "shows": 6792,
      "warming": 6793,
      "##x8": 6794,
      "bosc": 6795,
      "bratwurst": 6796,
      "maz": 6797,
      "tentacles": 6798,
      "hum": 6799,
      "mackerel": 6800,
      "7g": 6801,
      "milky": 6802,
      "##margarine": 6803,
      "prosecco": 6804,
      "tack": 6805,
      "enam": 6806,
      "t1": 6807,
      "whether": 6808,
      "coins": 6809,
      "prevents": 6810,
      "mellow": 6811,
      "##ichever": 6812,
      "##zon": 6813,
      "brushed": 6814,
      "maximum": 6815,
      "212": 6816,
      "coloured": 6817,
      "pool": 6818,
      "##ellogg": 6819,
      "mayonaise": 6820,
      "mandolin": 6821,
      "gher": 6822,
      "whichever": 6823,
      "limon": 6824,
      "kellogg": 6825,
      "v8": 6826,
      "arils": 6827,
      "tempered": 6828,
      "milnot": 6829,
      "200g": 6830,
      "smart": 6831,
      "amazing": 6832,
      "neatly": 6833,
      "stands": 6834,
      "pierog": 6835,
      "ghir": 6836,
      "##oph": 6837,
      "morels": 6838,
      "crimini": 6839,
      "##osing": 6840,
      "tropical": 6841,
      "crouton": 6842,
      "serv": 6843,
      "choc": 6844,
      "145u00b0": 6845,
      "##eans": 6846,
      "jellied": 6847,
      "flames": 6848,
      "sze": 6849,
      "control": 6850,
      "170u00b0": 6851,
      "galangal": 6852,
      "glazing": 6853,
      "220c": 6854,
      "mints": 6855,
      "lollip": 6856,
      "ce": 6857,
      "stronger": 6858,
      "lac": 6859,
      "fits": 6860,
      "##ancy": 6861,
      "disappears": 6862,
      "chai": 6863,
      "inserting": 6864,
      "colouring": 6865,
      "##oyu": 6866,
      "##sy": 6867,
      "park": 6868,
      "hav": 6869,
      "##ome": 6870,
      "piment": 6871,
      "altogether": 6872,
      "appetit": 6873,
      "enameled": 6874,
      "cornich": 6875,
      "rev": 6876,
      "dietary": 6877,
      "confit": 6878,
      "2cm": 6879,
      "pace": 6880,
      "firmer": 6881,
      "##ression": 6882,
      "fuji": 6883,
      "cardamon": 6884,
      "##garlic": 6885,
      "##urri": 6886,
      "coarsley": 6887,
      "rotary": 6888,
      "horizon": 6889,
      "textured": 6890,
      "awhile": 6891,
      "appropriate": 6892,
      "alfal": 6893,
      "##ors": 6894,
      "ignite": 6895,
      "tongue": 6896,
      "gumdrops": 6897,
      "shorter": 6898,
      "##oxing": 6899,
      "shoyu": 6900,
      "smuck": 6901,
      "example": 6902,
      "##350": 6903,
      "brussel": 6904,
      "foams": 6905,
      "alfalfa": 6906,
      "kash": 6907,
      "previously": 6908,
      "##oumi": 6909,
      "shaoxing": 6910,
      "croissant": 6911,
      "##ining": 6912,
      "powders": 6913,
      "deer": 6914,
      "##ulate": 6915,
      "##hetta": 6916,
      "incorporating": 6917,
      "whilst": 6918,
      "##house": 6919,
      "dippers": 6920,
      "##owing": 6921,
      "onoff": 6922,
      "trust": 6923,
      "mount": 6924,
      "##lett": 6925,
      "liquef": 6926,
      "parall": 6927,
      "marzano": 6928,
      "fal": 6929,
      "enc": 6930,
      "backbone": 6931,
      "progress": 6932,
      "tempura": 6933,
      "##cello": 6934,
      "mazola": 6935,
      "sofri": 6936,
      "shime": 6937,
      "##ath": 6938,
      "snacks": 6939,
      "collards": 6940,
      "##uro": 6941,
      "##elles": 6942,
      "paso": 6943,
      "parallel": 6944,
      "caper": 6945,
      "uniformly": 6946,
      "##eli": 6947,
      "cotton": 6948,
      "comments": 6949,
      "pinwhe": 6950,
      "scr": 6951,
      "congealed": 6952,
      "af": 6953,
      "eg": 6954,
      "slc": 6955,
      "##cuit": 6956,
      "900": 6957,
      "litre": 6958,
      "stones": 6959,
      "sofrito": 6960,
      "yuzu": 6961,
      "##des": 6962,
      "##steak": 6963,
      "luck": 6964,
      "wear": 6965,
      "world": 6966,
      "bart": 6967,
      "tt": 6968,
      "years": 6969,
      "pasty": 6970,
      "##redd": 6971,
      "##ndon": 6972,
      "##quite": 6973,
      "homogen": 6974,
      "44": 6975,
      "bench": 6976,
      "sack": 6977,
      "##ppo": 6978,
      "##afing": 6979,
      "pch": 6980,
      "carbs": 6981,
      "guaj": 6982,
      "residual": 6983,
      "##gen": 6984,
      "chafing": 6985,
      "185": 6986,
      "southw": 6987,
      "##meats": 6988,
      "ovens": 6989,
      "cardboard": 6990,
      "msg": 6991,
      "notice": 6992,
      "##clun": 6993,
      "shimeji": 6994,
      "##sel": 6995,
      "separates": 6996,
      "timing": 6997,
      "##era": 6998,
      "sazon": 6999,
      "acidity": 7000,
      "relatively": 7001,
      "blan": 7002,
      "shellfish": 7003,
      "##estive": 7004,
      "##achet": 7005,
      "kumquats": 7006,
      "wells": 7007,
      "dampen": 7008,
      "micropl": 7009,
      "aff": 7010,
      "allowed": 7011,
      "spicier": 7012,
      "fatty": 7013,
      "clinging": 7014,
      "##jool": 7015,
      "raised": 7016,
      "blond": 7017,
      "mesclun": 7018,
      "tapping": 7019,
      "spill": 7020,
      "gochujang": 7021,
      "##uan": 7022,
      "combo": 7023,
      "orl": 7024,
      "huge": 7025,
      "chimichurri": 7026,
      "anywhere": 7027,
      "##men": 7028,
      "beau": 7029,
      "spa": 7030,
      "floret": 7031,
      "74": 7032,
      "##isco": 7033,
      "cookbook": 7034,
      "mesquite": 7035,
      "reheating": 7036,
      "refrigeration": 7037,
      "nutmeats": 7038,
      "fasten": 7039,
      "orleans": 7040,
      "sleeve": 7041,
      "vessel": 7042,
      "burns": 7043,
      "##bac": 7044,
      "flavoured": 7045,
      "ja": 7046,
      "##eneck": 7047,
      "boo": 7048,
      "tends": 7049,
      "prebaked": 7050,
      "##fully": 7051,
      "paella": 7052,
      "publ": 7053,
      "##ophane": 7054,
      "speck": 7055,
      "##sin": 7056,
      "lidded": 7057,
      "spraying": 7058,
      "quince": 7059,
      "peek": 7060,
      "rand": 7061,
      "avac": 7062,
      "cukes": 7063,
      "##lon": 7064,
      "highly": 7065,
      "london": 7066,
      "hemp": 7067,
      "##asted": 7068,
      "buttermargarine": 7069,
      "##ights": 7070,
      "tacky": 7071,
      "coul": 7072,
      "##selves": 7073,
      "beefsteak": 7074,
      "strudel": 7075,
      "##rey": 7076,
      "clay": 7077,
      "haven": 7078,
      "cellophane": 7079,
      "boysen": 7080,
      "techni": 7081,
      "##cchi": 7082,
      "##mol": 7083,
      "##zzle": 7084,
      "medjool": 7085,
      "nachos": 7086,
      "littl": 7087,
      "acting": 7088,
      "ge": 7089,
      "113": 7090,
      "moz": 7091,
      "##zos": 7092,
      "horizontal": 7093,
      "##oman": 7094,
      "mocha": 7095,
      "ast": 7096,
      "165u00b0": 7097,
      "x13": 7098,
      "##arti": 7099,
      "crispix": 7100,
      "vac": 7101,
      "cutout": 7102,
      "decide": 7103,
      "generally": 7104,
      "lun": 7105,
      "ais": 7106,
      "orte": 7107,
      "##cture": 7108,
      "##nde": 7109,
      "porridge": 7110,
      "43": 7111,
      "##ku": 7112,
      "softly": 7113,
      "turk": 7114,
      "##serve": 7115,
      "aleppo": 7116,
      "proceeding": 7117,
      "tagli": 7118,
      "littleneck": 7119,
      "toweling": 7120,
      "packing": 7121,
      "roasts": 7122,
      "lager": 7123,
      "ries": 7124,
      "##ena": 7125,
      "##ani": 7126,
      "closest": 7127,
      "##ase": 7128,
      "prego": 7129,
      "slashes": 7130,
      "potatos": 7131,
      "curdled": 7132,
      "returns": 7133,
      "##like": 7134,
      "converted": 7135,
      "hamburgers": 7136,
      "cotta": 7137,
      "holder": 7138,
      "303": 7139,
      "coulis": 7140,
      "##ister": 7141,
      "mounding": 7142,
      "bush": 7143,
      "ot": 7144,
      "substitutes": 7145,
      "picnic": 7146,
      "havarti": 7147,
      "##bling": 7148,
      "becoming": 7149,
      "unop": 7150,
      "##igr": 7151,
      "favorites": 7152,
      "spaet": 7153,
      "320": 7154,
      "unopened": 7155,
      "kef": 7156,
      "themselves": 7157,
      "specified": 7158,
      "##ude": 7159,
      "chamb": 7160,
      "##ripe": 7161,
      "turkish": 7162,
      "achi": 7163,
      "quantities": 7164,
      "##mark": 7165,
      "tbake": 7166,
      "##intosh": 7167,
      "u00b0": 7168,
      "##owel": 7169,
      "mediumhigh": 7170,
      "likes": 7171,
      "##ica": 7172,
      "vein": 7173,
      "250g": 7174,
      "##wa": 7175,
      "casseroles": 7176,
      "##deg": 7177,
      "amin": 7178,
      "bartlett": 7179,
      "papp": 7180,
      "sich": 7181,
      "worms": 7182,
      "dunk": 7183,
      "gills": 7184,
      "resistance": 7185,
      "marrow": 7186,
      "published": 7187,
      "pasilla": 7188,
      "ducks": 7189,
      "insp": 7190,
      "areas": 7191,
      "guajillo": 7192,
      "ortega": 7193,
      "bend": 7194,
      "seas": 7195,
      "##wash": 7196,
      "delight": 7197,
      "creaming": 7198,
      "braised": 7199,
      "scored": 7200,
      "parboiled": 7201,
      "##modate": 7202,
      "boull": 7203,
      "equals": 7204,
      "worchestershire": 7205,
      "hy": 7206,
      "##gredients": 7207,
      "caber": 7208,
      "definitely": 7209,
      "chambord": 7210,
      "bus": 7211,
      "tef": 7212,
      "drips": 7213,
      "##band": 7214,
      "thanks": 7215,
      "riesling": 7216,
      "seitan": 7217,
      "##pared": 7218,
      "lifted": 7219,
      "##oki": 7220,
      "aisle": 7221,
      "ga": 7222,
      "fact": 7223,
      "parmesean": 7224,
      "desserts": 7225,
      "achiote": 7226,
      "cabernet": 7227,
      "incis": 7228,
      "richer": 7229,
      "twink": 7230,
      "##rd": 7231,
      "120u00b0": 7232,
      "95": 7233,
      "expl": 7234,
      "spaetzle": 7235,
      "365": 7236,
      "unt": 7237,
      "pineapples": 7238,
      "rinsing": 7239,
      "element": 7240,
      "nibs": 7241,
      "##di": 7242,
      "slabs": 7243,
      "##ifully": 7244,
      "pern": 7245,
      "gremol": 7246,
      "decorator": 7247,
      "1c": 7248,
      "tep": 7249,
      "stretching": 7250,
      "tangerines": 7251,
      "sichuan": 7252,
      "sterile": 7253,
      "##uum": 7254,
      "##medium": 7255,
      "calz": 7256,
      "hicken": 7257,
      "chance": 7258,
      "joy": 7259,
      "brought": 7260,
      "greaseproof": 7261,
      "limoncello": 7262,
      "overfl": 7263,
      "shots": 7264,
      "refrigerating": 7265,
      "thins": 7266,
      "personally": 7267,
      "melba": 7268,
      "frangel": 7269,
      "lag": 7270,
      "##uces": 7271,
      "grahams": 7272,
      "estim": 7273,
      "49": 7274,
      "vo": 7275,
      "increasing": 7276,
      "view": 7277,
      "goodness": 7278,
      "beautifully": 7279,
      "bodies": 7280,
      "stab": 7281,
      "boullion": 7282,
      "devour": 7283,
      "microplane": 7284,
      "##ardelli": 7285,
      "234": 7286,
      "requires": 7287,
      "bases": 7288,
      "##aa": 7289,
      "0207": 7290,
      "##unt": 7291,
      "attractive": 7292,
      "475u00b0": 7293,
      "##do": 7294,
      "tool": 7295,
      "laying": 7296,
      "treats": 7297,
      "saucy": 7298,
      "zucchinis": 7299,
      "##mit": 7300,
      "mit": 7301,
      "panna": 7302,
      "poor": 7303,
      "carob": 7304,
      "nectarine": 7305,
      "##ement": 7306,
      "emulsion": 7307,
      "##mb": 7308,
      "tsps": 7309,
      "overcrowd": 7310,
      "pumpkins": 7311,
      "shops": 7312,
      "floating": 7313,
      "criss": 7314,
      "happens": 7315,
      "shock": 7316,
      "shade": 7317,
      "proble": 7318,
      "cornichons": 7319,
      "##fro": 7320,
      "##bro": 7321,
      "thinned": 7322,
      "##apes": 7323,
      "collect": 7324,
      "wiped": 7325,
      "cow": 7326,
      "une": 7327,
      "##efish": 7328,
      "stripped": 7329,
      "created": 7330,
      "sterilize": 7331,
      "enoki": 7332,
      "men": 7333,
      "knuck": 7334,
      "name": 7335,
      "creamier": 7336,
      "experiment": 7337,
      "monk": 7338,
      "vacuum": 7339,
      "endives": 7340,
      "jalepeno": 7341,
      "snickers": 7342,
      "piqu": 7343,
      "mole": 7344,
      "lotus": 7345,
      "milder": 7346,
      "william": 7347,
      "gras": 7348,
      "##ingly": 7349,
      "enrich": 7350,
      "whisky": 7351,
      "tagliat": 7352,
      "hurry": 7353,
      "##itakes": 7354,
      "bey": 7355,
      "1tsp": 7356,
      "85u00b0": 7357,
      "deb": 7358,
      "corriander": 7359,
      "varieties": 7360,
      "dital": 7361,
      "foie": 7362,
      "ghirardelli": 7363,
      "measurements": 7364,
      "ol": 7365,
      "##elloni": 7366,
      "awes": 7367,
      "gremolata": 7368,
      "##erella": 7369,
      "event": 7370,
      "180u00b0": 7371,
      "##market": 7372,
      "barbecu": 7373,
      "##haps": 7374,
      "omitted": 7375,
      "chol": 7376,
      "##isf": 7377,
      "lettuces": 7378,
      "happen": 7379,
      "pheasant": 7380,
      "random": 7381,
      "floury": 7382,
      "88": 7383,
      "moulds": 7384,
      "courgettes": 7385,
      "tm": 7386,
      "##vers": 7387,
      "##comb": 7388,
      "demi": 7389,
      "microwaving": 7390,
      "9x12": 7391,
      "##baking": 7392,
      "viet": 7393,
      "brusc": 7394,
      "perhaps": 7395,
      "husband": 7396,
      "8g": 7397,
      "dots": 7398,
      "collap": 7399,
      "beyond": 7400,
      "##ican": 7401,
      "compan": 7402,
      "hydr": 7403,
      "##itionally": 7404,
      "##pari": 7405,
      "breaks": 7406,
      "flattening": 7407,
      "oh": 7408,
      "flap": 7409,
      "140u00b0": 7410,
      "sifter": 7411,
      "gyoz": 7412,
      "pernod": 7413,
      "frangelico": 7414,
      "250f": 7415,
      "stripes": 7416,
      "oxtails": 7417,
      "12c": 7418,
      "stil": 7419,
      "tagliatelle": 7420,
      "applewood": 7421,
      "corks": 7422,
      "herring": 7423,
      "lagasse": 7424,
      "pleas": 7425,
      "##nadd": 7426,
      "consistancy": 7427,
      "##cheese": 7428,
      "x9": 7429,
      "mign": 7430,
      "powered": 7431,
      "pu": 7432,
      "tepid": 7433,
      "2oz": 7434,
      "orecchi": 7435,
      "crumbling": 7436,
      "satisf": 7437,
      "##onc": 7438,
      "galette": 7439,
      "tartlet": 7440,
      "includes": 7441,
      "3oz": 7442,
      "die": 7443,
      "perr": 7444,
      "vietnam": 7445,
      "dandel": 7446,
      "sanding": 7447,
      "smucker": 7448,
      "fettucini": 7449,
      "lollipop": 7450,
      "##tose": 7451,
      "3t": 7452,
      "98": 7453,
      "blow": 7454,
      "voila": 7455,
      "##hl": 7456,
      "supermarket": 7457,
      "amaretti": 7458,
      "uneven": 7459,
      "##lest": 7460,
      "ume": 7461,
      "musc": 7462,
      "ener": 7463,
      "mother": 7464,
      "merlot": 7465,
      "campari": 7466,
      "dull": 7467,
      "ngredients": 7468,
      "dries": 7469,
      "##crew": 7470,
      "ladleful": 7471,
      "unre": 7472,
      "grouper": 7473,
      "condiment": 7474,
      "bucket": 7475,
      "poked": 7476,
      "inverting": 7477,
      "jiggly": 7478,
      "mountain": 7479,
      "orecchiette": 7480,
      "##ffe": 7481,
      "scooping": 7482,
      "protect": 7483,
      "wheels": 7484,
      "chach": 7485,
      "abura": 7486,
      "marbled": 7487,
      "##pect": 7488,
      "accompanied": 7489,
      "vertical": 7490,
      "persimmons": 7491,
      "enclo": 7492,
      "relax": 7493,
      "##ensive": 7494,
      "##kk": 7495,
      "utens": 7496,
      "intens": 7497,
      "10x1": 7498,
      "130u00b0": 7499,
      "certo": 7500,
      "mexicorn": 7501,
      "passionfruit": 7502,
      "dim": 7503,
      "blacken": 7504,
      "quik": 7505,
      "vinegars": 7506,
      "knot": 7507,
      "gyoza": 7508,
      "egetable": 7509,
      "cassis": 7510,
      "braz": 7511,
      "280": 7512,
      "gaps": 7513,
      "geno": 7514,
      "tenderize": 7515,
      "burd": 7516,
      "mms": 7517,
      "miner": 7518,
      "measures": 7519,
      "##py": 7520,
      "##egg": 7521,
      "imag": 7522,
      "granita": 7523,
      "absolutely": 7524,
      "blind": 7525,
      "burdock": 7526,
      "##ict": 7527,
      "165f": 7528,
      "##ju": 7529,
      "glu": 7530,
      "prawn": 7531,
      "stacked": 7532,
      "monde": 7533,
      "bruschetta": 7534,
      "toll": 7535,
      "present": 7536,
      "outsides": 7537,
      "##kg": 7538,
      "multigrain": 7539,
      "vietnamese": 7540,
      "inn": 7541,
      "cure": 7542,
      "##isc": 7543,
      "spout": 7544,
      "skor": 7545,
      "sunny": 7546,
      "sorrel": 7547,
      "ingrediants": 7548,
      "resh": 7549,
      "unsliced": 7550,
      "##aper": 7551,
      "monte": 7552,
      "unl": 7553,
      "sunda": 7554,
      "falaf": 7555,
      "remoulade": 7556,
      "shortcake": 7557,
      "wrea": 7558,
      "wiener": 7559,
      "##iang": 7560,
      "soybeans": 7561,
      "fresno": 7562,
      "indef": 7563,
      "##terior": 7564,
      "bacardi": 7565,
      "##peg": 7566,
      "##uyu": 7567,
      "switching": 7568,
      "##va": 7569,
      "1lb": 7570,
      "##ela": 7571,
      "striped": 7572,
      "floats": 7573,
      "altit": 7574,
      "exc": 7575,
      "exterior": 7576,
      "ditalini": 7577,
      "spare": 7578,
      "jud": 7579,
      "awesome": 7580,
      "risk": 7581,
      "##cooking": 7582,
      "shortly": 7583,
      "varies": 7584,
      "hanging": 7585,
      "indentations": 7586,
      "##pare": 7587,
      "meatless": 7588,
      "parsely": 7589,
      "ideas": 7590,
      "shoepeg": 7591,
      "straws": 7592,
      "lev": 7593,
      "twinkies": 7594,
      "550": 7595,
      "accommodate": 7596,
      "overhanging": 7597,
      "basically": 7598,
      "juicer": 7599,
      "reconstituted": 7600,
      "jama": 7601,
      "gizzards": 7602,
      "spun": 7603,
      "dsh": 7604,
      "fragrance": 7605,
      "brazil": 7606,
      "baileys": 7607,
      "mary": 7608,
      "tris": 7609,
      "manual": 7610,
      "swirls": 7611,
      "residue": 7612,
      "pimenton": 7613,
      "technique": 7614,
      "zin": 7615,
      "concentric": 7616,
      "twisting": 7617,
      "##embert": 7618,
      "basin": 7619,
      "##gines": 7620,
      "##chuan": 7621,
      "auber": 7622,
      "jiggle": 7623,
      "##nes": 7624,
      "##ingle": 7625,
      "leak": 7626,
      "1993": 7627,
      "##osh": 7628,
      "buil": 7629,
      "chay": 7630,
      "12oz": 7631,
      "pina": 7632,
      "cereals": 7633,
      "perrins": 7634,
      "##hire": 7635,
      "ston": 7636,
      "starchy": 7637,
      "tostitos": 7638,
      "clover": 7639,
      "corkscrew": 7640,
      "stilton": 7641,
      "dam": 7642,
      "##eye": 7643,
      "overcooked": 7644,
      "camembert": 7645,
      "jess": 7646,
      "roo": 7647,
      "##onion": 7648,
      "150g": 7649,
      "shiitakes": 7650,
      "ult": 7651,
      "clea": 7652,
      "service": 7653,
      "dv": 7654,
      "scale": 7655,
      "oo": 7656,
      "zests": 7657,
      "canister": 7658,
      "morrow": 7659,
      "aubergines": 7660,
      "##oetida": 7661,
      "salata": 7662,
      "grapefruits": 7663,
      "aminos": 7664,
      "helpful": 7665,
      "##uca": 7666,
      "crispness": 7667,
      "unto": 7668,
      "drinks": 7669,
      "bain": 7670,
      "elder": 7671,
      "feeling": 7672,
      "latkes": 7673,
      "cost": 7674,
      "multip": 7675,
      "morton": 7676,
      "##estern": 7677,
      "rested": 7678,
      "recommendation": 7679,
      "joints": 7680,
      "kohl": 7681,
      "creative": 7682,
      "macerate": 7683,
      "##estring": 7684,
      "225u00b0": 7685,
      "mussel": 7686,
      "##ros": 7687,
      "##rown": 7688,
      "bragg": 7689,
      "walla": 7690,
      "prime": 7691,
      "indefinitely": 7692,
      "decorated": 7693,
      "kohlr": 7694,
      "##abl": 7695,
      "sett": 7696,
      "68": 7697,
      "saf": 7698,
      "segment": 7699,
      "stringy": 7700,
      "resulting": 7701,
      "bailey": 7702,
      "##hand": 7703,
      "butterfinger": 7704,
      "fea": 7705,
      "szechuan": 7706,
      "overly": 7707,
      "238": 7708,
      "##ppa": 7709,
      "pleat": 7710,
      "colorful": 7711,
      "##cups": 7712,
      "tripled": 7713,
      "monkfish": 7714,
      "jessie": 7715,
      "##mented": 7716,
      "##entsuyu": 7717,
      "shitake": 7718,
      "##reeze": 7719,
      "major": 7720,
      "field": 7721,
      "##hes": 7722,
      "surpr": 7723,
      "seasonal": 7724,
      "cheesecakes": 7725,
      "##oshi": 7726,
      "bakers": 7727,
      "indoor": 7728,
      "online": 7729,
      "register": 7730,
      "asafoetida": 7731,
      "ramps": 7732,
      "79": 7733,
      "##done": 7734,
      "quicker": 7735,
      "grid": 7736,
      "9x5x3": 7737,
      "description": 7738,
      "500g": 7739,
      "wak": 7740,
      "seep": 7741,
      "searing": 7742,
      "stacking": 7743,
      "rash": 7744,
      "tirsch": 7745,
      "empanadas": 7746,
      "pete": 7747,
      "0mg": 7748,
      "##rate": 7749,
      "shoestring": 7750,
      "mentsuyu": 7751,
      "##rami": 7752,
      "coupe": 7753,
      "passata": 7754,
      "refreshing": 7755,
      "heel": 7756,
      "spaces": 7757,
      "instructed": 7758,
      "##ele": 7759,
      "dandelion": 7760,
      "##giving": 7761,
      "ut": 7762,
      "##tha": 7763,
      "lardons": 7764,
      "kiwis": 7765,
      "210": 7766,
      "conventional": 7767,
      "activ": 7768,
      "progresso": 7769,
      "##dish": 7770,
      "halloumi": 7771,
      "integr": 7772,
      "pastrami": 7773,
      "smal": 7774,
      "taro": 7775,
      "depression": 7776,
      "tumb": 7777,
      "tinned": 7778,
      "bing": 7779,
      "miz": 7780,
      "supple": 7781,
      "maxwell": 7782,
      "perf": 7783,
      "distur": 7784,
      "bella": 7785,
      "chap": 7786,
      "##ville": 7787,
      "program": 7788,
      "papery": 7789,
      "provide": 7790,
      "224": 7791,
      "kohlrabi": 7792,
      "youve": 7793,
      "shaggy": 7794,
      "job": 7795,
      "described": 7796,
      "##rod": 7797,
      "replacer": 7798,
      "hat": 7799,
      "marry": 7800,
      "bud": 7801,
      "hib": 7802,
      "purchase": 7803,
      "related": 7804,
      "hill": 7805,
      "sachet": 7806,
      "##aku": 7807,
      "##using": 7808,
      "shredding": 7809,
      "enriched": 7810,
      "persian": 7811,
      "##utions": 7812,
      "unsul": 7813,
      "sifting": 7814,
      "securing": 7815,
      "mention": 7816,
      "souffles": 7817,
      "##x11": 7818,
      "shortcakes": 7819,
      "##antly": 7820,
      "250u00b0f": 7821,
      "collins": 7822,
      "passed": 7823,
      "##colate": 7824,
      "er": 7825,
      "tearing": 7826,
      "oily": 7827,
      "pouches": 7828,
      "authen": 7829,
      "##abet": 7830,
      "curve": 7831,
      "straining": 7832,
      "monoun": 7833,
      "expose": 7834,
      "##accioli": 7835,
      "comfortably": 7836,
      "whenever": 7837,
      "dome": 7838,
      "pract": 7839,
      "positions": 7840,
      "optionally": 7841,
      "##bacore": 7842,
      "din": 7843,
      "state": 7844,
      "cracking": 7845,
      "muslin": 7846,
      "satin": 7847,
      "swell": 7848,
      "nicoise": 7849,
      "mozarella": 7850,
      "##arge": 7851,
      "fingertip": 7852,
      "##olic": 7853,
      "unit": 7854,
      "conne": 7855,
      "albacore": 7856,
      "madras": 7857,
      "kir": 7858,
      "offer": 7859,
      "aniseed": 7860,
      "ovals": 7861,
      "nuoc": 7862,
      "##oori": 7863,
      "load": 7864,
      "mostaccioli": 7865,
      "maid": 7866,
      "shoot": 7867,
      "tand": 7868,
      "##ardelle": 7869,
      "child": 7870,
      "ida": 7871,
      "chachere": 7872,
      "milligr": 7873,
      "init": 7874,
      "preferable": 7875,
      "##ational": 7876,
      "sac": 7877,
      "perimeter": 7878,
      "consum": 7879,
      "mignon": 7880,
      "jigger": 7881,
      "hatch": 7882,
      "darkened": 7883,
      "courgette": 7884,
      "aka": 7885,
      "mitts": 7886,
      "wakame": 7887,
      "zinf": 7888,
      "fol": 7889,
      "##vest": 7890,
      "200f": 7891,
      "athen": 7892,
      "##boiled": 7893,
      "cigar": 7894,
      "##pean": 7895,
      "##fin": 7896,
      "tob": 7897,
      "cleaning": 7898,
      "tv": 7899,
      "lav": 7900,
      "clementine": 7901,
      "##remove": 7902,
      "milligrams": 7903,
      "fif": 7904,
      "400g": 7905,
      "##ggi": 7906,
      "arranged": 7907,
      "removal": 7908,
      "traditionally": 7909,
      "##drogen": 7910,
      "114": 7911,
      "bento": 7912,
      "poll": 7913,
      "##itate": 7914,
      "authentic": 7915,
      "cant": 7916,
      "##oug": 7917,
      "kikk": 7918,
      "fab": 7919,
      "castor": 7920,
      "musco": 7921,
      "delicately": 7922,
      "mcintosh": 7923,
      "gherkins": 7924,
      "mall": 7925,
      "salts": 7926,
      "index": 7927,
      "wring": 7928,
      "centimeter": 7929,
      "crazy": 7930,
      "9g": 7931,
      "##lbs": 7932,
      "##atures": 7933,
      "doughy": 7934,
      "turnovers": 7935,
      "##occ": 7936,
      "changing": 7937,
      "humid": 7938,
      "##bake": 7939,
      "##ilo": 7940,
      "fills": 7941,
      "##400": 7942,
      "kill": 7943,
      "##tered": 7944,
      "sufficiently": 7945,
      "ie": 7946,
      "abt": 7947,
      "hashbrown": 7948,
      "debear": 7949,
      "cuban": 7950,
      "dir": 7951,
      "##fill": 7952,
      "wider": 7953,
      "judge": 7954,
      "widthwise": 7955,
      "##hesive": 7956,
      "cannelloni": 7957,
      "##ifies": 7958,
      "fleshed": 7959,
      "30g": 7960,
      "boursin": 7961,
      "tostada": 7962,
      "##tolli": 7963,
      "pencil": 7964,
      "##cheon": 7965,
      "company": 7966,
      "matzoh": 7967,
      "flatbreads": 7968,
      "##45": 7969,
      "sieved": 7970,
      "vege": 7971,
      "rehydrated": 7972,
      "zinfandel": 7973,
      "refrigerat": 7974,
      "john": 7975,
      "thought": 7976,
      "chopstick": 7977,
      "mineral": 7978,
      "lie": 7979,
      "rear": 7980,
      "average": 7981,
      "du": 7982,
      "##rad": 7983,
      "common": 7984,
      "polyun": 7985,
      "falafel": 7986,
      "scone": 7987,
      "##atelli": 7988,
      "waxy": 7989,
      "releases": 7990,
      "pappardelle": 7991,
      "microwaved": 7992,
      "kikkoman": 7993,
      "##aged": 7994,
      "annatto": 7995,
      "bertolli": 7996,
      "mediter": 7997,
      "##uel": 7998,
      "branches": 7999,
      "brule": 8000,
      "cleaver": 8001,
      "polyunsaturated": 8002,
      "12t": 8003,
      "slim": 8004,
      "lost": 8005,
      "snaps": 8006,
      "entree": 8007,
      "martha": 8008,
      "walk": 8009,
      "farmer": 8010,
      "rob": 8011,
      "mop": 8012,
      "penet": 8013,
      "##ablespoon": 8014,
      "##estyle": 8015,
      "pros": 8016,
      "smokies": 8017,
      "63": 8018,
      "fant": 8019,
      "hammer": 8020,
      "##izing": 8021,
      "particularly": 8022,
      "euro": 8023,
      "##lava": 8024,
      "repeating": 8025,
      "jamaican": 8026,
      "folds": 8027,
      "flush": 8028,
      "carmelized": 8029,
      "##redded": 8030,
      "town": 8031,
      "shri": 8032,
      "skimmer": 8033,
      "accompaniments": 8034,
      "cord": 8035,
      "pearls": 8036,
      "segmented": 8037,
      "##ranean": 8038,
      "parkay": 8039,
      "redi": 8040,
      "##ties": 8041,
      "buttering": 8042,
      "fud": 8043,
      "1116": 8044,
      "brickle": 8045,
      "fist": 8046,
      "##17": 8047,
      "anyway": 8048,
      "parma": 8049,
      "sparingly": 8050,
      "nature": 8051,
      "lol": 8052,
      "##box": 8053,
      "avacado": 8054,
      "kefir": 8055,
      "aburaage": 8056,
      "##iscus": 8057,
      "sundae": 8058,
      "##eper": 8059,
      "##atar": 8060,
      "gelato": 8061,
      "ingred": 8062,
      "tass": 8063,
      "clementines": 8064,
      "##ho": 8065,
      "luncheon": 8066,
      "420": 8067,
      "milled": 8068,
      "drumstick": 8069,
      "baklava": 8070,
      "crud": 8071,
      "wholemeal": 8072,
      "mut": 8073,
      "triangular": 8074,
      "grana": 8075,
      "gem": 8076,
      "##easpoon": 8077,
      "beur": 8078,
      "##ayan": 8079,
      "truss": 8080,
      "homogene": 8081,
      "chanterelles": 8082,
      "problem": 8083,
      "amaranth": 8084,
      "dole": 8085,
      "bother": 8086,
      "chicory": 8087,
      "mediterranean": 8088,
      "##fined": 8089,
      "##vado": 8090,
      "##assionally": 8091,
      "altitude": 8092,
      "hibiscus": 8093,
      "##assium": 8094,
      "disol": 8095,
      "mozzerella": 8096,
      "bittern": 8097,
      "produc": 8098,
      "brats": 8099,
      "nn": 8100,
      "##beat": 8101,
      "parties": 8102,
      "consistent": 8103,
      "clings": 8104,
      "solidify": 8105,
      "splashes": 8106,
      "teas": 8107,
      "bakery": 8108,
      "bitterness": 8109,
      "16oz": 8110,
      "##zuki": 8111,
      "##amate": 8112,
      "3rd": 8113,
      "verb": 8114,
      "choke": 8115,
      "potassium": 8116,
      "150c": 8117,
      "distributing": 8118,
      "vital": 8119,
      "jagg": 8120,
      "danish": 8121,
      "forced": 8122,
      "cute": 8123,
      "padano": 8124,
      "shirat": 8125,
      "cutouts": 8126,
      "figure": 8127,
      "##ndra": 8128,
      "citric": 8129,
      "monounsaturated": 8130,
      "dol": 8131,
      "##with": 8132,
      "##stle": 8133,
      "saw": 8134,
      "hardboiled": 8135,
      "chiku": 8136,
      "kiwif": 8137,
      "##drogenated": 8138,
      "sab": 8139,
      "cohesive": 8140,
      "carry": 8141,
      "plumped": 8142,
      "onstick": 8143,
      "cult": 8144,
      "homogeneous": 8145,
      "##iva": 8146,
      "adher": 8147,
      "harder": 8148,
      "beurre": 8149,
      "unrefined": 8150,
      "##dog": 8151,
      "hing": 8152,
      "##jou": 8153,
      "##inous": 8154,
      "coil": 8155,
      "tonic": 8156,
      "inspired": 8157,
      "pand": 8158,
      "##fgas": 8159,
      "ish": 8160,
      "seen": 8161,
      "rehydrate": 8162,
      "dirty": 8163,
      "##umet": 8164,
      "500f": 8165,
      "sip": 8166,
      "smother": 8167,
      "chanterelle": 8168,
      "54": 8169,
      "rush": 8170,
      "brands": 8171,
      "southwest": 8172,
      "plating": 8173,
      "lily": 8174,
      "##rant": 8175,
      "angl": 8176,
      "sweetcorn": 8177,
      "200u00b0f": 8178,
      "verbena": 8179,
      "chikuwa": 8180,
      "##edar": 8181,
      "##icing": 8182,
      "wondra": 8183,
      "himal": 8184,
      "latin": 8185,
      "maggi": 8186,
      "##cuitto": 8187,
      "changed": 8188,
      "god": 8189,
      "overbrown": 8190,
      "##stock": 8191,
      "scalding": 8192,
      "stoned": 8193,
      "trail": 8194,
      "hotdog": 8195,
      "backs": 8196,
      "okara": 8197,
      "refrigeratetill": 8198,
      "closer": 8199,
      "nea": 8200,
      "undercooked": 8201,
      "nab": 8202,
      "##cks": 8203,
      "medal": 8204,
      "##azote": 8205,
      "gut": 8206,
      "##tm": 8207,
      "walls": 8208,
      "96": 8209,
      "enamel": 8210,
      "sauter": 8211,
      "crispier": 8212,
      "kneaded": 8213,
      "islands": 8214,
      "muscovado": 8215,
      "athenos": 8216,
      "saltiness": 8217,
      "rever": 8218,
      "determine": 8219,
      "geor": 8220,
      "pac": 8221,
      "##boshi": 8222,
      "stamp": 8223,
      "stiring": 8224,
      "thank": 8225,
      "tad": 8226,
      "##itter": 8227,
      "raita": 8228,
      "adjusted": 8229,
      "epazote": 8230,
      "crusted": 8231,
      "guar": 8232,
      "##lick": 8233,
      "noir": 8234,
      "tighten": 8235,
      "crackle": 8236,
      "guess": 8237,
      "8x8x2": 8238,
      "debearded": 8239,
      "##eu": 8240,
      "##ashi": 8241,
      "mod": 8242,
      "12x8": 8243,
      "66": 8244,
      "squir": 8245,
      "anjou": 8246,
      "mintues": 8247,
      "homestyle": 8248,
      "1tbsp": 8249,
      "eastern": 8250,
      "##car": 8251,
      "potatoe": 8252,
      "umeboshi": 8253,
      "##cuits": 8254,
      "milliliter": 8255,
      "aromatics": 8256,
      "##ask": 8257,
      "##ribute": 8258,
      "roughy": 8259,
      "ahi": 8260,
      "##za": 8261,
      "##iders": 8262,
      "roller": 8263,
      "rests": 8264,
      "beneath": 8265,
      "eventually": 8266,
      "##ona": 8267,
      "##olo": 8268,
      "blades": 8269,
      "seals": 8270,
      "##self": 8271,
      "liked": 8272,
      "slider": 8273,
      "mature": 8274,
      "sauted": 8275,
      "whl": 8276,
      "beforehand": 8277,
      "cleanly": 8278,
      "160u00b0f": 8279,
      "mats": 8280,
      "spi": 8281,
      "pantry": 8282,
      "barbecued": 8283,
      "thinning": 8284,
      "125g": 8285,
      "uni": 8286,
      "evening": 8287,
      "exchange": 8288,
      "rashers": 8289,
      "chapat": 8290,
      "1000": 8291,
      "9oz": 8292,
      "faces": 8293,
      "##esta": 8294,
      "excessive": 8295,
      "keebler": 8296,
      "tape": 8297,
      "jiggles": 8298,
      "##hot": 8299,
      "himalayan": 8300,
      "arth": 8301,
      "substitutions": 8302,
      "limas": 8303,
      "165u00b0f": 8304,
      "pepp": 8305,
      "newsp": 8306,
      "##gio": 8307,
      "##bag": 8308,
      "packaging": 8309,
      "caramelizes": 8310,
      "nilla": 8311,
      "tandoori": 8312,
      "##cur": 8313,
      "##sters": 8314,
      "nonal": 8315,
      "rosewater": 8316,
      "smallest": 8317,
      "##burger": 8318,
      "recover": 8319,
      "skewered": 8320,
      "buttons": 8321,
      "bocc": 8322,
      "extrav": 8323,
      "airy": 8324,
      "##stand": 8325,
      "baskets": 8326,
      "meals": 8327,
      "join": 8328,
      "steadily": 8329,
      "tostadas": 8330,
      "##sen": 8331,
      "##jiang": 8332,
      "##rox": 8333,
      "anglaise": 8334,
      "cul": 8335,
      "##odium": 8336,
      "floor": 8337,
      "piles": 8338,
      "refridgerator": 8339,
      "sandy": 8340,
      "supposed": 8341,
      "##frozen": 8342,
      "##mite": 8343,
      "##acho": 8344,
      "jelled": 8345,
      "drawn": 8346,
      "kiwifruit": 8347,
      "monos": 8348,
      "drumettes": 8349,
      "hanout": 8350,
      "chur": 8351,
      "##raid": 8352,
      "youd": 8353,
      "refill": 8354,
      "weather": 8355,
      "mission": 8356,
      "susp": 8357,
      "atar": 8358,
      "##melted": 8359,
      "nests": 8360,
      "fifth": 8361,
      "isra": 8362,
      "fiesta": 8363,
      "##more": 8364,
      "tpour": 8365,
      "manis": 8366,
      "satiny": 8367,
      "t2": 8368,
      "boun": 8369,
      "faced": 8370,
      "##agn": 8371,
      "ocean": 8372,
      "glutamate": 8373,
      "cloudy": 8374,
      "fantastic": 8375,
      "ny": 8376,
      "##enuts": 8377,
      "grained": 8378,
      "afraid": 8379,
      "##bar": 8380,
      "boysenberries": 8381,
      "cin": 8382,
      "cedar": 8383,
      "##ered": 8384,
      "unders": 8385,
      "##leaf": 8386,
      "cla": 8387,
      "deta": 8388,
      "proscuitto": 8389,
      "monosodium": 8390,
      "um": 8391,
      "warning": 8392,
      "fed": 8393,
      "spit": 8394,
      "wouldn": 8395,
      "bulgar": 8396,
      "shy": 8397,
      "comrecipes": 8398,
      "##ention": 8399,
      "collected": 8400,
      "niblets": 8401,
      "workable": 8402,
      "stiffen": 8403,
      "creates": 8404,
      "370": 8405,
      "oak": 8406,
      "rhod": 8407,
      "capp": 8408,
      "midway": 8409,
      "wreath": 8410,
      "metallic": 8411,
      "kam": 8412,
      "morocc": 8413,
      "overflow": 8414,
      "fac": 8415,
      "goal": 8416,
      "vegies": 8417,
      "wrink": 8418,
      "inten": 8419,
      "mate": 8420,
      "seperated": 8421,
      "streaky": 8422,
      "chimney": 8423,
      "##large": 8424,
      "47": 8425,
      "asp": 8426,
      "buc": 8427,
      "##esco": 8428,
      "tou": 8429,
      "showing": 8430,
      "260": 8431,
      "bocconcini": 8432,
      "unav": 8433,
      "bladed": 8434,
      "patience": 8435,
      "myself": 8436,
      "##nyaku": 8437,
      "cardamoms": 8438,
      "konnyaku": 8439,
      "harvest": 8440,
      "choosing": 8441,
      "grown": 8442,
      "scalloped": 8443,
      "cri": 8444,
      "lind": 8445,
      "rnadd": 8446,
      "##nese": 8447,
      "##ences": 8448,
      "##ulas": 8449,
      "somewhere": 8450,
      "breadstick": 8451,
      "glutinous": 8452,
      "ou": 8453,
      "jackets": 8454,
      "brulee": 8455,
      "intense": 8456,
      "ched": 8457,
      "blanco": 8458,
      "ing": 8459,
      "##otes": 8460,
      "##thaw": 8461,
      "deeper": 8462,
      "patient": 8463,
      "accur": 8464,
      "exchanges": 8465,
      "arthur": 8466,
      "brun": 8467,
      "degr": 8468,
      "carib": 8469,
      "necks": 8470,
      "feather": 8471,
      "12x1": 8472,
      "135u00b0": 8473,
      "shrivel": 8474,
      "unavailable": 8475,
      "urad": 8476,
      "milks": 8477,
      "avoiding": 8478,
      "##onds": 8479,
      "overs": 8480,
      "colada": 8481,
      "burr": 8482,
      "puncture": 8483,
      "teflon": 8484,
      "bout": 8485,
      "icy": 8486,
      "proofing": 8487,
      "dips": 8488,
      "wines": 8489,
      "strand": 8490,
      "kilo": 8491,
      "les": 8492,
      "##ddles": 8493,
      "forest": 8494,
      "##isan": 8495,
      "teasp": 8496,
      "products": 8497,
      "extravirgin": 8498,
      "hallow": 8499,
      "bold": 8500,
      "powdery": 8501,
      "tartlets": 8502,
      "silicon": 8503,
      "moroccan": 8504,
      "aim": 8505,
      "enhance": 8506,
      "israeli": 8507,
      "eart": 8508,
      "hotel": 8509,
      "crump": 8510,
      "aji": 8511,
      "##chee": 8512,
      "tripe": 8513,
      "##oft": 8514,
      "##atini": 8515,
      "touches": 8516,
      "roses": 8517,
      "bloody": 8518,
      "twin": 8519,
      "bison": 8520,
      "earthen": 8521,
      "25g": 8522,
      "grigio": 8523,
      "madele": 8524,
      "inv": 8525,
      "##ui": 8526,
      "##itor": 8527,
      "dehydrator": 8528,
      "##x4": 8529,
      "satay": 8530,
      "pinwheels": 8531,
      "##uda": 8532,
      "pee": 8533,
      "##inny": 8534,
      "stabil": 8535,
      "fn": 8536,
      "peb": 8537,
      "mustards": 8538,
      "isnt": 8539,
      "widest": 8540,
      "rearr": 8541,
      "det": 8542,
      "pulverized": 8543,
      "promise": 8544,
      "hashbrowns": 8545,
      "mediumlow": 8546,
      "info": 8547,
      "function": 8548,
      "mizuna": 8549,
      "bee": 8550,
      "capon": 8551,
      "mingle": 8552,
      "fibers": 8553,
      "nabisco": 8554,
      "laz": 8555,
      "grow": 8556,
      "compl": 8557,
      "chayote": 8558,
      "##rest": 8559,
      "swi": 8560,
      "lasts": 8561,
      "increased": 8562,
      "gaz": 8563,
      "##nded": 8564,
      "roti": 8565,
      "scratch": 8566,
      "##ects": 8567,
      "crimping": 8568,
      "spirals": 8569,
      "diamonds": 8570,
      "##cept": 8571,
      "peices": 8572,
      "portug": 8573,
      "jaggery": 8574,
      "52": 8575,
      "bolognese": 8576,
      "bursts": 8577,
      "fettuccini": 8578,
      "corns": 8579,
      "1h": 8580,
      "##geon": 8581,
      "##chicken": 8582,
      "experience": 8583,
      "homogenous": 8584,
      "peal": 8585,
      "000": 8586,
      "herbal": 8587,
      "attention": 8588,
      "15oz": 8589,
      "##adella": 8590,
      "tinted": 8591,
      "ate": 8592,
      "macarons": 8593,
      "astry": 8594,
      "##pacho": 8595,
      "##enos": 8596,
      "brunch": 8597,
      "letter": 8598,
      "balloon": 8599,
      "lemony": 8600,
      "fudgy": 8601,
      "chosen": 8602,
      "desig": 8603,
      "nonpare": 8604,
      "##ifts": 8605,
      "##tand": 8606,
      "##until": 8607,
      "blends": 8608,
      "mortadella": 8609,
      "boy": 8610,
      "##fil": 8611,
      "ripen": 8612,
      "wearing": 8613,
      "##son": 8614,
      "balm": 8615,
      "bodied": 8616,
      "##juice": 8617,
      "planks": 8618,
      "heaven": 8619,
      "355": 8620,
      "rus": 8621,
      "posted": 8622,
      "##olor": 8623,
      "manag": 8624,
      "hors": 8625,
      "napkin": 8626,
      "fermentation": 8627,
      "improves": 8628,
      "asafetida": 8629,
      "kasha": 8630,
      "undersides": 8631,
      "rhodes": 8632,
      "inject": 8633,
      "frag": 8634,
      "##mann": 8635,
      "##crisp": 8636,
      "##anced": 8637,
      "item": 8638,
      "205": 8639,
      "complement": 8640,
      "gazpacho": 8641,
      "hog": 8642,
      "pay": 8643,
      "##tto": 8644,
      "##ya": 8645,
      "14c": 8646,
      "barilla": 8647,
      "utter": 8648,
      "93": 8649,
      "500u00b0f": 8650,
      "slender": 8651,
      "##arily": 8652,
      "valve": 8653,
      "##ager": 8654,
      "overripe": 8655,
      "veined": 8656,
      "soured": 8657,
      "batters": 8658,
      "bead": 8659,
      "##acy": 8660,
      "spatulas": 8661,
      "##partment": 8662,
      "redist": 8663,
      "occassionally": 8664,
      "shift": 8665,
      "true": 8666,
      "quin": 8667,
      "warmer": 8668,
      "viewer": 8669,
      "european": 8670,
      "late": 8671,
      "cara": 8672,
      "kelp": 8673,
      "##rous": 8674,
      "eleph": 8675,
      "sheep": 8676,
      "replacement": 8677,
      "lavash": 8678,
      "craft": 8679,
      "##half": 8680,
      "##combine": 8681,
      "shortcrust": 8682,
      "spong": 8683,
      "velvet": 8684,
      "##regular": 8685,
      "thanksgiving": 8686,
      "##eros": 8687,
      "newspaper": 8688,
      "fru": 8689,
      "ladyfinger": 8690,
      "pak": 8691,
      "sash": 8692,
      "buttersugar": 8693,
      "overheat": 8694,
      "reddish": 8695,
      "greasy": 8696,
      "artisan": 8697,
      "develops": 8698,
      "moments": 8699,
      "building": 8700,
      "jif": 8701,
      "1516": 8702,
      "imper": 8703,
      "swish": 8704,
      "aprox": 8705,
      "bn": 8706,
      "##ci": 8707,
      "burrata": 8708,
      "capellini": 8709,
      "ragout": 8710,
      "kinako": 8711,
      "pricked": 8712,
      "##breads": 8713,
      "cha": 8714,
      "fort": 8715,
      "garbanzos": 8716,
      "rabbits": 8717,
      "churning": 8718,
      "parcel": 8719,
      "subside": 8720,
      "cheeks": 8721,
      "releasing": 8722,
      "cact": 8723,
      "wel": 8724,
      "pav": 8725,
      "overcooking": 8726,
      "tspn": 8727,
      "obv": 8728,
      "3cm": 8729,
      "##lor": 8730,
      "culin": 8731,
      "sop": 8732,
      "kneed": 8733,
      "tamale": 8734,
      "earl": 8735,
      "tagine": 8736,
      "tmix": 8737,
      "pulverize": 8738,
      "snapped": 8739,
      "pairs": 8740,
      "##ablis": 8741,
      "chablis": 8742,
      "elephant": 8743,
      "liberal": 8744,
      "premade": 8745,
      "holidays": 8746,
      "overbrowning": 8747,
      "https": 8748,
      "ridged": 8749,
      "rutabagas": 8750,
      "utensil": 8751,
      "##imeters": 8752,
      "grandma": 8753,
      "tobasco": 8754,
      "sashimi": 8755,
      "peppered": 8756,
      "##green": 8757,
      "mode": 8758,
      "dillweed": 8759,
      "interest": 8760,
      "cactus": 8761,
      "pref": 8762,
      "patch": 8763,
      "##ppi": 8764,
      "medley": 8765,
      "gau": 8766,
      "##xx": 8767,
      "jon": 8768,
      "fritter": 8769,
      "defat": 8770,
      "piquillo": 8771,
      "general": 8772,
      "wholegrain": 8773,
      "170f": 8774,
      "##atsu": 8775,
      "muscle": 8776,
      "tvp": 8777,
      "##ram": 8778,
      "dressings": 8779,
      "whizz": 8780,
      "calumet": 8781,
      "hillshire": 8782,
      "earthenware": 8783,
      "gizzard": 8784,
      "316": 8785,
      "aunt": 8786,
      "adzuki": 8787,
      "es": 8788,
      "gen": 8789,
      "spearmint": 8790,
      "ht": 8791,
      "##strap": 8792,
      "returning": 8793,
      "douban": 8794,
      "farenheit": 8795,
      "mentioned": 8796,
      "##ination": 8797,
      "action": 8798,
      "hits": 8799,
      "##gerine": 8800,
      "nig": 8801,
      "##light": 8802,
      "dew": 8803,
      "rosettes": 8804,
      "gf": 8805,
      "finer": 8806,
      "collapse": 8807,
      "chou": 8808,
      "halloween": 8809,
      "contra": 8810,
      "frito": 8811,
      "unpo": 8812,
      "thinn": 8813,
      "expect": 8814,
      "190u00b0c": 8815,
      "randomly": 8816,
      "41": 8817,
      "##fire": 8818,
      "bisque": 8819,
      "improve": 8820,
      "10x15": 8821,
      "manageable": 8822,
      "15ml": 8823,
      "fav": 8824,
      "spatter": 8825,
      "melty": 8826,
      "football": 8827,
      "##60": 8828,
      "vide": 8829,
      "##rie": 8830,
      "celtic": 8831,
      "##chool": 8832,
      "amongst": 8833,
      "wob": 8834,
      "samuel": 8835,
      "ray": 8836,
      "andt": 8837,
      "clip": 8838,
      "##odized": 8839,
      "culinary": 8840,
      "mojo": 8841,
      "canchopped": 8842,
      "10g": 8843,
      "##preheat": 8844,
      "unpopped": 8845,
      "390": 8846,
      "quinces": 8847,
      "shio": 8848,
      "laugh": 8849,
      "secrets": 8850,
      "300g": 8851,
      "##cius": 8852,
      "##pans": 8853,
      "sant": 8854,
      "blint": 8855,
      "spreads": 8856,
      "hydrogenated": 8857,
      "##din": 8858,
      "##unk": 8859,
      "refined": 8860,
      "##owl": 8861,
      "##otic": 8862,
      "twisted": 8863,
      "##iles": 8864,
      "30ml": 8865,
      "##angas": 8866,
      "helping": 8867,
      "exclu": 8868,
      "genoa": 8869,
      "##pez": 8870,
      "##ected": 8871,
      "window": 8872,
      "occasion": 8873,
      "pierogies": 8874,
      "##film": 8875,
      "triscuits": 8876,
      "zig": 8877,
      "##erated": 8878,
      "oiling": 8879,
      "shine": 8880,
      "measurement": 8881,
      "enclosing": 8882,
      "clock": 8883,
      "loves": 8884,
      "elderflower": 8885,
      "gifts": 8886,
      "##uese": 8887,
      "##thawed": 8888,
      "deal": 8889,
      "someone": 8890,
      "sliding": 8891,
      "guest": 8892,
      "boats": 8893,
      "15g": 8894,
      "celcius": 8895,
      "##saute": 8896,
      "spongy": 8897,
      "blackening": 8898,
      "tiger": 8899,
      "outward": 8900,
      "lopez": 8901,
      "236": 8902,
      "spaghettini": 8903,
      "clingfilm": 8904,
      "yak": 8905,
      "festive": 8906,
      "spinner": 8907,
      "##cool": 8908,
      "portuguese": 8909,
      "redistribute": 8910,
      "precook": 8911,
      "##anci": 8912,
      "lazy": 8913,
      "son": 8914,
      "##towel": 8915,
      "##ammon": 8916,
      "velvety": 8917,
      "object": 8918,
      "whitefish": 8919,
      "noug": 8920,
      "tiss": 8921,
      "sucan": 8922,
      "sangr": 8923,
      "friendly": 8924,
      "oj": 8925,
      "##ection": 8926,
      "##note": 8927,
      "##bowl": 8928,
      "mues": 8929,
      "fibrous": 8930,
      "hon": 8931,
      "poppyseed": 8932,
      "kings": 8933,
      "concer": 8934,
      "glad": 8935,
      "value": 8936,
      "prec": 8937,
      "liquidy": 8938,
      "drag": 8939,
      "muesli": 8940,
      "sine": 8941,
      "trou": 8942,
      "pinched": 8943,
      "distin": 8944,
      "furi": 8945,
      "##bby": 8946,
      "##test": 8947,
      "##fresh": 8948,
      "##ayas": 8949,
      "solidified": 8950,
      "tasted": 8951,
      "doubanjiang": 8952,
      "sucanat": 8953,
      "hush": 8954,
      "##muda": 8955,
      "chute": 8956,
      "bucatini": 8957,
      "puri": 8958,
      "suck": 8959,
      "boca": 8960,
      "##200": 8961,
      "##emia": 8962,
      "weave": 8963,
      "##ueur": 8964,
      "clumping": 8965,
      "wiping": 8966,
      "sinew": 8967,
      "shar": 8968,
      "boboli": 8969,
      "##mic": 8970,
      "##tor": 8971,
      "plop": 8972,
      "acidic": 8973,
      "macaroon": 8974,
      "school": 8975,
      "margin": 8976,
      "preserving": 8977,
      "mutton": 8978,
      "sic": 8979,
      "infus": 8980,
      "html": 8981,
      "cannoli": 8982,
      "sens": 8983,
      "nougat": 8984,
      "parc": 8985,
      "jarls": 8986,
      "unmolding": 8987,
      "##ctose": 8988,
      "225g": 8989,
      "230c": 8990,
      "spiciness": 8991,
      "penetrate": 8992,
      "contrast": 8993,
      "##tin": 8994,
      "##estic": 8995,
      "courtes": 8996,
      "capsicums": 8997,
      "5mm": 8998,
      "##ppies": 8999,
      "##isch": 9000,
      "underdone": 9001,
      "bermuda": 9002,
      "serranos": 9003,
      "centres": 9004,
      "napkins": 9005,
      "courtesy": 9006,
      "ecl": 9007,
      "shop": 9008,
      "fromage": 9009,
      "enjoyed": 9010,
      "irregular": 9011,
      "skinny": 9012,
      "53": 9013,
      "##chers": 9014,
      "loins": 9015,
      "crank": 9016,
      "calzones": 9017,
      "fructose": 9018,
      "cray": 9019,
      "enter": 9020,
      "150u00b0": 9021,
      "ours": 9022,
      "liquefy": 9023,
      "uncut": 9024,
      "flouring": 9025,
      "porter": 9026,
      "terri": 9027,
      "lesueur": 9028,
      "##bows": 9029,
      "dissolving": 9030,
      "papayas": 9031,
      "watt": 9032,
      "##pend": 9033,
      "##least": 9034,
      "2tbsp": 9035,
      "flash": 9036,
      "piercing": 9037,
      "tir": 9038,
      "60g": 9039,
      "dest": 9040,
      "cuis": 9041,
      "blea": 9042,
      "living": 9043,
      "went": 9044,
      "frig": 9045,
      "joes": 9046,
      "photos": 9047,
      "digestive": 9048,
      "parcels": 9049,
      "##iels": 9050,
      "##qt": 9051,
      "chilly": 9052,
      "longest": 9053,
      "175c": 9054,
      "surrounded": 9055,
      "chedder": 9056,
      "gluco": 9057,
      "14oz": 9058,
      "atleast": 9059,
      "##ults": 9060,
      "margerine": 9061,
      "batons": 9062,
      "vitamix": 9063,
      "stud": 9064,
      "pepe": 9065,
      "alad": 9066,
      "grands": 9067,
      "occasional": 9068,
      "afterwards": 9069,
      "lucky": 9070,
      "ozs": 9071,
      "ke": 9072,
      "sak": 9073,
      "mediums": 9074,
      "smallish": 9075,
      "girl": 9076,
      "##180c": 9077,
      "eclair": 9078,
      "farina": 9079,
      "tears": 9080,
      "sweetbreads": 9081,
      "loosened": 9082,
      "scales": 9083,
      "stoneware": 9084,
      "##ucca": 9085,
      "tarter": 9086,
      "dye": 9087,
      "today": 9088,
      "stk": 9089,
      "235": 9090,
      "nearby": 9091,
      "consuming": 9092,
      "appr": 9093,
      "overfill": 9094,
      "diabet": 9095,
      "planning": 9096,
      "sultana": 9097,
      "##piece": 9098,
      "maria": 9099,
      "ooze": 9100,
      "mam": 9101,
      "mono": 9102,
      "tubs": 9103,
      "popover": 9104,
      "originally": 9105,
      "replen": 9106,
      "##28": 9107,
      "mee": 9108,
      "grounded": 9109,
      "cinnamonsugar": 9110,
      "suspend": 9111,
      "310": 9112,
      "compon": 9113,
      "boxed": 9114,
      "glucose": 9115,
      "##isu": 9116,
      "anymore": 9117,
      "curdling": 9118,
      "strongly": 9119,
      "tun": 9120,
      "coffe": 9121,
      "elbows": 9122,
      "##friger": 9123,
      "##ited": 9124,
      "kirby": 9125,
      "incr": 9126,
      "teabag": 9127,
      "##white": 9128,
      "george": 9129,
      "67": 9130,
      "hints": 9131,
      "##imo": 9132,
      "##list": 9133,
      "dislo": 9134,
      "crisper": 9135,
      "##ugel": 9136,
      "bruise": 9137,
      "4x": 9138,
      "oeu": 9139,
      "unmelted": 9140,
      "##ibu": 9141,
      "richly": 9142,
      "empanada": 9143,
      "nearest": 9144,
      "jarlsberg": 9145,
      "bin": 9146,
      "blackstrap": 9147,
      "##iblet": 9148,
      "maui": 9149,
      "judges": 9150,
      "beefy": 9151,
      "sprouted": 9152,
      "popular": 9153,
      "gly": 9154,
      "jerky": 9155,
      "corning": 9156,
      "yuca": 9157,
      "##van": 9158,
      "wigg": 9159,
      "##usal": 9160,
      "##imate": 9161,
      "turner": 9162,
      "##cord": 9163,
      "gristle": 9164,
      "##eburn": 9165,
      "roof": 9166,
      "dices": 9167,
      "##hredded": 9168,
      "fryers": 9169,
      "curved": 9170,
      "braeburn": 9171,
      "beside": 9172,
      "kh": 9173,
      "mea": 9174,
      "tstir": 9175,
      "##olis": 9176,
      "incisions": 9177,
      "den": 9178,
      "caramelised": 9179,
      "samos": 9180,
      "tplace": 9181,
      "popovers": 9182,
      "rigate": 9183,
      "retaining": 9184,
      "curried": 9185,
      "morel": 9186,
      "zatar": 9187,
      "shards": 9188,
      "nigella": 9189,
      "##emiah": 9190,
      "fillo": 9191,
      "##grate": 9192,
      "conch": 9193,
      "extras": 9194,
      "jeremiah": 9195,
      "support": 9196,
      "replenish": 9197,
      "wit": 9198,
      "##mart": 9199,
      "##table": 9200,
      "##got": 9201,
      "koji": 9202,
      "##chees": 9203,
      "wilton": 9204,
      "cham": 9205,
      "mis": 9206,
      "pureeing": 9207,
      "blanching": 9208,
      "crudites": 9209,
      "reverse": 9210,
      "sangria": 9211,
[...]
